{
  "version": "1.0",
  "truncation": null,
  "padding": null,
  "added_tokens": [
    {
      "id": 0,
      "content": "<unk>",
      "single_word": false,
      "lstrip": false,
      "rstrip": false,
      "normalized": false,
      "special": true
    },
    {
      "id": 1,
      "content": "<pad>",
      "single_word": false,
      "lstrip": false,
      "rstrip": false,
      "normalized": false,
      "special": true
    },
    {
      "id": 2,
      "content": "<bos>",
      "single_word": false,
      "lstrip": false,
      "rstrip": false,
      "normalized": false,
      "special": true
    },
    {
      "id": 3,
      "content": "<eos>",
      "single_word": false,
      "lstrip": false,
      "rstrip": false,
      "normalized": false,
      "special": true
    }
  ],
  "normalizer": null,
  "pre_tokenizer": {
    "type": "Whitespace"
  },
  "post_processor": null,
  "decoder": null,
  "model": {
    "type": "BPE",
    "dropout": null,
    "unk_token": "<unk>",
    "continuing_subword_prefix": null,
    "end_of_word_suffix": null,
    "fuse_unk": false,
    "byte_fallback": false,
    "ignore_merges": false,
    "vocab": {
      "<unk>": 0,
      "<pad>": 1,
      "<bos>": 2,
      "<eos>": 3,
      "!": 4,
      "\"": 5,
      "#": 6,
      "$": 7,
      "%": 8,
      "&": 9,
      "'": 10,
      "(": 11,
      ")": 12,
      "*": 13,
      "+": 14,
      ",": 15,
      "-": 16,
      ".": 17,
      "/": 18,
      "0": 19,
      "1": 20,
      "2": 21,
      "3": 22,
      "4": 23,
      "5": 24,
      "6": 25,
      "7": 26,
      "8": 27,
      "9": 28,
      ":": 29,
      ";": 30,
      "<": 31,
      "=": 32,
      ">": 33,
      "?": 34,
      "A": 35,
      "B": 36,
      "C": 37,
      "D": 38,
      "E": 39,
      "F": 40,
      "G": 41,
      "H": 42,
      "I": 43,
      "J": 44,
      "K": 45,
      "L": 46,
      "M": 47,
      "N": 48,
      "O": 49,
      "P": 50,
      "Q": 51,
      "R": 52,
      "S": 53,
      "T": 54,
      "U": 55,
      "V": 56,
      "W": 57,
      "X": 58,
      "Y": 59,
      "Z": 60,
      "[": 61,
      "\\": 62,
      "]": 63,
      "_": 64,
      "a": 65,
      "b": 66,
      "c": 67,
      "d": 68,
      "e": 69,
      "f": 70,
      "g": 71,
      "h": 72,
      "i": 73,
      "j": 74,
      "k": 75,
      "l": 76,
      "m": 77,
      "n": 78,
      "o": 79,
      "p": 80,
      "q": 81,
      "r": 82,
      "s": 83,
      "t": 84,
      "u": 85,
      "v": 86,
      "w": 87,
      "x": 88,
      "y": 89,
      "z": 90,
      "{": 91,
      "|": 92,
      "}": 93,
      "~": 94,
      "": 95,
      "§": 96,
      "«": 97,
      "¯": 98,
      "°": 99,
      "±": 100,
      "²": 101,
      "³": 102,
      "·": 103,
      "¸": 104,
      "»": 105,
      "¼": 106,
      "Á": 107,
      "É": 108,
      "Î": 109,
      "Õ": 110,
      "Ö": 111,
      "×": 112,
      "Ü": 113,
      "ß": 114,
      "à": 115,
      "á": 116,
      "â": 117,
      "ã": 118,
      "ä": 119,
      "æ": 120,
      "ç": 121,
      "è": 122,
      "é": 123,
      "ê": 124,
      "í": 125,
      "î": 126,
      "ï": 127,
      "ð": 128,
      "ñ": 129,
      "ó": 130,
      "ô": 131,
      "õ": 132,
      "ö": 133,
      "÷": 134,
      "ø": 135,
      "ù": 136,
      "ú": 137,
      "ü": 138,
      "ā": 139,
      "ă": 140,
      "ĉ": 141,
      "č": 142,
      "ē": 143,
      "ě": 144,
      "Ĝ": 145,
      "ĝ": 146,
      "ğ": 147,
      "ĥ": 148,
      "ī": 149,
      "ı": 150,
      "ĵ": 151,
      "ō": 152,
      "œ": 153,
      "Ŝ": 154,
      "ŝ": 155,
      "ū": 156,
      "ŭ": 157,
      "Ə": 158,
      "Ɣ": 159,
      "ǣ": 160,
      "ǧ": 161,
      "ə": 162,
      "ɛ": 163,
      "ɣ": 164,
      "ɪ": 165,
      "ʃ": 166,
      "ʊ": 167,
      "ʒ": 168,
      "ʿ": 169,
      "ˈ": 170,
      "ː": 171,
      "ˤ": 172,
      "́": 173,
      "Ά": 174,
      "Γ": 175,
      "Δ": 176,
      "Λ": 177,
      "Π": 178,
      "Σ": 179,
      "Φ": 180,
      "Χ": 181,
      "ά": 182,
      "έ": 183,
      "ή": 184,
      "ί": 185,
      "α": 186,
      "β": 187,
      "γ": 188,
      "δ": 189,
      "ε": 190,
      "η": 191,
      "θ": 192,
      "ι": 193,
      "κ": 194,
      "λ": 195,
      "μ": 196,
      "ν": 197,
      "ξ": 198,
      "ο": 199,
      "π": 200,
      "ρ": 201,
      "ς": 202,
      "σ": 203,
      "τ": 204,
      "υ": 205,
      "φ": 206,
      "χ": 207,
      "ω": 208,
      "ό": 209,
      "ύ": 210,
      "Ў": 211,
      "А": 212,
      "Б": 213,
      "В": 214,
      "Д": 215,
      "И": 216,
      "К": 217,
      "М": 218,
      "Н": 219,
      "П": 220,
      "Р": 221,
      "С": 222,
      "Т": 223,
      "Ф": 224,
      "Х": 225,
      "а": 226,
      "б": 227,
      "в": 228,
      "г": 229,
      "д": 230,
      "е": 231,
      "ж": 232,
      "з": 233,
      "и": 234,
      "й": 235,
      "к": 236,
      "л": 237,
      "м": 238,
      "н": 239,
      "о": 240,
      "п": 241,
      "р": 242,
      "с": 243,
      "т": 244,
      "у": 245,
      "ф": 246,
      "ц": 247,
      "ч": 248,
      "ъ": 249,
      "ы": 250,
      "ь": 251,
      "я": 252,
      "қ": 253,
      "ְ": 254,
      "ִ": 255,
      "ֵ": 256,
      "ַ": 257,
      "ָ": 258,
      "ֹ": 259,
      "ּ": 260,
      "ׁ": 261,
      "ׂ": 262,
      "א": 263,
      "ב": 264,
      "ג": 265,
      "ד": 266,
      "ה": 267,
      "ו": 268,
      "ז": 269,
      "ח": 270,
      "ט": 271,
      "י": 272,
      "ך": 273,
      "כ": 274,
      "ל": 275,
      "ם": 276,
      "מ": 277,
      "ן": 278,
      "נ": 279,
      "ס": 280,
      "ע": 281,
      "ף": 282,
      "פ": 283,
      "ץ": 284,
      "צ": 285,
      "ק": 286,
      "ר": 287,
      "ש": 288,
      "ת": 289,
      "،": 290,
      "؛": 291,
      "؟": 292,
      "ء": 293,
      "آ": 294,
      "أ": 295,
      "ؤ": 296,
      "إ": 297,
      "ئ": 298,
      "ا": 299,
      "ب": 300,
      "ة": 301,
      "ت": 302,
      "ث": 303,
      "ج": 304,
      "ح": 305,
      "خ": 306,
      "د": 307,
      "ذ": 308,
      "ر": 309,
      "ز": 310,
      "س": 311,
      "ش": 312,
      "ص": 313,
      "ض": 314,
      "ط": 315,
      "ظ": 316,
      "ع": 317,
      "غ": 318,
      "ـ": 319,
      "ف": 320,
      "ق": 321,
      "ك": 322,
      "ل": 323,
      "م": 324,
      "ن": 325,
      "ه": 326,
      "و": 327,
      "ى": 328,
      "ي": 329,
      "ً": 330,
      "ٌ": 331,
      "ٍ": 332,
      "َ": 333,
      "ُ": 334,
      "ِ": 335,
      "ّ": 336,
      "ْ": 337,
      "ٕ": 338,
      "٠": 339,
      "٢": 340,
      "٣": 341,
      "٤": 342,
      "٥": 343,
      "٧": 344,
      "٪": 345,
      "٫": 346,
      "ٰ": 347,
      "ٱ": 348,
      "ٳ": 349,
      "پ": 350,
      "چ": 351,
      "ژ": 352,
      "ڠ": 353,
      "ڤ": 354,
      "ک": 355,
      "گ": 356,
      "ی": 357,
      "ێ": 358,
      "ە": 359,
      "ۡ": 360,
      "ܐ": 361,
      "ܒ": 362,
      "ܓ": 363,
      "ܕ": 364,
      "ܗ": 365,
      "ܘ": 366,
      "ܙ": 367,
      "ܚ": 368,
      "ܛ": 369,
      "ܝ": 370,
      "ܟ": 371,
      "ܠ": 372,
      "ܡ": 373,
      "ܢ": 374,
      "ܣ": 375,
      "ܤ": 376,
      "ܥ": 377,
      "ܦ": 378,
      "ܨ": 379,
      "ܩ": 380,
      "ܪ": 381,
      "ܫ": 382,
      "ܬ": 383,
      "ݘ": 384,
      "ऀ": 385,
      "ँ": 386,
      "ं": 387,
      "ओ": 388,
      "क": 389,
      "द": 390,
      "ध": 391,
      "फ": 392,
      "म": 393,
      "र": 394,
      "ह": 395,
      "़": 396,
      "ि": 397,
      "ू": 398,
      "्": 399,
      "ა": 400,
      "ბ": 401,
      "ე": 402,
      "ი": 403,
      "ლ": 404,
      "ნ": 405,
      "ო": 406,
      "რ": 407,
      "ს": 408,
      "ტ": 409,
      "ძ": 410,
      "ḗ": 411,
      "ṓ": 412,
      "ἀ": 413,
      "Ἀ": 414,
      "ἐ": 415,
      "Ἑ": 416,
      "Ἔ": 417,
      "Ἰ": 418,
      "ὴ": 419,
      "ᾱ": 420,
      "ῆ": 421,
      "‌": 422,
      "‍": 423,
      "–": 424,
      "—": 425,
      "―": 426,
      "‘": 427,
      "’": 428,
      "“": 429,
      "”": 430,
      "•": 431,
      "…": 432,
      "⁬": 433,
      "₣": 434,
      "₪": 435,
      "€": 436,
      "←": 437,
      "−": 438,
      "∗": 439,
      "≈": 440,
      "◄": 441,
      "♂": 442,
      "ⴰ": 443,
      "ⴲ": 444,
      "ⴳ": 445,
      "ⴻ": 446,
      "ⵉ": 447,
      "ⵍ": 448,
      "ⵎ": 449,
      "ⵏ": 450,
      "ⵓ": 451,
      "ⵖ": 452,
      "ⵗ": 453,
      "ⵙ": 454,
      "ⵜ": 455,
      "ⵝ": 456,
      "ⵡ": 457,
      "ⵢ": 458,
      "ⵣ": 459,
      "い": 460,
      "お": 461,
      "か": 462,
      "げ": 463,
      "ず": 464,
      "の": 465,
      "り": 466,
      "れ": 467,
      "ァ": 468,
      "ガ": 469,
      "グ": 470,
      "コ": 471,
      "シ": 472,
      "ス": 473,
      "タ": 474,
      "ッ": 475,
      "フ": 476,
      "プ": 477,
      "ョ": 478,
      "リ": 479,
      "レ": 480,
      "ロ": 481,
      "ン": 482,
      "・": 483,
      "ー": 484,
      "七": 485,
      "万": 486,
      "三": 487,
      "上": 488,
      "下": 489,
      "主": 490,
      "久": 491,
      "九": 492,
      "乱": 493,
      "事": 494,
      "二": 495,
      "五": 496,
      "仁": 497,
      "代": 498,
      "伊": 499,
      "侍": 500,
      "保": 501,
      "信": 502,
      "倉": 503,
      "允": 504,
      "元": 505,
      "光": 506,
      "入": 507,
      "兵": 508,
      "冷": 509,
      "分": 510,
      "初": 511,
      "利": 512,
      "剣": 513,
      "功": 514,
      "化": 515,
      "北": 516,
      "十": 517,
      "南": 518,
      "単": 519,
      "博": 520,
      "原": 521,
      "古": 522,
      "可": 523,
      "合": 524,
      "吉": 525,
      "名": 526,
      "和": 527,
      "唐": 528,
      "四": 529,
      "国": 530,
      "國": 531,
      "土": 532,
      "地": 533,
      "堀": 534,
      "墳": 535,
      "士": 536,
      "夢": 537,
      "大": 538,
      "天": 539,
      "太": 540,
      "夫": 541,
      "夷": 542,
      "奈": 543,
      "如": 544,
      "子": 545,
      "孝": 546,
      "安": 547,
      "宋": 548,
      "宗": 549,
      "室": 550,
      "家": 551,
      "将": 552,
      "尊": 553,
      "少": 554,
      "居": 555,
      "履": 556,
      "山": 557,
      "峻": 558,
      "崇": 559,
      "川": 560,
      "州": 561,
      "師": 562,
      "帯": 563,
      "幕": 564,
      "平": 565,
      "府": 566,
      "康": 567,
      "式": 568,
      "弓": 569,
      "弗": 570,
      "弥": 571,
      "征": 572,
      "後": 573,
      "徳": 574,
      "德": 575,
      "応": 576,
      "思": 577,
      "愛": 578,
      "成": 579,
      "戦": 580,
      "戸": 581,
      "手": 582,
      "承": 583,
      "投": 584,
      "折": 585,
      "推": 586,
      "摂": 587,
      "撲": 588,
      "改": 589,
      "政": 590,
      "文": 591,
      "料": 592,
      "新": 593,
      "日": 594,
      "明": 595,
      "星": 596,
      "春": 597,
      "時": 598,
      "智": 599,
      "更": 600,
      "書": 601,
      "曹": 602,
      "月": 603,
      "朝": 604,
      "木": 605,
      "本": 606,
      "杉": 607,
      "条": 608,
      "柔": 609,
      "栃": 610,
      "栄": 611,
      "栽": 612,
      "桃": 613,
      "梅": 614,
      "楽": 615,
      "横": 616,
      "武": 617,
      "氏": 618,
      "民": 619,
      "気": 620,
      "汗": 621,
      "江": 622,
      "汤": 623,
      "河": 624,
      "治": 625,
      "泉": 626,
      "洞": 627,
      "浴": 628,
      "海": 629,
      "清": 630,
      "済": 631,
      "湯": 632,
      "満": 633,
      "源": 634,
      "火": 635,
      "照": 636,
      "物": 637,
      "玄": 638,
      "理": 639,
      "甚": 640,
      "生": 641,
      "田": 642,
      "町": 643,
      "白": 644,
      "皇": 645,
      "盆": 646,
      "盛": 647,
      "目": 648,
      "相": 649,
      "真": 650,
      "着": 651,
      "睦": 652,
      "神": 653,
      "禅": 654,
      "秀": 655,
      "穀": 656,
      "空": 657,
      "立": 658,
      "節": 659,
      "米": 660,
      "粟": 661,
      "紀": 662,
      "納": 663,
      "紙": 664,
      "紫": 665,
      "経": 666,
      "絹": 667,
      "維": 668,
      "綱": 669,
      "縄": 670,
      "織": 671,
      "義": 672,
      "羽": 673,
      "聖": 674,
      "臣": 675,
      "臨": 676,
      "良": 677,
      "艾": 678,
      "花": 679,
      "茶": 680,
      "草": 681,
      "菴": 682,
      "葉": 683,
      "蓮": 684,
      "藤": 685,
      "蝦": 686,
      "術": 687,
      "衛": 688,
      "衣": 689,
      "袋": 690,
      "袴": 691,
      "西": 692,
      "見": 693,
      "親": 694,
      "言": 695,
      "記": 696,
      "詮": 697,
      "語": 698,
      "謙": 699,
      "豆": 700,
      "豊": 701,
      "足": 702,
      "軍": 703,
      "通": 704,
      "道": 705,
      "部": 706,
      "郷": 707,
      "醍": 708,
      "醐": 709,
      "野": 710,
      "鎌": 711,
      "鐵": 712,
      "長": 713,
      "関": 714,
      "隆": 715,
      "集": 716,
      "鞋": 717,
      "韓": 718,
      "韩": 719,
      "頼": 720,
      "風": 721,
      "飛": 722,
      "食": 723,
      "駄": 724,
      "鳥": 725,
      "鸞": 726,
      "麦": 727,
      "黍": 728,
      "가": 729,
      "개": 730,
      "고": 731,
      "국": 732,
      "김": 733,
      "단": 734,
      "대": 735,
      "된": 736,
      "려": 737,
      "리": 738,
      "마": 739,
      "민": 740,
      "반": 741,
      "부": 742,
      "선": 743,
      "시": 744,
      "식": 745,
      "요": 746,
      "일": 747,
      "임": 748,
      "장": 749,
      "정": 750,
      "조": 751,
      "족": 752,
      "찌": 753,
      "찬": 754,
      "추": 755,
      "치": 756,
      "탕": 757,
      "한": 758,
      "𐤁": 759,
      "𐤉": 760,
      "𐤋": 761,
      "𐭠": 762,
      "𐭩": 763,
      "𐭪": 764,
      "𐭰": 765,
      "𐭲": 766,
      "𝐅": 767,
      "𝐕": 768,
      "𝐹": 769,
      "ال": 770,
      "ية": 771,
      "في": 772,
      "الم": 773,
      "ان": 774,
      "من": 775,
      "ات": 776,
      "ين": 777,
      "ار": 778,
      "ام": 779,
      "لى": 780,
      "الأ": 781,
      "ول": 782,
      "ها": 783,
      "الت": 784,
      "الع": 785,
      "را": 786,
      "ما": 787,
      "ون": 788,
      "ري": 789,
      "لا": 790,
      "وا": 791,
      "ير": 792,
      "ست": 793,
      "يا": 794,
      "لي": 795,
      "وال": 796,
      "على": 797,
      "ور": 798,
      "دي": 799,
      "أن": 800,
      "وم": 801,
      "الح": 802,
      "بي": 803,
      "الس": 804,
      "عد": 805,
      "لم": 806,
      "إلى": 807,
      "الق": 808,
      "بر": 809,
      "لك": 810,
      "نا": 811,
      "اب": 812,
      "كان": 813,
      "رب": 814,
      "اد": 815,
      "الإ": 816,
      "مع": 817,
      "سي": 818,
      "الج": 819,
      "الب": 820,
      "وي": 821,
      "وت": 822,
      "وب": 823,
      "هم": 824,
      "لل": 825,
      "قد": 826,
      "شر": 827,
      "ائ": 828,
      "19": 829,
      "الد": 830,
      "ًا": 831,
      "ود": 832,
      "الك": 833,
      "وس": 834,
      "عة": 835,
      "الن": 836,
      "الف": 837,
      "عن": 838,
      "دة": 839,
      "عام": 840,
      "تم": 841,
      "رة": 842,
      "اء": 843,
      "الش": 844,
      "التي": 845,
      "وق": 846,
      "سم": 847,
      "تح": 848,
      "عم": 849,
      "وج": 850,
      "بل": 851,
      "حي": 852,
      "هي": 853,
      "هذ": 854,
      "00": 855,
      "بن": 856,
      "قة": 857,
      "كل": 858,
      "الي": 859,
      "سا": 860,
      "الر": 861,
      "است": 862,
      "مة": 863,
      "الص": 864,
      "لة": 865,
      "فة": 866,
      "سب": 867,
      "رك": 868,
      "َّ": 869,
      "مد": 870,
      "سل": 871,
      "اع": 872,
      "وف": 873,
      "يل": 874,
      "اني": 875,
      "خل": 876,
      "حت": 877,
      "أو": 878,
      "بين": 879,
      "يد": 880,
      "كن": 881,
      "مر": 882,
      "الخ": 883,
      "ذلك": 884,
      "هو": 885,
      "الذ": 886,
      "بد": 887,
      "جم": 888,
      "الث": 889,
      "الل": 890,
      "حد": 891,
      "وأ": 892,
      "وع": 893,
      "سن": 894,
      "يم": 895,
      "با": 896,
      "عل": 897,
      "هر": 898,
      "خر": 899,
      "يت": 900,
      "بعد": 901,
      "كت": 902,
      "وز": 903,
      "انية": 904,
      "يع": 905,
      "أي": 906,
      "رن": 907,
      "قا": 908,
      "وفي": 909,
      "قي": 910,
      "صر": 911,
      "صل": 912,
      "ينة": 913,
      "اري": 914,
      "إن": 915,
      "كر": 916,
      "مت": 917,
      "بع": 918,
      "ني": 919,
      "سة": 920,
      "حا": 921,
      "قت": 922,
      "20": 923,
      "ئي": 924,
      "المد": 925,
      "تق": 926,
      "فا": 927,
      "هد": 928,
      "الط": 929,
      "وك": 930,
      "ارة": 931,
      "لت": 932,
      "لس": 933,
      "كم": 934,
      "فت": 935,
      "هذه": 936,
      "اص": 937,
      "يرة": 938,
      "والم": 939,
      "يات": 940,
      "ولة": 941,
      "الا": 942,
      "هذا": 943,
      "رض": 944,
      "كانت": 945,
      "الذي": 946,
      "علي": 947,
      "مث": 948,
      "نظ": 949,
      "ند": 950,
      "بة": 951,
      "سية": 952,
      "كي": 953,
      "دم": 954,
      "ثر": 955,
      "ربية": 956,
      "وط": 957,
      "ديد": 958,
      "وح": 959,
      "الغ": 960,
      "قل": 961,
      "زي": 962,
      "أس": 963,
      "اً": 964,
      "تي": 965,
      "قط": 966,
      "وري": 967,
      "تع": 968,
      "أك": 969,
      "قبل": 970,
      "بح": 971,
      "مل": 972,
      "حيث": 973,
      "لاد": 974,
      "200": 975,
      "كما": 976,
      "وان": 977,
      "فر": 978,
      "ولا": 979,
      "مج": 980,
      "در": 981,
      "وات": 982,
      "مح": 983,
      "غير": 984,
      "ته": 985,
      "يش": 986,
      "كون": 987,
      "العالم": 988,
      "الأم": 989,
      "أم": 990,
      "جا": 991,
      "خت": 992,
      "لف": 993,
      "سلام": 994,
      "كة": 995,
      "راء": 996,
      "مس": 997,
      "ثم": 998,
      "حة": 999,
      "وض": 1000,
      "تش": 1001,
      "وية": 1002,
      "مثل": 1003,
      "سنة": 1004,
      "طة": 1005,
      "ضا": 1006,
      "اله": 1007,
      "وقد": 1008,
      "اريخ": 1009,
      "المن": 1010,
      "لب": 1011,
      "رف": 1012,
      "المع": 1013,
      "جن": 1014,
      "الات": 1015,
      "201": 1016,
      "له": 1017,
      "الدين": 1018,
      "عب": 1019,
      "قر": 1020,
      "وص": 1021,
      "تا": 1022,
      "تد": 1023,
      "شا": 1024,
      "قية": 1025,
      "كب": 1026,
      "خص": 1027,
      "يو": 1028,
      "به": 1029,
      "شكل": 1030,
      "والت": 1031,
      "خلال": 1032,
      "طي": 1033,
      "حر": 1034,
      "الشر": 1035,
      "مي": 1036,
      "ومن": 1037,
      "رد": 1038,
      "بعض": 1039,
      "كا": 1040,
      "بت": 1041,
      "العربية": 1042,
      "جز": 1043,
      "اض": 1044,
      "سرا": 1045,
      "الية": 1046,
      "قام": 1047,
      "َّة": 1048,
      "جد": 1049,
      "الز": 1050,
      "عدد": 1051,
      "المس": 1052,
      "فس": 1053,
      "لاح": 1054,
      "برا": 1055,
      "خرى": 1056,
      "غة": 1057,
      "تر": 1058,
      "عند": 1059,
      "طقة": 1060,
      "جة": 1061,
      ")،": 1062,
      "ركة": 1063,
      "المت": 1064,
      "انت": 1065,
      ").": 1066,
      "الآ": 1067,
      "الإسلام": 1068,
      "كوم": 1069,
      "نية": 1070,
      "القرن": 1071,
      "حتى": 1072,
      "دا": 1073,
      "لق": 1074,
      "ورة": 1075,
      "ناء": 1076,
      "المدينة": 1077,
      "المتح": 1078,
      "عي": 1079,
      "جر": 1080,
      "أف": 1081,
      "ربي": 1082,
      "مار": 1083,
      "عت": 1084,
      "سيا": 1085,
      "ذا": 1086,
      "دول": 1087,
      "حل": 1088,
      "بار": 1089,
      "ادة": 1090,
      "ورية": 1091,
      "عمل": 1092,
      "العام": 1093,
      "أول": 1094,
      "اليا": 1095,
      "أص": 1096,
      "للم": 1097,
      "راق": 1098,
      "زة": 1099,
      "هود": 1100,
      "أنه": 1101,
      "الة": 1102,
      "تن": 1103,
      "ريق": 1104,
      "طين": 1105,
      "عض": 1106,
      "يق": 1107,
      "نة": 1108,
      "والأ": 1109,
      "وسط": 1110,
      "ملي": 1111,
      "الدول": 1112,
      "جت": 1113,
      "شار": 1114,
      "الاست": 1115,
      "199": 1116,
      "عية": 1117,
      "وهي": 1118,
      "18": 1119,
      "البر": 1120,
      "وهو": 1121,
      "وه": 1122,
      "السل": 1123,
      "ملك": 1124,
      "انيا": 1125,
      "الجز": 1126,
      "مست": 1127,
      "عدة": 1128,
      "جي": 1129,
      "المتحدة": 1130,
      "تت": 1131,
      "رية": 1132,
      "أكثر": 1133,
      "عا": 1134,
      "مدينة": 1135,
      "أب": 1136,
      "الله": 1137,
      "والتي": 1138,
      "مق": 1139,
      "بية": 1140,
      "تج": 1141,
      "شت": 1142,
      "ظم": 1143,
      "حية": 1144,
      "ثير": 1145,
      "صاد": 1146,
      "مسا": 1147,
      "خد": 1148,
      "كية": 1149,
      "والي": 1150,
      "الإن": 1151,
      "بها": 1152,
      "يُ": 1153,
      "طا": 1154,
      "شي": 1155,
      "ئيل": 1156,
      "السيا": 1157,
      "ئيس": 1158,
      "جه": 1159,
      "المست": 1160,
      "يز": 1161,
      "رس": 1162,
      "طق": 1163,
      "وكان": 1164,
      "بق": 1165,
      "مال": 1166,
      "ماء": 1167,
      "وار": 1168,
      "لد": 1169,
      "صف": 1170,
      "لسطين": 1171,
      "لِ": 1172,
      "بط": 1173,
      "خدم": 1174,
      "حاد": 1175,
      "العديد": 1176,
      "ثة": 1177,
      "ابن": 1178,
      "ئة": 1179,
      "قدم": 1180,
      "خط": 1181,
      "كس": 1182,
      "الجن": 1183,
      "سرائيل": 1184,
      "الحرب": 1185,
      "ويت": 1186,
      "وة": 1187,
      "خاص": 1188,
      "وى": 1189,
      "كومة": 1190,
      "وقت": 1191,
      "مُ": 1192,
      "وعة": 1193,
      "أيض": 1194,
      "عشر": 1195,
      "سع": 1196,
      "لين": 1197,
      "ّة": 1198,
      "أد": 1199,
      "فق": 1200,
      "سبة": 1201,
      "عات": 1202,
      "ولى": 1203,
      "بات": 1204,
      "لح": 1205,
      "وجود": 1206,
      "المغ": 1207,
      "فن": 1208,
      "فية": 1209,
      "شركة": 1210,
      "سط": 1211,
      "النا": 1212,
      "مان": 1213,
      "المنا": 1214,
      "194": 1215,
      "تحت": 1216,
      "اه": 1217,
      "البي": 1218,
      "تأ": 1219,
      "قلي": 1220,
      "مؤ": 1221,
      "وإ": 1222,
      "لكن": 1223,
      "جل": 1224,
      "عبد": 1225,
      "بِ": 1226,
      "ياء": 1227,
      "ناك": 1228,
      "بشكل": 1229,
      "وذ": 1230,
      "ضي": 1231,
      "بدأ": 1232,
      "سين": 1233,
      "اعت": 1234,
      "ائل": 1235,
      "بلغ": 1236,
      "الري": 1237,
      "أما": 1238,
      "ديدة": 1239,
      "وسي": 1240,
      "ركز": 1241,
      "جان": 1242,
      "مص": 1243,
      "وبي": 1244,
      "الدولة": 1245,
      "ارات": 1246,
      "طر": 1247,
      "المُ": 1248,
      "هل": 1249,
      "وث": 1250,
      "الياب": 1251,
      "ستان": 1252,
      "جميع": 1253,
      "بير": 1254,
      "ضافة": 1255,
      "فيها": 1256,
      "اللغة": 1257,
      "منذ": 1258,
      "تاريخ": 1259,
      "».": 1260,
      "أش": 1261,
      "منا": 1262,
      "ارج": 1263,
      "وقع": 1264,
      "تف": 1265,
      "العراق": 1266,
      "حول": 1267,
      "الأول": 1268,
      "لمين": 1269,
      "تلك": 1270,
      "النظ": 1271,
      "رات": 1272,
      "أح": 1273,
      "ذي": 1274,
      "ولكن": 1275,
      "وجد": 1276,
      "يين": 1277,
      "المر": 1278,
      "فض": 1279,
      "وصل": 1280,
      "سك": 1281,
      "عر": 1282,
      "طور": 1283,
      "دون": 1284,
      "المؤ": 1285,
      "ارية": 1286,
      "واق": 1287,
      "أخرى": 1288,
      "إلا": 1289,
      "تها": 1290,
      "نظام": 1291,
      "ونية": 1292,
      "000": 1293,
      "يط": 1294,
      "أنها": 1295,
      "ريط": 1296,
      "الفي": 1297,
      "سر": 1298,
      "سبب": 1299,
      "أحد": 1300,
      "يمكن": 1301,
      "كتاب": 1302,
      "إسرائيل": 1303,
      "هـ": 1304,
      "البلاد": 1305,
      "نفس": 1306,
      "وش": 1307,
      "دولة": 1308,
      "10": 1309,
      "الحا": 1310,
      "أغ": 1311,
      "الإم": 1312,
      "المي": 1313,
      "سات": 1314,
      "لاق": 1315,
      "والع": 1316,
      "وائ": 1317,
      "198": 1318,
      "فإن": 1319,
      "صد": 1320,
      "15": 1321,
      "التج": 1322,
      "محمد": 1323,
      "فقد": 1324,
      "ولي": 1325,
      "تاب": 1326,
      "ألم": 1327,
      "سان": 1328,
      "لها": 1329,
      "المسي": 1330,
      "196": 1331,
      "الوط": 1332,
      "منها": 1333,
      "ديم": 1334,
      "وين": 1335,
      "الض": 1336,
      "وبية": 1337,
      "علم": 1338,
      "غم": 1339,
      "قب": 1340,
      "مصر": 1341,
      "الأرد": 1342,
      "ولايات": 1343,
      "الأرض": 1344,
      "مجم": 1345,
      "لاف": 1346,
      "اته": 1347,
      "الشي": 1348,
      "الأمري": 1349,
      "أر": 1350,
      "التاريخ": 1351,
      "يون": 1352,
      "فظ": 1353,
      "قص": 1354,
      "الان": 1355,
      "ائر": 1356,
      "خدام": 1357,
      "أخ": 1358,
      "ضم": 1359,
      "يادة": 1360,
      "الأور": 1361,
      "ملكة": 1362,
      "اح": 1363,
      "كات": 1364,
      "هناك": 1365,
      "فع": 1366,
      "يج": 1367,
      "المح": 1368,
      "نت": 1369,
      "عندما": 1370,
      "وما": 1371,
      "العربي": 1372,
      "وير": 1373,
      "17": 1374,
      "جع": 1375,
      "امعة": 1376,
      "الذين": 1377,
      "197": 1378,
      "يتم": 1379,
      "امج": 1380,
      "تص": 1381,
      "مليون": 1382,
      "غا": 1383,
      "دية": 1384,
      "كبير": 1385,
      "منطقة": 1386,
      "وظ": 1387,
      "الأخ": 1388,
      "اسم": 1389,
      "شق": 1390,
      "مما": 1391,
      "أكبر": 1392,
      "عمال": 1393,
      "»،": 1394,
      "زا": 1395,
      "فل": 1396,
      "الاتحاد": 1397,
      "بغ": 1398,
      "فرن": 1399,
      "12": 1400,
      "كرة": 1401,
      "إلي": 1402,
      "يف": 1403,
      "المج": 1404,
      "البحر": 1405,
      "طار": 1406,
      "طالب": 1407,
      "يوم": 1408,
      "اليوم": 1409,
      "أهم": 1410,
      "رق": 1411,
      "وريا": 1412,
      "الأولى": 1413,
      "عليه": 1414,
      "بم": 1415,
      "بالإ": 1416,
      "واست": 1417,
      "أور": 1418,
      "ورا": 1419,
      "ألمانيا": 1420,
      "عادة": 1421,
      "طل": 1422,
      "المنطقة": 1423,
      "الفرن": 1424,
      "فترة": 1425,
      "اث": 1426,
      "ساب": 1427,
      "الرا": 1428,
      "صار": 1429,
      "ظهر": 1430,
      "كام": 1431,
      "195": 1432,
      "العرب": 1433,
      "زب": 1434,
      "حكم": 1435,
      "حوالي": 1436,
      "مه": 1437,
      "العمل": 1438,
      "193": 1439,
      "حق": 1440,
      "طبي": 1441,
      "داد": 1442,
      "طان": 1443,
      "مية": 1444,
      "آخر": 1445,
      "الين": 1446,
      "قتصاد": 1447,
      "..": 1448,
      "العل": 1449,
      "أيضًا": 1450,
      "وضع": 1451,
      "ضد": 1452,
      "باسم": 1453,
      "زل": 1454,
      "ياة": 1455,
      "دين": 1456,
      "الولايات": 1457,
      "الرياض": 1458,
      "إم": 1459,
      "ثلا": 1460,
      "صور": 1461,
      "14": 1462,
      "الملك": 1463,
      "اليهود": 1464,
      "ظمة": 1465,
      "فيه": 1466,
      "الشم": 1467,
      "رئيس": 1468,
      "حين": 1469,
      "وغ": 1470,
      "ذات": 1471,
      "صلاح": 1472,
      "الألم": 1473,
      "قائ": 1474,
      "غات": 1475,
      "الحكومة": 1476,
      "وبا": 1477,
      "سكان": 1478,
      "تل": 1479,
      "إد": 1480,
      "وني": 1481,
      "13": 1482,
      "ائية": 1483,
      "رح": 1484,
      "نها": 1485,
      "يست": 1486,
      "السكان": 1487,
      "16": 1488,
      "حو": 1489,
      "الثاني": 1490,
      "جتما": 1491,
      "الروم": 1492,
      "فلسطين": 1493,
      "عود": 1494,
      "غر": 1495,
      "عضاء": 1496,
      "تب": 1497,
      "سكر": 1498,
      "محا": 1499,
      "المسلمين": 1500,
      "er": 1501,
      "وبر": 1502,
      "ليبي": 1503,
      "ختل": 1504,
      "بلاد": 1505,
      "أث": 1506,
      "السوفي": 1507,
      "الإمبرا": 1508,
      "ولاية": 1509,
      "عليها": 1510,
      "ئية": 1511,
      "خوان": 1512,
      "غان": 1513,
      "الأخرى": 1514,
      "ومع": 1515,
      "ضمن": 1516,
      "ارس": 1517,
      "اصمة": 1518,
      "بيل": 1519,
      "ياه": 1520,
      "تُ": 1521,
      "ظر": 1522,
      "كتب": 1523,
      "هما": 1524,
      "لاج": 1525,
      "وجه": 1526,
      "دمشق": 1527,
      "معظم": 1528,
      "الإسلامية": 1529,
      "أع": 1530,
      "ذكر": 1531,
      "الموا": 1532,
      "الكويت": 1533,
      "بما": 1534,
      "سمية": 1535,
      "استخدام": 1536,
      "ينا": 1537,
      "الفن": 1538,
      "ده": 1539,
      "رج": 1540,
      "القر": 1541,
      "ياً": 1542,
      "لات": 1543,
      "الأس": 1544,
      "وذلك": 1545,
      "والذي": 1546,
      "المص": 1547,
      "لاء": 1548,
      "ستالين": 1549,
      "بسبب": 1550,
      "الجيش": 1551,
      "شخص": 1552,
      "احت": 1553,
      "حص": 1554,
      "عليم": 1555,
      "كيل": 1556,
      "ربع": 1557,
      "الفت": 1558,
      "امية": 1559,
      "العالمية": 1560,
      "خارج": 1561,
      "هب": 1562,
      "تبر": 1563,
      "الهند": 1564,
      "راد": 1565,
      "ريخ": 1566,
      "الخاص": 1567,
      "طريق": 1568,
      "طب": 1569,
      "تاج": 1570,
      "لبن": 1571,
      "ُّ": 1572,
      "بالإضافة": 1573,
      "الساب": 1574,
      "an": 1575,
      "فاع": 1576,
      "عُ": 1577,
      "راضي": 1578,
      "الحدي": 1579,
      "درا": 1580,
      "وحي": 1581,
      "فير": 1582,
      "الرغم": 1583,
      "ُل": 1584,
      "انات": 1585,
      "بال": 1586,
      "البريط": 1587,
      "الأح": 1588,
      "الأردن": 1589,
      "تين": 1590,
      "لاً": 1591,
      "الثانية": 1592,
      "أمري": 1593,
      "خاصة": 1594,
      "ثل": 1595,
      "زن": 1596,
      "ابل": 1597,
      "تس": 1598,
      "ختلفة": 1599,
      "فات": 1600,
      "والح": 1601,
      "عمر": 1602,
      "وكانت": 1603,
      "أحمد": 1604,
      "لمة": 1605,
      "ليل": 1606,
      "النظام": 1607,
      "شرين": 1608,
      "واحد": 1609,
      "عهد": 1610,
      "ضر": 1611,
      "عبر": 1612,
      "جما": 1613,
      "واح": 1614,
      "صب": 1615,
      "ولم": 1616,
      "از": 1617,
      "الوقت": 1618,
      "لند": 1619,
      "ابات": 1620,
      "زم": 1621,
      "أسا": 1622,
      "فه": 1623,
      "موس": 1624,
      "الثقا": 1625,
      "بأن": 1626,
      "تك": 1627,
      "ديمة": 1628,
      "فرنسا": 1629,
      "حركة": 1630,
      "مرة": 1631,
      "انون": 1632,
      "بغداد": 1633,
      "اليابان": 1634,
      "امة": 1635,
      "التش": 1636,
      "راً": 1637,
      "الحر": 1638,
      "كبيرة": 1639,
      "رير": 1640,
      "الرئي": 1641,
      "الفترة": 1642,
      "فقط": 1643,
      "دور": 1644,
      "نحو": 1645,
      "الأف": 1646,
      "تكون": 1647,
      "وغير": 1648,
      "الأك": 1649,
      "لال": 1650,
      "ولوج": 1651,
      "وأن": 1652,
      "الدي": 1653,
      "وبعد": 1654,
      "قال": 1655,
      "شأ": 1656,
      "المقد": 1657,
      "شرق": 1658,
      "انة": 1659,
      "ماي": 1660,
      "مجلس": 1661,
      "أعل": 1662,
      "حم": 1663,
      "مجموعة": 1664,
      "شمال": 1665,
      "والإ": 1666,
      "جامعة": 1667,
      "الإسلامي": 1668,
      "شف": 1669,
      "موا": 1670,
      "البح": 1671,
      "سام": 1672,
      "نف": 1673,
      "ُم": 1674,
      "الإخوان": 1675,
      "نظيم": 1676,
      "ألف": 1677,
      "كار": 1678,
      "هور": 1679,
      "بإ": 1680,
      "حما": 1681,
      "قسم": 1682,
      "الصليبي": 1683,
      "يكون": 1684,
      "ومات": 1685,
      "التق": 1686,
      "طالبان": 1687,
      "ضة": 1688,
      "أوروبا": 1689,
      "بالم": 1690,
      "ِّ": 1691,
      "سمى": 1692,
      "وزراء": 1693,
      "ضاء": 1694,
      "واقع": 1695,
      "حسب": 1696,
      "كث": 1697,
      "لن": 1698,
      "راف": 1699,
      "الأوروبي": 1700,
      "شاء": 1701,
      "لإ": 1702,
      "قطر": 1703,
      "جتمع": 1704,
      "شع": 1705,
      "الشيخ": 1706,
      "المناطق": 1707,
      "بدا": 1708,
      "جمع": 1709,
      "تز": 1710,
      "تست": 1711,
      "الخلي": 1712,
      "خلي": 1713,
      "عمان": 1714,
      "25": 1715,
      "جانب": 1716,
      "التح": 1717,
      "العلم": 1718,
      "بناء": 1719,
      "ترك": 1720,
      "ائزة": 1721,
      "الأمريكية": 1722,
      "زياء": 1723,
      "الأن": 1724,
      "الكتاب": 1725,
      "طن": 1726,
      "راك": 1727,
      "عاد": 1728,
      "العم": 1729,
      "وفت": 1730,
      "لبنان": 1731,
      "آن": 1732,
      "الأر": 1733,
      "إذ": 1734,
      "عداد": 1735,
      "أعضاء": 1736,
      "ويل": 1737,
      "التن": 1738,
      "الطبي": 1739,
      "in": 1740,
      "جوم": 1741,
      "الكثير": 1742,
      "اخت": 1743,
      "المريخ": 1744,
      "رائ": 1745,
      "سمي": 1746,
      "الشرق": 1747,
      "سوب": 1748,
      "عالم": 1749,
      "الأد": 1750,
      "السن": 1751,
      "الثالث": 1752,
      "انتخ": 1753,
      "سكرية": 1754,
      "غانستان": 1755,
      "فيما": 1756,
      "أق": 1757,
      "سيم": 1758,
      "جزء": 1759,
      "أط": 1760,
      "إس": 1761,
      "طية": 1762,
      "دث": 1763,
      "طوير": 1764,
      "يران": 1765,
      "القوات": 1766,
      "مركز": 1767,
      "واس": 1768,
      "والن": 1769,
      "القديمة": 1770,
      "تهم": 1771,
      "أيضا": 1772,
      "كروس": 1773,
      "هدف": 1774,
      "صا": 1775,
      "جنوب": 1776,
      "جيش": 1777,
      "لع": 1778,
      "الدا": 1779,
      "النمسا": 1780,
      "سرائي": 1781,
      "تغ": 1782,
      "امي": 1783,
      "قات": 1784,
      "قتل": 1785,
      "دولار": 1786,
      "الأسا": 1787,
      "تقد": 1788,
      "غيل": 1789,
      "القمر": 1790,
      "كروسوفت": 1791,
      "باد": 1792,
      "ريد": 1793,
      "الحكم": 1794,
      "مارس": 1795,
      "شهر": 1796,
      "الفلسطين": 1797,
      "سرائيلي": 1798,
      "تخ": 1799,
      "أفغانستان": 1800,
      "on": 1801,
      "سيس": 1802,
      "يه": 1803,
      "السا": 1804,
      "وبل": 1805,
      "باب": 1806,
      "وعات": 1807,
      "إذا": 1808,
      "الماء": 1809,
      "ريب": 1810,
      "طات": 1811,
      "مين": 1812,
      "ريف": 1813,
      "بالن": 1814,
      "داخل": 1815,
      "الوطني": 1816,
      "طورية": 1817,
      "مش": 1818,
      "الميلاد": 1819,
      "إنشاء": 1820,
      "الجزائر": 1821,
      "مز": 1822,
      "يح": 1823,
      "نائ": 1824,
      "المدن": 1825,
      "الغربية": 1826,
      "العامة": 1827,
      "30": 1828,
      "اة": 1829,
      "حدث": 1830,
      "آسيا": 1831,
      "كو": 1832,
      "راجع": 1833,
      "دائ": 1834,
      "حرب": 1835,
      "قًا": 1836,
      "موقع": 1837,
      "اللغات": 1838,
      "بش": 1839,
      "مغ": 1840,
      "المسا": 1841,
      "الشعب": 1842,
      "أثناء": 1843,
      "بالت": 1844,
      "منه": 1845,
      "الزرا": 1846,
      "صة": 1847,
      "ارت": 1848,
      "بينما": 1849,
      "سنوات": 1850,
      "يب": 1851,
      "الاقتصاد": 1852,
      "زيغ": 1853,
      "سمة": 1854,
      "تيجة": 1855,
      "واحدة": 1856,
      "لاجقة": 1857,
      "أبي": 1858,
      "50": 1859,
      "رسة": 1860,
      "زو": 1861,
      "وكذلك": 1862,
      "الحياة": 1863,
      "مايكروسوفت": 1864,
      "وخ": 1865,
      "هاد": 1866,
      "واء": 1867,
      "لهم": 1868,
      "يس": 1869,
      "واف": 1870,
      "ومة": 1871,
      "أرسل": 1872,
      "en": 1873,
      "جائزة": 1874,
      "رخ": 1875,
      "والق": 1876,
      "المعر": 1877,
      "عملية": 1878,
      "المغرب": 1879,
      "جديدة": 1880,
      "منظمة": 1881,
      "العرا": 1882,
      "قاط": 1883,
      "وكب": 1884,
      "11": 1885,
      "بيروت": 1886,
      "سكري": 1887,
      "لاب": 1888,
      "وسية": 1889,
      "وقف": 1890,
      "أيضاً": 1891,
      "يص": 1892,
      "اند": 1893,
      "درجة": 1894,
      "المسيحية": 1895,
      "زية": 1896,
      "عرف": 1897,
      "ودي": 1898,
      "وفر": 1899,
      "أبو": 1900,
      "الخاصة": 1901,
      "ماد": 1902,
      "ضل": 1903,
      "مبر": 1904,
      "الاجتما": 1905,
      "ختلف": 1906,
      "قلال": 1907,
      "شاه": 1908,
      "دخل": 1909,
      "طاع": 1910,
      "نى": 1911,
      "قيق": 1912,
      "كمة": 1913,
      "ّا": 1914,
      "العصر": 1915,
      "الهي": 1916,
      "البلد": 1917,
      "ar": 1918,
      "أرض": 1919,
      "ضع": 1920,
      "برز": 1921,
      "بحت": 1922,
      "وهر": 1923,
      "المملكة": 1924,
      "انيين": 1925,
      "لاقات": 1926,
      "بني": 1927,
      "ثقا": 1928,
      "نسبة": 1929,
      "مكن": 1930,
      "الفلك": 1931,
      "اط": 1932,
      "المياه": 1933,
      "والص": 1934,
      "القد": 1935,
      "الشرقية": 1936,
      "فيروز": 1937,
      "الشام": 1938,
      "حدود": 1939,
      "قطاع": 1940,
      "طلب": 1941,
      "ينية": 1942,
      "أصبحت": 1943,
      "شرة": 1944,
      "مناطق": 1945,
      "هار": 1946,
      "192": 1947,
      "اليمن": 1948,
      "قامت": 1949,
      "الجنوبية": 1950,
      "حلة": 1951,
      "عدم": 1952,
      "برلين": 1953,
      "الجما": 1954,
      "st": 1955,
      "فار": 1956,
      "ناطي": 1957,
      "عين": 1958,
      "جاه": 1959,
      "تمد": 1960,
      "الشمس": 1961,
      "أصبح": 1962,
      "اف": 1963,
      "غرب": 1964,
      "نامج": 1965,
      "منهم": 1966,
      "شهد": 1967,
      "ريقيا": 1968,
      "مو": 1969,
      "فين": 1970,
      "الاحت": 1971,
      "صادر": 1972,
      "جرة": 1973,
      "تمر": 1974,
      "بدأت": 1975,
      "الأمر": 1976,
      "واع": 1977,
      "ديز": 1978,
      "إدارة": 1979,
      "بداية": 1980,
      "طف": 1981,
      "وام": 1982,
      "أل": 1983,
      "أصل": 1984,
      "اكت": 1985,
      "بول": 1986,
      "نوف": 1987,
      "السلطة": 1988,
      "الفرنسي": 1989,
      "باني": 1990,
      "التعليم": 1991,
      "مؤس": 1992,
      "ياد": 1993,
      "تشار": 1994,
      "الخارج": 1995,
      "العثم": 1996,
      "تمام": 1997,
      "أكت": 1998,
      "هند": 1999,
      "الأص": 2000,
      "الأغ": 2001,
      "شك": 2002,
      "نوع": 2003,
      "العاصمة": 2004,
      "لمون": 2005,
      "عني": 2006,
      "ديزني": 2007,
      "إست": 2008,
      "لغة": 2009,
      "وحدة": 2010,
      "دع": 2011,
      "قُ": 2012,
      "قاد": 2013,
      "راع": 2014,
      "لاست": 2015,
      "ابة": 2016,
      "شبه": 2017,
      "عرض": 2018,
      "قوات": 2019,
      "ثار": 2020,
      "جلي": 2021,
      "وعلى": 2022,
      "الحد": 2023,
      "الرئيس": 2024,
      "يَ": 2025,
      "الشع": 2026,
      "تقع": 2027,
      "شتا": 2028,
      "الأما": 2029,
      "الحم": 2030,
      "أكتوبر": 2031,
      "أعمال": 2032,
      "خذ": 2033,
      "اهرة": 2034,
      "ثلاث": 2035,
      "نهاية": 2036,
      "أين": 2037,
      "بك": 2038,
      "تعد": 2039,
      "خرج": 2040,
      "حكومة": 2041,
      "استمر": 2042,
      "الجزيرة": 2043,
      "نفسه": 2044,
      "رئي": 2045,
      "ارب": 2046,
      "ربة": 2047,
      "تمبر": 2048,
      "حلية": 2049,
      "للإ": 2050,
      "قرار": 2051,
      "or": 2052,
      "جري": 2053,
      "برى": 2054,
      "نوفمبر": 2055,
      "سح": 2056,
      "المجتمع": 2057,
      "ولد": 2058,
      "ريقة": 2059,
      "جُ": 2060,
      "ساء": 2061,
      "طول": 2062,
      "شتاين": 2063,
      "وء": 2064,
      "ثلاثة": 2065,
      "أمريكي": 2066,
      "أهل": 2067,
      "إي": 2068,
      "المث": 2069,
      "ائي": 2070,
      "باط": 2071,
      "أجل": 2072,
      "الصنا": 2073,
      "بان": 2074,
      "ليات": 2075,
      "الوسط": 2076,
      "العد": 2077,
      "سبتمبر": 2078,
      "َّا": 2079,
      "مجال": 2080,
      "مقرا": 2081,
      "ئا": 2082,
      "رت": 2083,
      "بلد": 2084,
      "مليار": 2085,
      "أشهر": 2086,
      "وحيد": 2087,
      "th": 2088,
      "لأن": 2089,
      "الكني": 2090,
      "الإنسان": 2091,
      "إليه": 2092,
      "الإعل": 2093,
      "جهة": 2094,
      "جهزة": 2095,
      "الألمانية": 2096,
      "بالق": 2097,
      "جعل": 2098,
      "عيد": 2099,
      "نسمة": 2100,
      "التالي": 2101,
      "إنتاج": 2102,
      "جنة": 2103,
      "سطح": 2104,
      "زيد": 2105,
      "شب": 2106,
      "لدي": 2107,
      "يول": 2108,
      "الإد": 2109,
      "الطا": 2110,
      "الأمريكي": 2111,
      "المقدس": 2112,
      "صن": 2113,
      "المحا": 2114,
      "لام": 2115,
      "الأراضي": 2116,
      "ونيا": 2117,
      "همة": 2118,
      "الشمال": 2119,
      "المتوسط": 2120,
      "جماعة": 2121,
      "الحركة": 2122,
      "الناس": 2123,
      "اعتبار": 2124,
      "صبح": 2125,
      "لاعب": 2126,
      "المسيحي": 2127,
      "أمر": 2128,
      "للك": 2129,
      "وصف": 2130,
      "يناير": 2131,
      "جديد": 2132,
      "غيرة": 2133,
      "اليون": 2134,
      "دار": 2135,
      "صالح": 2136,
      "يؤ": 2137,
      "راب": 2138,
      "ريل": 2139,
      "ربعة": 2140,
      "es": 2141,
      "اك": 2142,
      "منت": 2143,
      "بيت": 2144,
      "الأمم": 2145,
      "وائل": 2146,
      "22": 2147,
      "عقد": 2148,
      "قى": 2149,
      "رياض": 2150,
      "الدولي": 2151,
      "السياسي": 2152,
      "يونيو": 2153,
      "الرياضيات": 2154,
      "ليب": 2155,
      "الحض": 2156,
      "وصول": 2157,
      "ليس": 2158,
      "حيان": 2159,
      "وفة": 2160,
      "وحد": 2161,
      "أنَّ": 2162,
      "جات": 2163,
      "غل": 2164,
      "نوبل": 2165,
      "سمبر": 2166,
      "حدى": 2167,
      "وزارة": 2168,
      "فظة": 2169,
      "2010": 2170,
      "عتبر": 2171,
      "الحديثة": 2172,
      "21": 2173,
      "حاء": 2174,
      "نص": 2175,
      "هُ": 2176,
      "للت": 2177,
      "وسيا": 2178,
      "الفرنسية": 2179,
      "أينشتاين": 2180,
      "al": 2181,
      "أُ": 2182,
      "رأس": 2183,
      "وّ": 2184,
      "ريات": 2185,
      "وادي": 2186,
      "at": 2187,
      "تتم": 2188,
      "السنة": 2189,
      "فاق": 2190,
      "الأمير": 2191,
      "ئات": 2192,
      "هام": 2193,
      "مايو": 2194,
      "ديسمبر": 2195,
      "تحدث": 2196,
      "الوطنية": 2197,
      "رها": 2198,
      "التا": 2199,
      "براير": 2200,
      "الإمبراطورية": 2201,
      "سبيل": 2202,
      "يوجد": 2203,
      "المجم": 2204,
      "العشرين": 2205,
      "الصح": 2206,
      "يرات": 2207,
      "شروع": 2208,
      "السياسية": 2209,
      "البريطانية": 2210,
      "مختلفة": 2211,
      "ورد": 2212,
      "وتم": 2213,
      "سلحة": 2214,
      "اذ": 2215,
      "رش": 2216,
      "الأش": 2217,
      "لاقة": 2218,
      "برية": 2219,
      "يوليو": 2220,
      "اق": 2221,
      "روا": 2222,
      "الجديدة": 2223,
      "أدى": 2224,
      "لندا": 2225,
      "نز": 2226,
      "اللبن": 2227,
      "قاً": 2228,
      "شاط": 2229,
      "غرا": 2230,
      "طلاق": 2231,
      "كوريا": 2232,
      "المق": 2233,
      "المعل": 2234,
      "الآن": 2235,
      "جاء": 2236,
      "خم": 2237,
      "َل": 2238,
      "والد": 2239,
      "هيم": 2240,
      "صرية": 2241,
      "2011": 2242,
      "الحاسوب": 2243,
      "انتخابات": 2244,
      "جبل": 2245,
      "صنا": 2246,
      "التص": 2247,
      "سطس": 2248,
      "اقت": 2249,
      "فبراير": 2250,
      "وزير": 2251,
      "ch": 2252,
      "لكل": 2253,
      "عُمان": 2254,
      "24": 2255,
      "لغ": 2256,
      "المركز": 2257,
      "راض": 2258,
      "رفض": 2259,
      "تفاع": 2260,
      "اليهودية": 2261,
      "رع": 2262,
      "شم": 2263,
      "صح": 2264,
      "انتق": 2265,
      "بالنسبة": 2266,
      "جار": 2267,
      "حزب": 2268,
      "مات": 2269,
      "الترك": 2270,
      "جمه": 2271,
      "وغيرها": 2272,
      "ندي": 2273,
      "الفيزياء": 2274,
      "يَّة": 2275,
      "حماس": 2276,
      "نتيجة": 2277,
      "قائمة": 2278,
      "دراسة": 2279,
      "الوسطى": 2280,
      "مود": 2281,
      "هاء": 2282,
      "أسست": 2283,
      "الجزائ": 2284,
      "أغسطس": 2285,
      "it": 2286,
      "خلدون": 2287,
      "الخام": 2288,
      "أفضل": 2289,
      "خارجية": 2290,
      "زع": 2291,
      "مكان": 2292,
      "مملكة": 2293,
      "العبا": 2294,
      "أيام": 2295,
      "ذهب": 2296,
      "رم": 2297,
      "نهر": 2298,
      "العسكرية": 2299,
      "والس": 2300,
      "القا": 2301,
      "الدرا": 2302,
      "يعتبر": 2303,
      "أنحاء": 2304,
      "وطن": 2305,
      "كستان": 2306,
      "يعد": 2307,
      "وحة": 2308,
      "2009": 2309,
      "الصليبيين": 2310,
      "إحدى": 2311,
      "حصل": 2312,
      "واض": 2313,
      "الحي": 2314,
      "الغربي": 2315,
      "الجنوب": 2316,
      "بـ": 2317,
      "زيز": 2318,
      "أوا": 2319,
      "أقل": 2320,
      "اي": 2321,
      "الحق": 2322,
      "الإسرائيلي": 2323,
      "المدارس": 2324,
      "الشركة": 2325,
      "جزيرة": 2326,
      "الآخر": 2327,
      "رؤ": 2328,
      "معد": 2329,
      "التقلي": 2330,
      "والك": 2331,
      "كانوا": 2332,
      "الجديد": 2333,
      "النف": 2334,
      "اليم": 2335,
      "2008": 2336,
      "الدولية": 2337,
      "تنظيم": 2338,
      "زمة": 2339,
      "معركة": 2340,
      "الكبرى": 2341,
      "23": 2342,
      "يني": 2343,
      "الجام": 2344,
      "للع": 2345,
      "نظرية": 2346,
      "آل": 2347,
      "واج": 2348,
      "الفار": 2349,
      "الشخص": 2350,
      "تأسيس": 2351,
      "الثقافة": 2352,
      "صادي": 2353,
      "الخارجية": 2354,
      "60": 2355,
      "جام": 2356,
      "شعب": 2357,
      "فتح": 2358,
      "ينات": 2359,
      "لاع": 2360,
      "السابق": 2361,
      "البحث": 2362,
      "حات": 2363,
      "الها": 2364,
      "ستور": 2365,
      "سيطر": 2366,
      "خدمة": 2367,
      "القب": 2368,
      "السوفيتي": 2369,
      "وهران": 2370,
      "100": 2371,
      "إضافة": 2372,
      "فري": 2373,
      "الأمن": 2374,
      "هيونية": 2375,
      "متر": 2376,
      "190": 2377,
      "الدفاع": 2378,
      "توفي": 2379,
      "خفض": 2380,
      "فص": 2381,
      "قلة": 2382,
      "ونس": 2383,
      "بص": 2384,
      "كلمة": 2385,
      "نور": 2386,
      "الظ": 2387,
      "الوزراء": 2388,
      "لاة": 2389,
      "معر": 2390,
      "ائد": 2391,
      "هيئة": 2392,
      "الغرب": 2393,
      "أغلب": 2394,
      "شام": 2395,
      "نشر": 2396,
      "قيقة": 2397,
      "40": 2398,
      "كذلك": 2399,
      "نب": 2400,
      "السلاجقة": 2401,
      "القديم": 2402,
      "ناصر": 2403,
      "جمالي": 2404,
      "لفزي": 2405,
      "السلطان": 2406,
      "اش": 2407,
      "ميل": 2408,
      "ارك": 2409,
      "العهد": 2410,
      "الجمه": 2411,
      "وبة": 2412,
      "ودة": 2413,
      "الثلا": 2414,
      "وسيقى": 2415,
      "الرئيسية": 2416,
      "الداخل": 2417,
      "يهود": 2418,
      "قدر": 2419,
      "قامة": 2420,
      "مارات": 2421,
      "عاون": 2422,
      "جها": 2423,
      "عاصمة": 2424,
      "قوم": 2425,
      "إعادة": 2426,
      "مم": 2427,
      "العصور": 2428,
      "انيون": 2429,
      "2007": 2430,
      "قاب": 2431,
      "حيط": 2432,
      "البيزن": 2433,
      "أخذ": 2434,
      "ولوجيا": 2435,
      "80": 2436,
      "is": 2437,
      "سخ": 2438,
      "غالب": 2439,
      "وها": 2440,
      "يته": 2441,
      "أسس": 2442,
      "لدى": 2443,
      "موال": 2444,
      "فيذ": 2445,
      "ينيات": 2446,
      "واكب": 2447,
      "بيع": 2448,
      "الكبير": 2449,
      "الخط": 2450,
      "باح": 2451,
      "علماء": 2452,
      "كيلوم": 2453,
      "غي": 2454,
      "قض": 2455,
      "بحر": 2456,
      "شاف": 2457,
      "الحدود": 2458,
      "الأمازيغ": 2459,
      "أت": 2460,
      "أبرز": 2461,
      "حدي": 2462,
      "نقل": 2463,
      "يام": 2464,
      "عمليات": 2465,
      "مستوى": 2466,
      "إليها": 2467,
      "المجلس": 2468,
      "الخليج": 2469,
      "جيل": 2470,
      "حالة": 2471,
      "طوي": 2472,
      "يكن": 2473,
      "ّان": 2474,
      "برنامج": 2475,
      "قاومة": 2476,
      "جمهورية": 2477,
      "طلق": 2478,
      "طلح": 2479,
      "وتش": 2480,
      "ائلة": 2481,
      "el": 2482,
      "وهذا": 2483,
      "اتحاد": 2484,
      "ريم": 2485,
      "بريط": 2486,
      "ثي": 2487,
      "ابع": 2488,
      "رنت": 2489,
      "حاول": 2490,
      "متح": 2491,
      "الجامعة": 2492,
      "وسف": 2493,
      "سمح": 2494,
      "تعتبر": 2495,
      "طاق": 2496,
      "كور": 2497,
      "الدينية": 2498,
      "الشمالية": 2499,
      "لادن": 2500,
      "وارد": 2501,
      "فنلندا": 2502,
      "الأوروبية": 2503,
      "الأكثر": 2504,
      "26": 2505,
      "أعلى": 2506,
      "إسلام": 2507,
      "جراء": 2508,
      "ونة": 2509,
      "الساد": 2510,
      "البشر": 2511,
      "وفاة": 2512,
      "الثورة": 2513,
      "وعية": 2514,
      "نظمة": 2515,
      "التشغيل": 2516,
      "الرئيسي": 2517,
      "أة": 2518,
      "ميم": 2519,
      "الاقت": 2520,
      "تشكل": 2521,
      "شارك": 2522,
      "الإمبراطور": 2523,
      "المثال": 2524,
      "29": 2525,
      "سلة": 2526,
      "قول": 2527,
      "لما": 2528,
      "هير": 2529,
      "هرب": 2530,
      "والر": 2531,
      "السُل": 2532,
      "الأخيرة": 2533,
      "بري": 2534,
      "زام": 2535,
      "طنة": 2536,
      "المختلفة": 2537,
      "المؤس": 2538,
      "ثاني": 2539,
      "فهي": 2540,
      "يبلغ": 2541,
      "2006": 2542,
      "BC": 2543,
      "بس": 2544,
      "تطوير": 2545,
      "اتي": 2546,
      "القدم": 2547,
      "وبين": 2548,
      "شركات": 2549,
      "وانين": 2550,
      "أمام": 2551,
      "اضي": 2552,
      "وجودة": 2553,
      "القدس": 2554,
      "اجتما": 2555,
      "وتر": 2556,
      "مدن": 2557,
      "تقديم": 2558,
      "جزاء": 2559,
      "السلام": 2560,
      "أبريل": 2561,
      "أثر": 2562,
      "اشت": 2563,
      "سُ": 2564,
      "شل": 2565,
      "هن": 2566,
      "وكالة": 2567,
      "يقوم": 2568,
      "إستونيا": 2569,
      "زيادة": 2570,
      "ملا": 2571,
      "فيا": 2572,
      "اتها": 2573,
      "وتن": 2574,
      "مجيات": 2575,
      "الشرقي": 2576,
      "العلوم": 2577,
      "مواليد": 2578,
      "27": 2579,
      "اقتصاد": 2580,
      "ترنت": 2581,
      "شد": 2582,
      "مبا": 2583,
      "لادي": 2584,
      "ادية": 2585,
      "نظر": 2586,
      "المعلومات": 2587,
      "التر": 2588,
      "اليابانية": 2589,
      "يجب": 2590,
      "سوق": 2591,
      "قوة": 2592,
      "يك": 2593,
      "راج": 2594,
      "واصل": 2595,
      "السعود": 2596,
      "لاحظ": 2597,
      "التاسع": 2598,
      "كثير": 2599,
      "الاسم": 2600,
      "وإن": 2601,
      "ليم": 2602,
      "الحكوم": 2603,
      "لمان": 2604,
      "عامل": 2605,
      "مساحة": 2606,
      "أواخر": 2607,
      "السعودية": 2608,
      "بو": 2609,
      "عار": 2610,
      "وافق": 2611,
      "والش": 2612,
      "محمود": 2613,
      "جاز": 2614,
      "تاح": 2615,
      "بقيادة": 2616,
      "BBC": 2617,
      "بيض": 2618,
      "وزيع": 2619,
      "العالمي": 2620,
      "سياسي": 2621,
      "التجارية": 2622,
      "المحلي": 2623,
      "الحديث": 2624,
      "فور": 2625,
      "َّى": 2626,
      "أورا": 2627,
      "2012": 2628,
      "عاية": 2629,
      "القاعدة": 2630,
      "اغ": 2631,
      "بور": 2632,
      "حياة": 2633,
      "والخ": 2634,
      "وسع": 2635,
      "الرس": 2636,
      "وريت": 2637,
      "2000": 2638,
      "ذاك": 2639,
      "فضل": 2640,
      "ic": 2641,
      "سوريا": 2642,
      "قانون": 2643,
      "منح": 2644,
      "الأعمال": 2645,
      "ساعد": 2646,
      "2014": 2647,
      "افت": 2648,
      "فصل": 2649,
      "التع": 2650,
      "ناد": 2651,
      "لذلك": 2652,
      "مقر": 2653,
      "واة": 2654,
      "ادر": 2655,
      "طارد": 2656,
      "الاقتصادية": 2657,
      "خول": 2658,
      "المحلية": 2659,
      "الرح": 2660,
      "الفلسطينية": 2661,
      "28": 2662,
      "ؤول": 2663,
      "توجد": 2664,
      "اتهم": 2665,
      "الأوسط": 2666,
      "هاجر": 2667,
      "ريين": 2668,
      "ورو": 2669,
      "ادل": 2670,
      "الصهيونية": 2671,
      "اريس": 2672,
      "المدرسة": 2673,
      "تنا": 2674,
      "زين": 2675,
      "سكن": 2676,
      "كلم": 2677,
      "ماع": 2678,
      "ورك": 2679,
      "وتح": 2680,
      "تأثير": 2681,
      "أعلنت": 2682,
      "اس": 2683,
      "تطور": 2684,
      "صدر": 2685,
      "ياسين": 2686,
      "أنواع": 2687,
      "القانون": 2688,
      "الصين": 2689,
      "الداخلية": 2690,
      "تقدم": 2691,
      "فوق": 2692,
      "لغات": 2693,
      "الأبيض": 2694,
      "الحزب": 2695,
      "سيد": 2696,
      "تحقيق": 2697,
      "سلسلة": 2698,
      "تقوم": 2699,
      "زايد": 2700,
      "ئاسة": 2701,
      "اللي": 2702,
      "امل": 2703,
      "ريعة": 2704,
      "النات": 2705,
      "ساي": 2706,
      "يعرف": 2707,
      "أعلن": 2708,
      "الـ": 2709,
      "العسكري": 2710,
      "ريبا": 2711,
      "ياس": 2712,
      "ديو": 2713,
      "قيام": 2714,
      "2004": 2715,
      "جزر": 2716,
      "مقابل": 2717,
      "كامل": 2718,
      "العراقي": 2719,
      "البيزنطي": 2720,
      "إل": 2721,
      "سلمين": 2722,
      "هرة": 2723,
      "الأصل": 2724,
      "السي": 2725,
      "البوذ": 2726,
      "2003": 2727,
      "خصص": 2728,
      "أربع": 2729,
      "إبرا": 2730,
      "فعل": 2731,
      "مط": 2732,
      "وهم": 2733,
      "يوسف": 2734,
      "المجا": 2735,
      "التأ": 2736,
      "وسائل": 2737,
      "تيار": 2738,
      "2001": 2739,
      "الاستقلال": 2740,
      "خطوط": 2741,
      "الطاقة": 2742,
      "تشر": 2743,
      "طائ": 2744,
      "واعد": 2745,
      "اعر": 2746,
      "فاز": 2747,
      "الألماني": 2748,
      "ليبيا": 2749,
      "وقام": 2750,
      "الرسمية": 2751,
      "فرد": 2752,
      "التاريخية": 2753,
      "70": 2754,
      "بون": 2755,
      "خان": 2756,
      "شير": 2757,
      "ُر": 2758,
      "ارتفاع": 2759,
      "العق": 2760,
      "ريس": 2761,
      "برامج": 2762,
      "ناة": 2763,
      "يعود": 2764,
      "ؤلاء": 2765,
      "بث": 2766,
      "حض": 2767,
      "نسب": 2768,
      "ومي": 2769,
      "الجمع": 2770,
      "الكيم": 2771,
      "ركات": 2772,
      "2015": 2773,
      "العلماء": 2774,
      "باستخدام": 2775,
      "يهو": 2776,
      "منصب": 2777,
      "والف": 2778,
      "خلف": 2779,
      "وفيات": 2780,
      "لسفة": 2781,
      "2016": 2782,
      "أفريقيا": 2783,
      "التجارة": 2784,
      "أربعة": 2785,
      "افة": 2786,
      "اهر": 2787,
      "حسن": 2788,
      "صاح": 2789,
      "الكون": 2790,
      "تحديد": 2791,
      "علان": 2792,
      "هرجان": 2793,
      "نيف": 2794,
      "فاظ": 2795,
      "بحث": 2796,
      "الديمقرا": 2797,
      "نش": 2798,
      "ابعة": 2799,
      "المؤرخ": 2800,
      "إمبرا": 2801,
      "باللغة": 2802,
      "جمة": 2803,
      "زاب": 2804,
      "غط": 2805,
      "انظر": 2806,
      "1948": 2807,
      "اليد": 2808,
      "وهناك": 2809,
      "جب": 2810,
      "طرا": 2811,
      "يحت": 2812,
      "مثلة": 2813,
      "محافظة": 2814,
      "أوراكل": 2815,
      "باء": 2816,
      "خا": 2817,
      "ذب": 2818,
      "سق": 2819,
      "عربية": 2820,
      "هة": 2821,
      "هات": 2822,
      "والج": 2823,
      "تعرض": 2824,
      "خصوص": 2825,
      "أساس": 2826,
      "واسعة": 2827,
      "ابي": 2828,
      "باست": 2829,
      "ترا": 2830,
      "المشت": 2831,
      "السب": 2832,
      "السوي": 2833,
      "ائق": 2834,
      "عمار": 2835,
      "فاقية": 2836,
      "يزر": 2837,
      "ظهرت": 2838,
      "الخليفة": 2839,
      "إبراهيم": 2840,
      "أراضي": 2841,
      "امن": 2842,
      "حلب": 2843,
      "طرة": 2844,
      "ظل": 2845,
      "عرب": 2846,
      "المه": 2847,
      "العلاقات": 2848,
      "كاني": 2849,
      "عنها": 2850,
      "وفقًا": 2851,
      "قطة": 2852,
      "عضو": 2853,
      "وراة": 2854,
      "راكز": 2855,
      "الزراعة": 2856,
      "دعم": 2857,
      "كري": 2858,
      "الموقع": 2859,
      "واسع": 2860,
      "أمير": 2861,
      "تشكيل": 2862,
      "يقع": 2863,
      "قليم": 2864,
      "القرآن": 2865,
      "البريطاني": 2866,
      "الجماعة": 2867,
      "أقدم": 2868,
      "ؤون": 2869,
      "عديدة": 2870,
      "واجه": 2871,
      "حداث": 2872,
      "2005": 2873,
      "ذاعة": 2874,
      "أج": 2875,
      "جون": 2876,
      "لعام": 2877,
      "الأع": 2878,
      "لاك": 2879,
      "واب": 2880,
      "عمّان": 2881,
      "الإنجلي": 2882,
      "الحرارة": 2883,
      "ثقافة": 2884,
      "كيلومتر": 2885,
      "غزة": 2886,
      "نو": 2887,
      "المصرية": 2888,
      "عنه": 2889,
      "الصف": 2890,
      "الأساسية": 2891,
      "صحي": 2892,
      "نُ": 2893,
      "المرك": 2894,
      "اما": 2895,
      "ماً": 2896,
      "عددة": 2897,
      "ويات": 2898,
      "وبعض": 2899,
      "تمكن": 2900,
      "بنسبة": 2901,
      "وريون": 2902,
      "189": 2903,
      "le": 2904,
      "دت": 2905,
      "ذر": 2906,
      "زرا": 2907,
      "ليف": 2908,
      "البعض": 2909,
      "ويُ": 2910,
      "بنى": 2911,
      "بدو": 2912,
      "بعدها": 2913,
      "جاج": 2914,
      "قرر": 2915,
      "شاركة": 2916,
      "يطاليا": 2917,
      "قبائل": 2918,
      "الجمهورية": 2919,
      "زيا": 2920,
      "اللا": 2921,
      "وتي": 2922,
      "الطب": 2923,
      "وصلات": 2924,
      "الأكبر": 2925,
      "بذلك": 2926,
      "زال": 2927,
      "كال": 2928,
      "الأق": 2929,
      "ادات": 2930,
      "عامة": 2931,
      "اعات": 2932,
      "فايزر": 2933,
      "الاشت": 2934,
      "البلدان": 2935,
      "بلا": 2936,
      "فيلم": 2937,
      "لكتر": 2938,
      "الفر": 2939,
      "هرت": 2940,
      "القبائل": 2941,
      "تيم": 2942,
      "لول": 2943,
      "نج": 2944,
      "انته": 2945,
      "أنّ": 2946,
      "غازي": 2947,
      "طبيق": 2948,
      "جُوق": 2949,
      "بكر": 2950,
      "تؤ": 2951,
      "تضم": 2952,
      "دُ": 2953,
      "سون": 2954,
      "صي": 2955,
      "ورات": 2956,
      "يوبي": 2957,
      "35": 2958,
      "بالك": 2959,
      "زار": 2960,
      "هؤلاء": 2961,
      "منع": 2962,
      "لمدة": 2963,
      "الإسرائيل": 2964,
      "2017": 2965,
      "الإنترنت": 2966,
      "لعاب": 2967,
      "ion": 2968,
      "روسيا": 2969,
      "مشروع": 2970,
      "هول": 2971,
      "بيلة": 2972,
      "النص": 2973,
      "النها": 2974,
      "تمي": 2975,
      "جمات": 2976,
      "قطع": 2977,
      "َلْ": 2978,
      "الإسرائيلية": 2979,
      "re": 2980,
      "أوائل": 2981,
      "حاليا": 2982,
      "مختلف": 2983,
      "ّل": 2984,
      "الأعضاء": 2985,
      "ستخدم": 2986,
      "القاهرة": 2987,
      "الإذاعة": 2988,
      "وبد": 2989,
      "مدار": 2990,
      "قاعدة": 2991,
      "لته": 2992,
      "2013": 2993,
      "1945": 2994,
      "هلسن": 2995,
      "قصى": 2996,
      "الاجتماعية": 2997,
      "صناعة": 2998,
      "تبة": 2999,
      "جير": 3000,
      "والده": 3001,
      "الحديد": 3002,
      "وأك": 3003,
      "يتها": 3004,
      "المواد": 3005,
      "الشعبية": 3006,
      "ro": 3007,
      "بأ": 3008,
      "ختيار": 3009,
      "مك": 3010,
      "نصف": 3011,
      "ديل": 3012,
      "الطريق": 3013,
      "يقول": 3014,
      "البرامج": 3015,
      "قائد": 3016,
      "الأحمر": 3017,
      "الاقتصادي": 3018,
      "ثناء": 3019,
      "دينة": 3020,
      "نع": 3021,
      "وكل": 3022,
      "الموصل": 3023,
      "القط": 3024,
      "ائج": 3025,
      "مدرسة": 3026,
      "أمين": 3027,
      "سياسية": 3028,
      "المغناطي": 3029,
      "آنذاك": 3030,
      "المجموعة": 3031,
      "دام": 3032,
      "نات": 3033,
      "نشأ": 3034,
      "المش": 3035,
      "الموس": 3036,
      "ورج": 3037,
      "الحالي": 3038,
      "بيد": 3039,
      "وتو": 3040,
      "الرسمي": 3041,
      "تشمل": 3042,
      "المغول": 3043,
      "شفى": 3044,
      "أرسلان": 3045,
      "الكنيسة": 3046,
      "تكن": 3047,
      "جبال": 3048,
      "خي": 3049,
      "ريا": 3050,
      "تباع": 3051,
      "تستخدم": 3052,
      "واسطة": 3053,
      "شارة": 3054,
      "صول": 3055,
      "ظهور": 3056,
      "عالية": 3057,
      "الانتخابات": 3058,
      "الأب": 3059,
      "لاسي": 3060,
      "ابت": 3061,
      "الإمارات": 3062,
      "علن": 3063,
      "ميز": 3064,
      "خطط": 3065,
      "عشرة": 3066,
      "اهدة": 3067,
      "الرابع": 3068,
      "العراقية": 3069,
      "السادس": 3070,
      "عصر": 3071,
      "فيد": 3072,
      "التعاون": 3073,
      "أنظمة": 3074,
      "وتق": 3075,
      "الدر": 3076,
      "الكوكب": 3077,
      "اعتق": 3078,
      "تقريبا": 3079,
      "المسلمون": 3080,
      "أشخاص": 3081,
      "بأنه": 3082,
      "بأنها": 3083,
      "ثورة": 3084,
      "زوج": 3085,
      "وراء": 3086,
      "المصادر": 3087,
      "أنهم": 3088,
      "معل": 3089,
      "الكواكب": 3090,
      "ندا": 3091,
      "لينكس": 3092,
      "الشمسي": 3093,
      "موسى": 3094,
      "التقليدية": 3095,
      "أجهزة": 3096,
      "بيرة": 3097,
      "بواسطة": 3098,
      "شري": 3099,
      "عز": 3100,
      "وست": 3101,
      "أنشأ": 3102,
      "وبالتالي": 3103,
      "ساهم": 3104,
      "الخص": 3105,
      "1999": 3106,
      "البحرية": 3107,
      "وافقة": 3108,
      "هلسنكي": 3109,
      "تية": 3110,
      "ظام": 3111,
      "ظاهر": 3112,
      "واد": 3113,
      "الأخير": 3114,
      "يستخدم": 3115,
      "السوفييت": 3116,
      "العمر": 3117,
      "السود": 3118,
      "السيط": 3119,
      "حاكم": 3120,
      "أطلق": 3121,
      "منتصف": 3122,
      "السيطرة": 3123,
      "90": 3124,
      "قار": 3125,
      "مسي": 3126,
      "مكت": 3127,
      "التوراة": 3128,
      "تحول": 3129,
      "داية": 3130,
      "المناخ": 3131,
      "شبكة": 3132,
      "تسمى": 3133,
      "مض": 3134,
      "نطاق": 3135,
      "انا": 3136,
      "الأيوبي": 3137,
      "ريبة": 3138,
      "القت": 3139,
      "كني": 3140,
      "الثامن": 3141,
      "قيمة": 3142,
      "عتقد": 3143,
      "الطبيعية": 3144,
      "زيدان": 3145,
      "صغيرة": 3146,
      "قيادة": 3147,
      "نق": 3148,
      "يرية": 3149,
      "الجبر": 3150,
      "الفضاء": 3151,
      "وعي": 3152,
      "متحف": 3153,
      "33": 3154,
      "دفع": 3155,
      "ّي": 3156,
      "الانت": 3157,
      "العملي": 3158,
      "برة": 3159,
      "حروب": 3160,
      "سياسة": 3161,
      "1996": 3162,
      "وليس": 3163,
      "السنوات": 3164,
      "الخامس": 3165,
      "السُلطان": 3166,
      "ماعيل": 3167,
      "of": 3168,
      "آثار": 3169,
      "شيد": 3170,
      "عطارد": 3171,
      "فلا": 3172,
      "فكرة": 3173,
      "لية": 3174,
      "المكت": 3175,
      "الخدم": 3176,
      "علق": 3177,
      "سرعة": 3178,
      "الرومانية": 3179,
      "البوذية": 3180,
      "أه": 3181,
      "دد": 3182,
      "لقد": 3183,
      "مرا": 3184,
      "مواقع": 3185,
      "وُ": 3186,
      "ويورك": 3187,
      "للح": 3188,
      "تميز": 3189,
      "تعرف": 3190,
      "1990": 3191,
      "البيانات": 3192,
      "إمارة": 3193,
      "العثمانية": 3194,
      "طويلة": 3195,
      "زمن": 3196,
      "فهم": 3197,
      "فرض": 3198,
      "موذ": 3199,
      "يسمى": 3200,
      "المحت": 3201,
      "التل": 3202,
      "الجي": 3203,
      "ويمكن": 3204,
      "َّام": 3205,
      "بهة": 3206,
      "أصول": 3207,
      "السياحة": 3208,
      "الرياضية": 3209,
      "الفنون": 3210,
      "جمعية": 3211,
      "شهدت": 3212,
      "بريطانيا": 3213,
      "id": 3214,
      "تصل": 3215,
      "شن": 3216,
      "نين": 3217,
      "يصل": 3218,
      "ليون": 3219,
      "ومية": 3220,
      "البد": 3221,
      "لكنه": 3222,
      "العملية": 3223,
      "الأفغ": 3224,
      "خور": 3225,
      "سري": 3226,
      "طوري": 3227,
      "ريت": 3228,
      "القطاع": 3229,
      "البل": 3230,
      "الكبيرة": 3231,
      "النقل": 3232,
      "تمثل": 3233,
      "سلطان": 3234,
      "علوم": 3235,
      "لقب": 3236,
      "جيب": 3237,
      "بقى": 3238,
      "رجال": 3239,
      "الناتج": 3240,
      "قصر": 3241,
      "كين": 3242,
      "مقد": 3243,
      "وَّ": 3244,
      "التابعة": 3245,
      "العبرية": 3246,
      "لافة": 3247,
      "وقال": 3248,
      "تقسيم": 3249,
      "جاح": 3250,
      "تداء": 3251,
      "أدت": 3252,
      "الياباني": 3253,
      "عرفت": 3254,
      "نفسها": 3255,
      "صدار": 3256,
      "and": 3257,
      "38": 3258,
      "آلاف": 3259,
      "خري": 3260,
      "فال": 3261,
      "فريقيا": 3262,
      "لهذا": 3263,
      "الماضي": 3264,
      "التد": 3265,
      "الترا": 3266,
      "العا": 3267,
      "البار": 3268,
      "حياته": 3269,
      "جاوز": 3270,
      "جرام": 3271,
      "مجموع": 3272,
      "العليا": 3273,
      "45": 3274,
      "حُ": 3275,
      "عماد": 3276,
      "لأول": 3277,
      "مشت": 3278,
      "انتشار": 3279,
      "وجين": 3280,
      "بنية": 3281,
      "2020": 3282,
      "الطرق": 3283,
      "ملوك": 3284,
      "الزن": 3285,
      "مؤتمر": 3286,
      "كتابة": 3287,
      "الميلادي": 3288,
      "أهمية": 3289,
      "31": 3290,
      "حمد": 3291,
      "سار": 3292,
      "عان": 3293,
      "فك": 3294,
      "ويتي": 3295,
      "نيات": 3296,
      "2002": 3297,
      "فران": 3298,
      "بلدان": 3299,
      "النفط": 3300,
      "مباشرة": 3301,
      "الخدمات": 3302,
      "إيران": 3303,
      "إسرائيلي": 3304,
      "تان": 3305,
      "يعمل": 3306,
      "المعم": 3307,
      "ونا": 3308,
      "الحسين": 3309,
      "ويين": 3310,
      "مرحلة": 3311,
      "فاض": 3312,
      "شاكل": 3313,
      "يوش": 3314,
      "ومنها": 3315,
      "1998": 3316,
      "أحداث": 3317,
      "المصري": 3318,
      "المعروف": 3319,
      "المسيحيين": 3320,
      "دل": 3321,
      "عى": 3322,
      "وحتى": 3323,
      "ّر": 3324,
      "الأند": 3325,
      "ديس": 3326,
      "وته": 3327,
      "الروسية": 3328,
      "البرلمان": 3329,
      "رسالة": 3330,
      "الأردنية": 3331,
      "37": 3332,
      "am": 3333,
      "جلة": 3334,
      "سى": 3335,
      "قادة": 3336,
      "مالك": 3337,
      "ممثل": 3338,
      "مصادر": 3339,
      "ّى": 3340,
      "الملا": 3341,
      "الحج": 3342,
      "القي": 3343,
      "القوة": 3344,
      "مرت": 3345,
      "راءة": 3346,
      "خدمات": 3347,
      "الثالثة": 3348,
      "طفال": 3349,
      "َلْجُوق": 3350,
      "خطي": 3351,
      "رسمي": 3352,
      "مالي": 3353,
      "المرا": 3354,
      "الأنا": 3355,
      "معينة": 3356,
      "تمث": 3357,
      "الشت": 3358,
      "يعتقد": 3359,
      "زيمة": 3360,
      "تجات": 3361,
      "مصطلح": 3362,
      "الموافق": 3363,
      "رئيسي": 3364,
      "جهاز": 3365,
      "الأمازيغية": 3366,
      "البشرية": 3367,
      "فون": 3368,
      "الواق": 3369,
      "امات": 3370,
      "راسة": 3371,
      "والب": 3372,
      "سيدي": 3373,
      "الكاث": 3374,
      "النسب": 3375,
      "الرق": 3376,
      "تشغيل": 3377,
      "الزمن": 3378,
      "المسجد": 3379,
      "تحتوي": 3380,
      "بادئ": 3381,
      "اللبنانية": 3382,
      "المركزية": 3383,
      "us": 3384,
      "مول": 3385,
      "نيا": 3386,
      "نوعة": 3387,
      "الاعت": 3388,
      "الوث": 3389,
      "واص": 3390,
      "ستة": 3391,
      "معنى": 3392,
      "سيطرة": 3393,
      "البص": 3394,
      "وسا": 3395,
      "هداف": 3396,
      "لفاء": 3397,
      "المعار": 3398,
      "بعضها": 3399,
      "مجموعات": 3400,
      "حقوق": 3401,
      "تزال": 3402,
      "تبلغ": 3403,
      "خار": 3404,
      "سلم": 3405,
      "مربع": 3406,
      "هان": 3407,
      "الموسيقى": 3408,
      "وند": 3409,
      "ليست": 3410,
      "معاهدة": 3411,
      "الدستور": 3412,
      "النو": 3413,
      "بدور": 3414,
      "بحلول": 3415,
      "مسعود": 3416,
      "الشركات": 3417,
      "هلية": 3418,
      "المرحلة": 3419,
      "كتابه": 3420,
      "محاولة": 3421,
      "تأسست": 3422,
      "خمس": 3423,
      "رغم": 3424,
      "فاء": 3425,
      "كوكب": 3426,
      "لعب": 3427,
      "مرك": 3428,
      "ًّا": 3429,
      "الجغرا": 3430,
      "للن": 3431,
      "الفض": 3432,
      "استقلال": 3433,
      "فاوض": 3434,
      "كاف": 3435,
      "وصلت": 3436,
      "يجعل": 3437,
      "موسكو": 3438,
      "طنين": 3439,
      "الزنكي": 3440,
      "48": 3441,
      "أسب": 3442,
      "طبق": 3443,
      "يخ": 3444,
      "ائدة": 3445,
      "الكم": 3446,
      "بدون": 3447,
      "الطائ": 3448,
      "المجال": 3449,
      "سحاب": 3450,
      "لفزيون": 3451,
      "الإنجليزية": 3452,
      "ra": 3453,
      "un": 3454,
      "تونس": 3455,
      "جين": 3456,
      "رسم": 3457,
      "عاص": 3458,
      "فكان": 3459,
      "ّن": 3460,
      "ريك": 3461,
      "القوى": 3462,
      "الجة": 3463,
      "الصحية": 3464,
      "عليهم": 3465,
      "1991": 3466,
      "ابنه": 3467,
      "فنون": 3468,
      "غاية": 3469,
      "العلمية": 3470,
      "نائس": 3471,
      "خمسة": 3472,
      "ملايين": 3473,
      "بحيث": 3474,
      "حجم": 3475,
      "حسين": 3476,
      "خمة": 3477,
      "عش": 3478,
      "عق": 3479,
      "عسكرية": 3480,
      "فهو": 3481,
      "نقطة": 3482,
      "الور": 3483,
      "أنش": 3484,
      "الحسن": 3485,
      "السامية": 3486,
      "الجوي": 3487,
      "النبي": 3488,
      "عامًا": 3489,
      "وانات": 3490,
      "مسجد": 3491,
      "رسال": 3492,
      "صاحب": 3493,
      "كنيسة": 3494,
      "65": 3495,
      "om": 3496,
      "رى": 3497,
      "سد": 3498,
      "لو": 3499,
      "مياه": 3500,
      "يدة": 3501,
      "يلاء": 3502,
      "المذ": 3503,
      "المعد": 3504,
      "ديين": 3505,
      "السري": 3506,
      "برت": 3507,
      "للق": 3508,
      "سلطة": 3509,
      "اللجنة": 3510,
      "حدد": 3511,
      "حاث": 3512,
      "الغزو": 3513,
      "تعود": 3514,
      "فرع": 3515,
      "أفراد": 3516,
      "أصدر": 3517,
      "الجنوبي": 3518,
      "كاتب": 3519,
      "سكانها": 3520,
      "وجهة": 3521,
      "الحملة": 3522,
      "معدل": 3523,
      "الكاثولي": 3524,
      "إطلاق": 3525,
      "بُ": 3526,
      "تعمل": 3527,
      "ثوذ": 3528,
      "جو": 3529,
      "دوز": 3530,
      "طيع": 3531,
      "كد": 3532,
      "وخاصة": 3533,
      "الأقل": 3534,
      "معا": 3535,
      "الفاط": 3536,
      "الهجرة": 3537,
      "...": 3538,
      "إخ": 3539,
      "إيطاليا": 3540,
      "بالف": 3541,
      "لهذه": 3542,
      "يغ": 3543,
      "المسلحة": 3544,
      "الموجودة": 3545,
      "وله": 3546,
      "ولات": 3547,
      "ياب": 3548,
      "السين": 3549,
      "ابه": 3550,
      "ربد": 3551,
      "للص": 3552,
      "متعددة": 3553,
      "نيين": 3554,
      "المُسلمين": 3555,
      "ويندوز": 3556,
      "كثيرة": 3557,
      "العمليات": 3558,
      "أجزاء": 3559,
      "مقتل": 3560,
      "يرا": 3561,
      "العزيز": 3562,
      "والغ": 3563,
      "ودية": 3564,
      "وجي": 3565,
      "خلق": 3566,
      "تفع": 3567,
      "الألمان": 3568,
      "الاحتلال": 3569,
      "العباسي": 3570,
      "4م": 3571,
      "7م": 3572,
      "ed": 3573,
      "جال": 3574,
      "دخول": 3575,
      "زر": 3576,
      "لج": 3577,
      "ميد": 3578,
      "مكة": 3579,
      "المراجع": 3580,
      "النهر": 3581,
      "الصلاة": 3582,
      "مجة": 3583,
      "مجت": 3584,
      "الجزء": 3585,
      "السابع": 3586,
      "اكتشاف": 3587,
      "موذج": 3588,
      "500": 3589,
      "6م": 3590,
      "حوا": 3591,
      "حكوم": 3592,
      "عسكري": 3593,
      "علاقات": 3594,
      "قرب": 3595,
      "لجنة": 3596,
      "مَ": 3597,
      "وعندما": 3598,
      "فيزياء": 3599,
      "ادت": 3600,
      "الجان": 3601,
      "ائع": 3602,
      "باكستان": 3603,
      "عربي": 3604,
      "للاست": 3605,
      "الأط": 3606,
      "القض": 3607,
      "برات": 3608,
      "الإجمالي": 3609,
      "بلس": 3610,
      "حتَّى": 3611,
      "اللات": 3612,
      "يعيش": 3613,
      "تقل": 3614,
      "لاحق": 3615,
      "السياسة": 3616,
      "سعيد": 3617,
      "طرق": 3618,
      "المرتبة": 3619,
      "خليفة": 3620,
      "الجزائرية": 3621,
      "إربد": 3622,
      "سو": 3623,
      "شفي": 3624,
      "صالات": 3625,
      "امتد": 3626,
      "الأحداث": 3627,
      "تمل": 3628,
      "شيء": 3629,
      "المستخدم": 3630,
      "أشكال": 3631,
      "9م": 3632,
      "تعني": 3633,
      "الواقع": 3634,
      "المفت": 3635,
      "المحيط": 3636,
      "واجد": 3637,
      "الإيط": 3638,
      "الكتب": 3639,
      "الصغيرة": 3640,
      "وأس": 3641,
      "الغذ": 3642,
      "مصري": 3643,
      "السابقة": 3644,
      "الهيثم": 3645,
      "الثلاث": 3646,
      "الاشترا": 3647,
      "مجتمع": 3648,
      "64": 3649,
      "ؤس": 3650,
      "ضرب": 3651,
      "قيد": 3652,
      "قناة": 3653,
      "نس": 3654,
      "يًا": 3655,
      "واحي": 3656,
      "والاست": 3657,
      "الجبل": 3658,
      "الباب": 3659,
      "قدمت": 3660,
      "علقة": 3661,
      "نيويورك": 3662,
      "تشير": 3663,
      "عبارة": 3664,
      "شاهد": 3665,
      "البرمجيات": 3666,
      "المُوافقة": 3667,
      "لندية": 3668,
      "ing": 3669,
      "سخة": 3670,
      "ri": 3671,
      "جلس": 3672,
      "فاست": 3673,
      "مئ": 3674,
      "يقة": 3675,
      "انه": 3676,
      "الأهلية": 3677,
      "التسمية": 3678,
      "ليمان": 3679,
      "الكلاسي": 3680,
      "تحمل": 3681,
      "تحرير": 3682,
      "طاقة": 3683,
      "بلغت": 3684,
      "طلقت": 3685,
      "الاجتماعي": 3686,
      "the": 3687,
      "الفارابي": 3688,
      "إسلامية": 3689,
      "باعتبار": 3690,
      "صال": 3691,
      "صيل": 3692,
      "طح": 3693,
      "قه": 3694,
      "كأس": 3695,
      "كذا": 3696,
      "ماية": 3697,
      "نائية": 3698,
      "ربط": 3699,
      "الإقلي": 3700,
      "مرات": 3701,
      "وأصبح": 3702,
      "بارات": 3703,
      "شيخ": 3704,
      "أماكن": 3705,
      "النظر": 3706,
      "الشمالي": 3707,
      "ولوجية": 3708,
      "مغناطي": 3709,
      "بالقرب": 3710,
      "بهم": 3711,
      "طاء": 3712,
      "الوحيد": 3713,
      "ونها": 3714,
      "والث": 3715,
      "الكهرب": 3716,
      "تمت": 3717,
      "وجن": 3718,
      "الصالح": 3719,
      "قلعة": 3720,
      "زيارة": 3721,
      "يشير": 3722,
      "وضوع": 3723,
      "فلام": 3724,
      "الثقافية": 3725,
      "الزراعية": 3726,
      "أتباع": 3727,
      "شة": 3728,
      "مطار": 3729,
      "مهمة": 3730,
      "نه": 3731,
      "العب": 3732,
      "العلاقة": 3733,
      "الحالية": 3734,
      "الإصلاح": 3735,
      "وفاته": 3736,
      "صرف": 3737,
      "أسامة": 3738,
      "ملح": 3739,
      "السلطات": 3740,
      "مناخ": 3741,
      "الروماني": 3742,
      "إسماعيل": 3743,
      "الأساسي": 3744,
      "الكنيست": 3745,
      "1م": 3746,
      "إعلان": 3747,
      "حف": 3748,
      "لاط": 3749,
      "عدا": 3750,
      "البداية": 3751,
      "متوسط": 3752,
      "أسماء": 3753,
      "تيال": 3754,
      "المعاد": 3755,
      "جنبية": 3756,
      "شارع": 3757,
      "وظي": 3758,
      "أمريكا": 3759,
      "التشري": 3760,
      "الساحل": 3761,
      "حديث": 3762,
      "الحكومية": 3763,
      "سوي": 3764,
      "صورة": 3765,
      "كلا": 3766,
      "كبي": 3767,
      "امر": 3768,
      "التطبي": 3769,
      "السَلْجُوق": 3770,
      "الشعر": 3771,
      "وأي": 3772,
      "فته": 3773,
      "المعركة": 3774,
      "2018": 3775,
      "جزائ": 3776,
      "شاريع": 3777,
      "الرومان": 3778,
      "ظروف": 3779,
      "المصدر": 3780,
      "مؤسسة": 3781,
      "الصحراء": 3782,
      "اج": 3783,
      "اختيار": 3784,
      "روم": 3785,
      "فأ": 3786,
      "ففي": 3787,
      "للا": 3788,
      "الأطفال": 3789,
      "ليين": 3790,
      "الحصول": 3791,
      "برج": 3792,
      "سيب": 3793,
      "وتست": 3794,
      "وبات": 3795,
      "للأ": 3796,
      "ائص": 3797,
      "النجوم": 3798,
      "اللغ": 3799,
      "الأدب": 3800,
      "صنع": 3801,
      "سقوط": 3802,
      "معلومات": 3803,
      "حساب": 3804,
      "سواء": 3805,
      "ضول": 3806,
      "غن": 3807,
      "قبيلة": 3808,
      "نشاط": 3809,
      "انق": 3810,
      "الحرة": 3811,
      "الإست": 3812,
      "للش": 3813,
      "الصحة": 3814,
      "يمثل": 3815,
      "يشكل": 3816,
      "كافة": 3817,
      "أفلام": 3818,
      "مارسة": 3819,
      "1995": 3820,
      "المؤتمر": 3821,
      "تابعة": 3822,
      "الشمسية": 3823,
      "الفلسطيني": 3824,
      "الإعلام": 3825,
      "47": 3826,
      "بالس": 3827,
      "تبع": 3828,
      "رسمية": 3829,
      "طينة": 3830,
      "لشركة": 3831,
      "المل": 3832,
      "المنظمة": 3833,
      "الأثر": 3834,
      "الته": 3835,
      "مائ": 3836,
      "لائ": 3837,
      "ليد": 3838,
      "بيانات": 3839,
      "شرف": 3840,
      "وسام": 3841,
      "النبات": 3842,
      "وجات": 3843,
      "الخمس": 3844,
      "حاسوب": 3845,
      "الغاز": 3846,
      "تيب": 3847,
      "خصصة": 3848,
      "ضمام": 3849,
      "اليونانية": 3850,
      "ol": 3851,
      "رئاسة": 3852,
      "قاء": 3853,
      "المالية": 3854,
      "اربة": 3855,
      "الحوا": 3856,
      "الحلفاء": 3857,
      "عنى": 3858,
      "استطاع": 3859,
      "الصحي": 3860,
      "الخوار": 3861,
      "تعا": 3862,
      "تعيين": 3863,
      "محطة": 3864,
      "تداب": 3865,
      "الإنتاج": 3866,
      "يزال": 3867,
      "وائف": 3868,
      "التجاري": 3869,
      "حملة": 3870,
      "شامير": 3871,
      "السينما": 3872,
      "توفر": 3873,
      "سير": 3874,
      "فكر": 3875,
      "قرا": 3876,
      "موز": 3877,
      "يلي": 3878,
      "ارا": 3879,
      "والهند": 3880,
      "الحُ": 3881,
      "القص": 3882,
      "القان": 3883,
      "الإلكتر": 3884,
      "سيوية": 3885,
      "الفرد": 3886,
      "الصباح": 3887,
      "دمير": 3888,
      "لبية": 3889,
      "فسهم": 3890,
      "راقبة": 3891,
      "مقار": 3892,
      "المسيح": 3893,
      "ُمَّ": 3894,
      "لديها": 3895,
      "زعيم": 3896,
      "وريتانيا": 3897,
      "\".": 3898,
      "إفريقيا": 3899,
      "تَ": 3900,
      "تغير": 3901,
      "تسمية": 3902,
      "ثات": 3903,
      "دمة": 3904,
      "رجل": 3905,
      "سانية": 3906,
      "فان": 3907,
      "مراجع": 3908,
      "نان": 3909,
      "نوات": 3910,
      "الأسر": 3911,
      "هاجم": 3912,
      "واهر": 3913,
      "السوق": 3914,
      "ويس": 3915,
      "وتع": 3916,
      "بلوما": 3917,
      "سنطينة": 3918,
      "يتس": 3919,
      "الآثار": 3920,
      "أبناء": 3921,
      "يزيد": 3922,
      "الوطن": 3923,
      "الهندوسية": 3924,
      "المعروفة": 3925,
      "3م": 3926,
      "75": 3927,
      "=\"": 3928,
      "بهذا": 3929,
      "ذو": 3930,
      "طرف": 3931,
      "لأنه": 3932,
      "مكتب": 3933,
      "منة": 3934,
      "لمات": 3935,
      "ناف": 3936,
      "الجهاد": 3937,
      "الدع": 3938,
      "عنوان": 3939,
      "كلية": 3940,
      "مدى": 3941,
      "اعية": 3942,
      "وفقا": 3943,
      "مثال": 3944,
      "جنب": 3945,
      "يقرب": 3946,
      "1992": 3947,
      "لِل": 3948,
      "وجدت": 3949,
      "الانتق": 3950,
      "دائرة": 3951,
      "ent": 3952,
      "شعبية": 3953,
      "كانيكا": 3954,
      "49": 3955,
      "تولى": 3956,
      "قيم": 3957,
      "مهم": 3958,
      "اتب": 3959,
      "السبع": 3960,
      "ويج": 3961,
      "سلطنة": 3962,
      "عيسى": 3963,
      "سكرة": 3964,
      "أساسي": 3965,
      "فهوم": 3966,
      "الديانة": 3967,
      "الأرثوذ": 3968,
      "النسبية": 3969,
      "الفاطمي": 3970,
      "بالأ": 3971,
      "حمل": 3972,
      "دى": 3973,
      "سلاجقة": 3974,
      "طريقة": 3975,
      "السورية": 3976,
      "ائف": 3977,
      "وقعت": 3978,
      "الروا": 3979,
      "هودي": 3980,
      "حاق": 3981,
      "قلب": 3982,
      "بارك": 3983,
      "مستشفى": 3984,
      "تتكون": 3985,
      "تأسي": 3986,
      "ولكنه": 3987,
      "وائز": 3988,
      "1980": 3989,
      "ديمية": 3990,
      "الشيوعية": 3991,
      "سيمات": 3992,
      "استمرت": 3993,
      "الأفغانية": 3994,
      "78": 3995,
      "إقامة": 3996,
      "غزو": 3997,
      "فَ": 3998,
      "ممثلة": 3999,
      "نجم": 4000,
      "وآ": 4001,
      "يان": 4002,
      "منظم": 4003,
      "هاب": 4004,
      "القائ": 4005,
      "معاد": 4006,
      "البن": 4007,
      "الفرس": 4008,
      "اليهودي": 4009,
      "الصراع": 4010,
      "الخلافة": 4011,
      "2019": 4012,
      "اصط": 4013,
      "درجات": 4014,
      "انتهاء": 4015,
      "لقى": 4016,
      "تنفيذ": 4017,
      "مستقلة": 4018,
      "لِسنة": 4019,
      "فقال": 4020,
      "مصدر": 4021,
      "1988": 4022,
      "الضوء": 4023,
      "حصاء": 4024,
      "الطبيعي": 4025,
      "الدراسات": 4026,
      "55": 4027,
      "أحيان": 4028,
      "بشار": 4029,
      "دير": 4030,
      "ذار": 4031,
      "مخت": 4032,
      "اتفاقية": 4033,
      "التالية": 4034,
      "واجهة": 4035,
      "ستر": 4036,
      "معه": 4037,
      "1994": 4038,
      "سطن": 4039,
      "اهتمام": 4040,
      "النظرية": 4041,
      "الإمام": 4042,
      "السوفيتية": 4043,
      "الدراسة": 4044,
      "الشتاء": 4045,
      "تأسيسات": 4046,
      "300": 4047,
      "بج": 4048,
      "بض": 4049,
      "جح": 4050,
      "رام": 4051,
      "ضح": 4052,
      "ضاع": 4053,
      "غول": 4054,
      "فريق": 4055,
      "كوين": 4056,
      "مفت": 4057,
      "الوصول": 4058,
      "المب": 4059,
      "انع": 4060,
      "راوح": 4061,
      "نادي": 4062,
      "الباك": 4063,
      "الصيف": 4064,
      "حددة": 4065,
      "قرطا": 4066,
      "طاكية": 4067,
      "تغي": 4068,
      "مؤسس": 4069,
      "الصناعية": 4070,
      "الإدارة": 4071,
      "الجامعات": 4072,
      "المؤسسات": 4073,
      "الأناضول": 4074,
      "الواقعة": 4075,
      "إسب": 4076,
      "رأ": 4077,
      "صلة": 4078,
      "علاقة": 4079,
      "محت": 4080,
      "اتجاه": 4081,
      "الأسب": 4082,
      "ونات": 4083,
      "كانون": 4084,
      "الدائ": 4085,
      "الدعم": 4086,
      "وجة": 4087,
      "كنولوجيا": 4088,
      "وأصب": 4089,
      "المعا": 4090,
      "الحاكم": 4091,
      "1967": 4092,
      "طبيعة": 4093,
      "حصول": 4094,
      "إسرائيليون": 4095,
      "39": 4096,
      "أعم": 4097,
      "إرها": 4098,
      "إجراء": 4099,
      "تطبيق": 4100,
      "ظيم": 4101,
      "عرا": 4102,
      "فلم": 4103,
      "كَّ": 4104,
      "مهرجان": 4105,
      "هجوم": 4106,
      "المحي": 4107,
      "انوية": 4108,
      "الأعلى": 4109,
      "والذ": 4110,
      "الفكر": 4111,
      "عامي": 4112,
      "الشَّام": 4113,
      "وجب": 4114,
      "بينها": 4115,
      "بدء": 4116,
      "سنو": 4117,
      "أيدي": 4118,
      "فاً": 4119,
      "أسر": 4120,
      "أسرة": 4121,
      "حرية": 4122,
      "جدا": 4123,
      "المسرح": 4124,
      "فلات": 4125,
      "الطبيعة": 4126,
      "زراعة": 4127,
      "الباكست": 4128,
      "وأصبحت": 4129,
      "):": 4130,
      "58": 4131,
      "باريس": 4132,
      "شمل": 4133,
      "كسية": 4134,
      "ِي": 4135,
      "العُم": 4136,
      "واز": 4137,
      "الإسب": 4138,
      "الجم": 4139,
      "النساء": 4140,
      "باس": 4141,
      "تقرير": 4142,
      "فسير": 4143,
      "1997": 4144,
      "أداء": 4145,
      "الفنلندية": 4146,
      "رائب": 4147,
      "الإعلان": 4148,
      "الأندلس": 4149,
      "الجانب": 4150,
      "ut": 4151,
      "توق": 4152,
      "تظهر": 4153,
      "رُ": 4154,
      "مذ": 4155,
      "مقاط": 4156,
      "المكان": 4157,
      "المجر": 4158,
      "المقاومة": 4159,
      "الأحيان": 4160,
      "الأفلام": 4161,
      "ونه": 4162,
      "الجوية": 4163,
      "البث": 4164,
      "ساحل": 4165,
      "الذه": 4166,
      "وأر": 4167,
      "محل": 4168,
      "ضايا": 4169,
      "والتن": 4170,
      "البرنامج": 4171,
      "العمارة": 4172,
      "الداخلي": 4173,
      "دخلت": 4174,
      "التأثير": 4175,
      "الديمقراطية": 4176,
      "46": 4177,
      "il": 4178,
      "ثُمَّ": 4179,
      "جورج": 4180,
      "زالت": 4181,
      "سور": 4182,
      "سفة": 4183,
      "قواعد": 4184,
      "نصر": 4185,
      "الست": 4186,
      "المنظ": 4187,
      "امت": 4188,
      "ريح": 4189,
      "وران": 4190,
      "ناه": 4191,
      "ناحية": 4192,
      "البلي": 4193,
      "ائها": 4194,
      "الخدمة": 4195,
      "الاخت": 4196,
      "الغلاف": 4197,
      "رفع": 4198,
      "شكلة": 4199,
      "الرياح": 4200,
      "الفيزيا": 4201,
      "غاز": 4202,
      "فرنسي": 4203,
      "الرحمن": 4204,
      "36": 4205,
      "77": 4206,
      "إجمالي": 4207,
      "إقليم": 4208,
      "حن": 4209,
      "صوت": 4210,
      "لـ": 4211,
      "مطل": 4212,
      "هري": 4213,
      "ورى": 4214,
      "ديان": 4215,
      "عدام": 4216,
      "لكرة": 4217,
      "ويعد": 4218,
      "وتس": 4219,
      "ائه": 4220,
      "الكورية": 4221,
      "بينهم": 4222,
      "رنسا": 4223,
      "إنه": 4224,
      "مجالات": 4225,
      "درس": 4226,
      "المنت": 4227,
      "1939": 4228,
      "دينية": 4229,
      "تلر": 4230,
      "دهار": 4231,
      "الأصلية": 4232,
      "المجاورة": 4233,
      "يهوه": 4234,
      "طرابلس": 4235,
      "إطار": 4236,
      "بشر": 4237,
      "بجا": 4238,
      "تشرين": 4239,
      "حب": 4240,
      "حز": 4241,
      "عبة": 4242,
      "قسنطينة": 4243,
      "وخلال": 4244,
      "يتحدث": 4245,
      "ّت": 4246,
      "الوحي": 4247,
      "العر": 4248,
      "معرض": 4249,
      "البا": 4250,
      "وتعد": 4251,
      "الكندي": 4252,
      "النز": 4253,
      "الفنية": 4254,
      "َّد": 4255,
      "سلسل": 4256,
      "خلص": 4257,
      "مرور": 4258,
      "وعلم": 4259,
      "قيدة": 4260,
      "فاف": 4261,
      "حماية": 4262,
      "ريبًا": 4263,
      "وحدات": 4264,
      "اجتماعية": 4265,
      "توزيع": 4266,
      "رَ": 4267,
      "رامية": 4268,
      "شهود": 4269,
      "فوظ": 4270,
      "لصالح": 4271,
      "يعني": 4272,
      "ّم": 4273,
      "الأربع": 4274,
      "العناصر": 4275,
      "كانية": 4276,
      "ويتم": 4277,
      "قلج": 4278,
      "انتشر": 4279,
      "الآش": 4280,
      "وهات": 4281,
      "السلطنة": 4282,
      "أخيه": 4283,
      "كاملة": 4284,
      "خليج": 4285,
      "ad": 4286,
      "خطة": 4287,
      "شعر": 4288,
      "كلي": 4289,
      "مري": 4290,
      "ارجي": 4291,
      "الألعاب": 4292,
      "ماك": 4293,
      "الحساب": 4294,
      "معها": 4295,
      "للدولة": 4296,
      "الكلمة": 4297,
      "بنغازي": 4298,
      "ساً": 4299,
      "أوزب": 4300,
      "يمان": 4301,
      "الطلاب": 4302,
      "جنو": 4303,
      "قرية": 4304,
      "البرتغ": 4305,
      "احتلال": 4306,
      "بشأن": 4307,
      "النصوص": 4308,
      "التراث": 4309,
      "اللاتينية": 4310,
      "منظمات": 4311,
      "حال": 4312,
      "رغ": 4313,
      "ليبية": 4314,
      "السما": 4315,
      "الفرات": 4316,
      "الفلسفة": 4317,
      "سلوب": 4318,
      "جمال": 4319,
      "تعريف": 4320,
      "تدري": 4321,
      "وهكذا": 4322,
      "المستوى": 4323,
      "لكنها": 4324,
      "ولكنها": 4325,
      "الأسرة": 4326,
      "الأحزاب": 4327,
      "لندي": 4328,
      "العلمي": 4329,
      "انتخاب": 4330,
      "الشعوب": 4331,
      "الإدارية": 4332,
      "صحيفة": 4333,
      "انتهت": 4334,
      "32": 4335,
      "68": 4336,
      "Th": 4337,
      "as": 4338,
      "et": 4339,
      "بوا": 4340,
      "سوا": 4341,
      "سوى": 4342,
      "شطة": 4343,
      "فارس": 4344,
      "فشل": 4345,
      "ّد": 4346,
      "التنظيم": 4347,
      "وابن": 4348,
      "يرت": 4349,
      "سته": 4350,
      "الحال": 4351,
      "الحقي": 4352,
      "باقي": 4353,
      "قطت": 4354,
      "مسؤول": 4355,
      "150": 4356,
      "الانتداب": 4357,
      "رقم": 4358,
      "شخصية": 4359,
      "السوفييتي": 4360,
      "الكلاسيكية": 4361,
      "مقارنة": 4362,
      "em": 4363,
      "بالغ": 4364,
      "بسكرة": 4365,
      "كول": 4366,
      "مقت": 4367,
      "مكون": 4368,
      "هضة": 4369,
      "وحا": 4370,
      "يراً": 4371,
      "المذهب": 4372,
      "الموارد": 4373,
      "يرى": 4374,
      "أنفسهم": 4375,
      "القاد": 4376,
      "القسم": 4377,
      "برمجيات": 4378,
      "وترك": 4379,
      "ساوي": 4380,
      "بعاد": 4381,
      "بطريقة": 4382,
      "قليل": 4383,
      "يطلق": 4384,
      "لافات": 4385,
      "كبيرًا": 4386,
      "الحروب": 4387,
      "تركيا": 4388,
      "الكتابة": 4389,
      "العدد": 4390,
      "الشخصية": 4391,
      "فريقية": 4392,
      "الكيمياء": 4393,
      "إثر": 4394,
      "جاب": 4395,
      "حصار": 4396,
      "رين": 4397,
      "عائلة": 4398,
      "فريد": 4399,
      "كوف": 4400,
      "لعة": 4401,
      "موريتانيا": 4402,
      "وعد": 4403,
      "الاب": 4404,
      "المخ": 4405,
      "المبا": 4406,
      "المادة": 4407,
      "الموسي": 4408,
      "التطور": 4409,
      "العرض": 4410,
      "ياز": 4411,
      "تحالف": 4412,
      "سبار": 4413,
      "الخر": 4414,
      "وأق": 4415,
      "باً": 4416,
      "متد": 4417,
      "حاس": 4418,
      "بحسب": 4419,
      "كبار": 4420,
      "وارع": 4421,
      "البيت": 4422,
      "تصنيف": 4423,
      "أهمها": 4424,
      "المقدسة": 4425,
      "تتميز": 4426,
      "ألب": 4427,
      "بقي": 4428,
      "بقية": 4429,
      "بالرغم": 4430,
      "خفاض": 4431,
      "فُ": 4432,
      "للي": 4433,
      "ّه": 4434,
      "راح": 4435,
      "ريون": 4436,
      "والز": 4437,
      "أنطاكية": 4438,
      "القضاء": 4439,
      "القائد": 4440,
      "البط": 4441,
      "بلدية": 4442,
      "كتور": 4443,
      "قته": 4444,
      "قلية": 4445,
      "لاحقة": 4446,
      "1940": 4447,
      "تصميم": 4448,
      "الراب": 4449,
      "الملكية": 4450,
      "المساجد": 4451,
      "الفلكية": 4452,
      "رياضيات": 4453,
      "الثلاثة": 4454,
      "سكندر": 4455,
      "المغناطيسي": 4456,
      "خطيط": 4457,
      "مئوية": 4458,
      "بجاية": 4459,
      "ئين": 4460,
      "تلم": 4461,
      "رحية": 4462,
      "طع": 4463,
      "غز": 4464,
      "قوق": 4465,
      "لان": 4466,
      "المهاجر": 4467,
      "ريال": 4468,
      "والآ": 4469,
      "الجاذ": 4470,
      "عاماً": 4471,
      "تمتلك": 4472,
      "بلة": 4473,
      "اليًا": 4474,
      "باه": 4475,
      "خرية": 4476,
      "الاً": 4477,
      "جابر": 4478,
      "تجمع": 4479,
      "تجارية": 4480,
      "مساعدة": 4481,
      "تأثر": 4482,
      "ضيف": 4483,
      "احث": 4484,
      "الرياضة": 4485,
      "ُّون": 4486,
      "العثماني": 4487,
      "المجموعات": 4488,
      "بونساي": 4489,
      "شفيات": 4490,
      "ac": 4491,
      "أتي": 4492,
      "إث": 4493,
      "بسي": 4494,
      "حاب": 4495,
      "دب": 4496,
      "سفي": 4497,
      "فقة": 4498,
      "كيم": 4499,
      "وعدد": 4500,
      "يظهر": 4501,
      "الما": 4502,
      "اتف": 4503,
      "الحصار": 4504,
      "ويق": 4505,
      "الكنائس": 4506,
      "النفس": 4507,
      "وجعل": 4508,
      "وجيه": 4509,
      "الرجال": 4510,
      "الصينية": 4511,
      "الأمطار": 4512,
      "المتعلقة": 4513,
      "لقاء": 4514,
      "ظمى": 4515,
      "أمازيغ": 4516,
      "1989": 4517,
      "وظائف": 4518,
      "المؤرخين": 4519,
      "وجنوب": 4520,
      "قرطاج": 4521,
      "أعداد": 4522,
      "خالد": 4523,
      "خسر": 4524,
      "دن": 4525,
      "دستور": 4526,
      "سف": 4527,
      "ضى": 4528,
      "طو": 4529,
      "لز": 4530,
      "مراكز": 4531,
      "هتلر": 4532,
      "وإلى": 4533,
      "الأكا": 4534,
      "ديمقرا": 4535,
      "البنا": 4536,
      "بنفس": 4537,
      "استخدم": 4538,
      "والمنا": 4539,
      "نظم": 4540,
      "لاحقًا": 4541,
      "عاش": 4542,
      "خدمت": 4543,
      "اقتصادية": 4544,
      "الجاذبية": 4545,
      "67": 4546,
      "جلت": 4547,
      "ذور": 4548,
      "عص": 4549,
      "قوانين": 4550,
      "مخ": 4551,
      "محدود": 4552,
      "نجد": 4553,
      "يسمح": 4554,
      "الوضع": 4555,
      "فيس": 4556,
      "فيذي": 4557,
      "الألف": 4558,
      "الأنظمة": 4559,
      "الأقصى": 4560,
      "ومست": 4561,
      "الحل": 4562,
      "معين": 4563,
      "البناء": 4564,
      "ويم": 4565,
      "ويست": 4566,
      "النق": 4567,
      "النمو": 4568,
      "اليورو": 4569,
      "بعيد": 4570,
      "حافة": 4571,
      "ثمان": 4572,
      "الهجوم": 4573,
      "قرون": 4574,
      "ومنذ": 4575,
      "الناصر": 4576,
      "1941": 4577,
      "سكو": 4578,
      "1961": 4579,
      "....": 4580,
      "رحلة": 4581,
      "الإمبراطوري": 4582,
      "التحرير": 4583,
      "ميناء": 4584,
      "استمرار": 4585,
      "واضح": 4586,
      "جامع": 4587,
      "34": 4588,
      "ur": 4589,
      "بسرعة": 4590,
      "ترف": 4591,
      "تعليم": 4592,
      "تراك": 4593,
      "توحيد": 4594,
      "جية": 4595,
      "دو": 4596,
      "ذج": 4597,
      "روما": 4598,
      "صُ": 4599,
      "عَ": 4600,
      "نبات": 4601,
      "يدي": 4602,
      "منص": 4603,
      "الأز": 4604,
      "الأطل": 4605,
      "العالي": 4606,
      "الجبهة": 4607,
      "الباحث": 4608,
      "لله": 4609,
      "للغاية": 4610,
      "الكويتي": 4611,
      "سميت": 4612,
      "اعي": 4613,
      "وفق": 4614,
      "مجلة": 4615,
      "دولية": 4616,
      "حلات": 4617,
      "قليلة": 4618,
      "الحاج": 4619,
      "الكويتية": 4620,
      "الهندسة": 4621,
      "المعرفة": 4622,
      "ضعف": 4623,
      "الجزائري": 4624,
      "باستثناء": 4625,
      "النهاية": 4626,
      "الخوارز": 4627,
      "الوحيدة": 4628,
      "\"،": 4629,
      "2م": 4630,
      "بهدف": 4631,
      "تول": 4632,
      "ثور": 4633,
      "حكام": 4634,
      "خال": 4635,
      "طرد": 4636,
      "عائ": 4637,
      "غض": 4638,
      "كالي": 4639,
      "كجزء": 4640,
      "لفترة": 4641,
      "هيرة": 4642,
      "المطب": 4643,
      "ماذج": 4644,
      "ويد": 4645,
      "وقة": 4646,
      "كلها": 4647,
      "متنوعة": 4648,
      "2021": 4649,
      "وكي": 4650,
      "كيف": 4651,
      "محفوظ": 4652,
      "المسؤول": 4653,
      "رسوم": 4654,
      "نتائج": 4655,
      "حقق": 4656,
      "ازد": 4657,
      "التحالف": 4658,
      "الحضارة": 4659,
      "إمبراطورية": 4660,
      "99": 4661,
      "خرا": 4662,
      "رفين": 4663,
      "سفر": 4664,
      "قَ": 4665,
      "لون": 4666,
      "وهذه": 4667,
      "الوحدة": 4668,
      "منش": 4669,
      "املة": 4670,
      "الإغ": 4671,
      "معسكر": 4672,
      "سيما": 4673,
      "وتُ": 4674,
      "وبذلك": 4675,
      "ائنات": 4676,
      "1920": 4677,
      "الشكل": 4678,
      "تحوي": 4679,
      "هيار": 4680,
      "الروح": 4681,
      "سبات": 4682,
      "مدريد": 4683,
      "أولى": 4684,
      "ختار": 4685,
      "لفات": 4686,
      "بطولة": 4687,
      "سعى": 4688,
      "ُمراء": 4689,
      "تعدّ": 4690,
      "يؤدي": 4691,
      "رؤساء": 4692,
      "النووية": 4693,
      "فاوضات": 4694,
      "البليدة": 4695,
      "أوزبكستان": 4696,
      ".»": 4697,
      "118": 4698,
      "ef": 4699,
      "أض": 4700,
      "إع": 4701,
      "إصدار": 4702,
      "سوم": 4703,
      "ضان": 4704,
      "فوض": 4705,
      "لوا": 4706,
      "مئات": 4707,
      "نَ": 4708,
      "يبدو": 4709,
      "المقاط": 4710,
      "الأجهزة": 4711,
      "ريقية": 4712,
      "يرجع": 4713,
      "ورئيس": 4714,
      "الجبال": 4715,
      "النب": 4716,
      "الصليبية": 4717,
      "الخارجي": 4718,
      "وزع": 4719,
      "تقريبًا": 4720,
      "والمن": 4721,
      "ندية": 4722,
      "جدًا": 4723,
      "البيئة": 4724,
      "وسيع": 4725,
      "آخرين": 4726,
      "الأسود": 4727,
      "أقسام": 4728,
      "ation": 4729,
      "التركية": 4730,
      "الإقليمية": 4731,
      "الأثرية": 4732,
      "85": 4733,
      "جغرا": 4734,
      "جوريون": 4735,
      "دان": 4736,
      "دورة": 4737,
      "دفاع": 4738,
      "روز": 4739,
      "ساد": 4740,
      "سوف": 4741,
      "فوز": 4742,
      "موجودة": 4743,
      "هنا": 4744,
      "ُغر": 4745,
      "ّف": 4746,
      "الرب": 4747,
      "ولقد": 4748,
      "السوري": 4749,
      "القوانين": 4750,
      "لكي": 4751,
      "البع": 4752,
      "ويعتبر": 4753,
      "الشب": 4754,
      "مدرب": 4755,
      "وأول": 4756,
      "وكو": 4757,
      "تعتمد": 4758,
      "وضعت": 4759,
      "المنصور": 4760,
      "تدخل": 4761,
      "خلالها": 4762,
      "حرارة": 4763,
      "أفكار": 4764,
      "المستقبل": 4765,
      "اعتبر": 4766,
      "وائر": 4767,
      "المحكمة": 4768,
      "تبطة": 4769,
      "النمساوية": 4770,
      "قُتل": 4771,
      "سحب": 4772,
      "معروف": 4773,
      "وتشمل": 4774,
      "الجمعية": 4775,
      "الديمقراطي": 4776,
      "سطنطين": 4777,
      "ab": 4778,
      "أرب": 4779,
      "ئلة": 4780,
      "بالح": 4781,
      "جيد": 4782,
      "رر": 4783,
      "سائر": 4784,
      "ضو": 4785,
      "كك": 4786,
      "كاب": 4787,
      "موت": 4788,
      "الول": 4789,
      "المز": 4790,
      "المواقع": 4791,
      "المهمة": 4792,
      "المخا": 4793,
      "منز": 4794,
      "الأمة": 4795,
      "الجسم": 4796,
      "شرح": 4797,
      "الكامل": 4798,
      "بدلاً": 4799,
      "بعده": 4800,
      "متلك": 4801,
      "الطوائف": 4802,
      "فرق": 4803,
      "الأمور": 4804,
      "لهجة": 4805,
      "أصغر": 4806,
      "الأردني": 4807,
      "المجالات": 4808,
      "أعط": 4809,
      "وغيرهم": 4810,
      "حدثت": 4811,
      "نبعل": 4812,
      "الكيميا": 4813,
      "وأكثر": 4814,
      "الكاثوليكية": 4815,
      "الاشتراكي": 4816,
      "الأطلسي": 4817,
      "84": 4818,
      "um": 4819,
      "أَ": 4820,
      "إما": 4821,
      "تائج": 4822,
      "داب": 4823,
      "سجل": 4824,
      "ضيع": 4825,
      "قق": 4826,
      "نمو": 4827,
      "يمة": 4828,
      "البنية": 4829,
      "الكت": 4830,
      "النار": 4831,
      "الشهر": 4832,
      "ساحة": 4833,
      "هدين": 4834,
      "الطبية": 4835,
      "الغالب": 4836,
      "تدل": 4837,
      "والتج": 4838,
      "حلول": 4839,
      "فإنه": 4840,
      "الشيعة": 4841,
      "1973": 4842,
      "1938": 4843,
      "القرار": 4844,
      "تكوين": 4845,
      "نفوذ": 4846,
      "الأرمن": 4847,
      "الأماكن": 4848,
      "أسباب": 4849,
      "57": 4850,
      "66": 4851,
      "أوب": 4852,
      "أرس": 4853,
      "أسيس": 4854,
      "توس": 4855,
      "خير": 4856,
      "دعا": 4857,
      "ذه": 4858,
      "رال": 4859,
      "شؤون": 4860,
      "ضمت": 4861,
      "فاد": 4862,
      "فيل": 4863,
      "المطل": 4864,
      "الأج": 4865,
      "التعب": 4866,
      "واحت": 4867,
      "ربون": 4868,
      "الإس": 4869,
      "الإرها": 4870,
      "ويكي": 4871,
      "الكث": 4872,
      "الشباب": 4873,
      "الشريعة": 4874,
      "وقا": 4875,
      "تحويل": 4876,
      "الصيد": 4877,
      "حدوث": 4878,
      "يتعلق": 4879,
      "بحوالي": 4880,
      "جرى": 4881,
      "1993": 4882,
      "الجزر": 4883,
      "1947": 4884,
      "قصيرة": 4885,
      "الانق": 4886,
      "1975": 4887,
      "واستمر": 4888,
      "1955": 4889,
      "وغرا": 4890,
      "عودة": 4891,
      "احتيا": 4892,
      "لندن": 4893,
      "الساعة": 4894,
      "طفى": 4895,
      "المشتركة": 4896,
      "المركزي": 4897,
      "os": 4898,
      "جبر": 4899,
      "حظ": 4900,
      "حار": 4901,
      "دليل": 4902,
      "شية": 4903,
      "صغير": 4904,
      "لمن": 4905,
      "مها": 4906,
      "مدة": 4907,
      "هزيمة": 4908,
      "الهو": 4909,
      "المشر": 4910,
      "المشروع": 4911,
      "الأجنبية": 4912,
      "هادة": 4913,
      "العمال": 4914,
      "واط": 4915,
      "ديات": 4916,
      "البول": 4917,
      "كلفة": 4918,
      "الصخور": 4919,
      "قاق": 4920,
      "فرقة": 4921,
      "تدا": 4922,
      "جداً": 4923,
      "الآرامية": 4924,
      "أولاد": 4925,
      "الاستيلاء": 4926,
      "البرية": 4927,
      "الجنود": 4928,
      "وثيقة": 4929,
      "راتيج": 4930,
      "المرأة": 4931,
      "المواطنين": 4932,
      "البحري": 4933,
      "شكول": 4934,
      "اللبناني": 4935,
      "الخامسة": 4936,
      "الحقوق": 4937,
      "غالبًا": 4938,
      "كلمات": 4939,
      "تقريباً": 4940,
      "السودان": 4941,
      "القتال": 4942,
      "الحواسيب": 4943,
      "إغ": 4944,
      "بوب": 4945,
      "تط": 4946,
      "تور": 4947,
      "حاليًا": 4948,
      "حنبعل": 4949,
      "رمز": 4950,
      "زون": 4951,
      "عناصر": 4952,
      "فذ": 4953,
      "فهر": 4954,
      "فكانت": 4955,
      "يجي": 4956,
      "ّات": 4957,
      "اتخذ": 4958,
      "ليلة": 4959,
      "سيل": 4960,
      "وتت": 4961,
      "ودخل": 4962,
      "الكر": 4963,
      "وسوريا": 4964,
      "وقات": 4965,
      "قتال": 4966,
      "فاهيم": 4967,
      "كمال": 4968,
      "وحات": 4969,
      "أمم": 4970,
      "ضاف": 4971,
      "جدية": 4972,
      "1944": 4973,
      "وشمال": 4974,
      "1960": 4975,
      "1962": 4976,
      "الضرائب": 4977,
      "جيشه": 4978,
      "تخب": 4979,
      "الصناعات": 4980,
      "غالبية": 4981,
      "الاعتراف": 4982,
      "تغيير": 4983,
      "آي": 4984,
      "أمن": 4985,
      "بمعنى": 4986,
      "تهي": 4987,
      "خرة": 4988,
      "عكس": 4989,
      "قان": 4990,
      "مقا": 4991,
      "هولة": 4992,
      "وَ": 4993,
      "يبة": 4994,
      "الأسط": 4995,
      "الأربعة": 4996,
      "التُ": 4997,
      "التزام": 4998,
      "ستاذ": 4999,
      "ومصر": 5000,
      "الحاض": 5001,
      "السفن": 5002,
      "القيا": 5003,
      "معار": 5004,
      "ويض": 5005,
      "وتية": 5006,
      "الدوحة": 5007,
      "الكريم": 5008,
      "النشاط": 5009,
      "تحسين": 5010,
      "ساعة": 5011,
      "الذكر": 5012,
      "يتكون": 5013,
      "قيات": 5014,
      "فروع": 5015,
      "مسلم": 5016,
      "ثمار": 5017,
      "الشرطة": 5018,
      "ترجم": 5019,
      "الآلاف": 5020,
      "الناحية": 5021,
      "والعل": 5022,
      "اسمه": 5023,
      "اسمها": 5024,
      "رحباني": 5025,
      "طبقة": 5026,
      "الثقافي": 5027,
      "شعار": 5028,
      "عالمية": 5029,
      "الزراعي": 5030,
      "الصناعة": 5031,
      "العباسية": 5032,
      "الحيوانات": 5033,
      "يحتوي": 5034,
      "وتستانت": 5035,
      "المهاجرين": 5036,
      "إش": 5037,
      "بالر": 5038,
      "تعلي": 5039,
      "ثرة": 5040,
      "جوز": 5041,
      "ضط": 5042,
      "ملة": 5043,
      "ميت": 5044,
      "موضوع": 5045,
      "يحي": 5046,
      "يقت": 5047,
      "اتفاق": 5048,
      "مائة": 5049,
      "ديث": 5050,
      "معهد": 5051,
      "وتعتبر": 5052,
      "الشار": 5053,
      "تحرك": 5054,
      "اليب": 5055,
      "الثمان": 5056,
      "وعين": 5057,
      "كتلة": 5058,
      "قاسم": 5059,
      "حافظ": 5060,
      "الطريقة": 5061,
      "لسوف": 5062,
      "فترات": 5063,
      "ثمانية": 5064,
      "ضافت": 5065,
      "خصائص": 5066,
      "انتصار": 5067,
      "تنوع": 5068,
      "أبحاث": 5069,
      "السياحية": 5070,
      "اعتماد": 5071,
      "مصطفى": 5072,
      "أغنية": 5073,
      "1977": 5074,
      "أمريكيون": 5075,
      "السبب": 5076,
      "iv": 5077,
      "أقصى": 5078,
      "بالع": 5079,
      "بعنوان": 5080,
      "ثاق": 5081,
      "خلا": 5082,
      "ذية": 5083,
      "فى": 5084,
      "يار": 5085,
      "القُ": 5086,
      "ناها": 5087,
      "ناسا": 5088,
      "ويب": 5089,
      "للبلاد": 5090,
      "الشورى": 5091,
      "حيل": 5092,
      "اليات": 5093,
      "مدير": 5094,
      "حتها": 5095,
      "نيقية": 5096,
      "فاضة": 5097,
      "كمية": 5098,
      "وطنية": 5099,
      "وانئ": 5100,
      "ترجمة": 5101,
      "ائلات": 5102,
      "تفعات": 5103,
      "والعشرين": 5104,
      "1986": 5105,
      "1964": 5106,
      "الضغط": 5107,
      "1970": 5108,
      "سابقة": 5109,
      "1958": 5110,
      "شخصيات": 5111,
      "أقرب": 5112,
      "نائب": 5113,
      "اكتشف": 5114,
      "رئيسية": 5115,
      "يعدّ": 5116,
      "88": 5117,
      "In": 5118,
      "St": 5119,
      "أذ": 5120,
      "بكل": 5121,
      "ثبت": 5122,
      "خاذ": 5123,
      "سعة": 5124,
      "شفت": 5125,
      "صلاة": 5126,
      "قيا": 5127,
      "كُ": 5128,
      "كمت": 5129,
      "لبة": 5130,
      "مفهوم": 5131,
      "الخل": 5132,
      "الأل": 5133,
      "التسع": 5134,
      "التلفزيون": 5135,
      "راز": 5136,
      "ناس": 5137,
      "ناق": 5138,
      "الكلمات": 5139,
      "ساعدة": 5140,
      "الصدر": 5141,
      "وريين": 5142,
      "محطات": 5143,
      "جنود": 5144,
      "ومنا": 5145,
      "مارك": 5146,
      "قبال": 5147,
      "أخبار": 5148,
      "الجماعات": 5149,
      "وامل": 5150,
      "رؤية": 5151,
      "بصورة": 5152,
      "الأرثوذكسية": 5153,
      "إرهابية": 5154,
      "المنظمات": 5155,
      "1000": 5156,
      "41": 5157,
      "42": 5158,
      "آذار": 5159,
      "بب": 5160,
      "تعداد": 5161,
      "رون": 5162,
      "شديد": 5163,
      "ظاهرة": 5164,
      "مون": 5165,
      "مور": 5166,
      "يْ": 5167,
      "يحدث": 5168,
      "يورو": 5169,
      "المط": 5170,
      "الأيام": 5171,
      "الأتراك": 5172,
      "ولو": 5173,
      "الحفاظ": 5174,
      "القيام": 5175,
      "الإله": 5176,
      "ائب": 5177,
      "هيل": 5178,
      "اليين": 5179,
      "جموعة": 5180,
      "يعتمد": 5181,
      "حاصل": 5182,
      "المدنية": 5183,
      "بحرية": 5184,
      "مجرد": 5185,
      "مسقط": 5186,
      "ترت": 5187,
      "يقارب": 5188,
      "تتراوح": 5189,
      "قصة": 5190,
      "ers": 5191,
      "عهده": 5192,
      "ولوجي": 5193,
      "كثافة": 5194,
      "التنفيذ": 5195,
      "شكال": 5196,
      "الشعبي": 5197,
      "للإخوان": 5198,
      "غيير": 5199,
      "اغتيال": 5200,
      "الدعوة": 5201,
      "آت": 5202,
      "أهداف": 5203,
      "ئت": 5204,
      "حوض": 5205,
      "شح": 5206,
      "شراء": 5207,
      "ضخم": 5208,
      "طويل": 5209,
      "غال": 5210,
      "غيتس": 5211,
      "فئة": 5212,
      "لبعض": 5213,
      "لويس": 5214,
      "موقف": 5215,
      "ملاحظ": 5216,
      "وأنه": 5217,
      "الولاية": 5218,
      "المظ": 5219,
      "الأجانب": 5220,
      "الأسلحة": 5221,
      "التعلي": 5222,
      "العالية": 5223,
      "ومو": 5224,
      "الحجر": 5225,
      "لمانية": 5226,
      "القصر": 5227,
      "ابلة": 5228,
      "الإسكندر": 5229,
      "سيق": 5230,
      "النقد": 5231,
      "استقر": 5232,
      "الصاد": 5233,
      "َّت": 5234,
      "سنوي": 5235,
      "جنبي": 5236,
      "لاحقا": 5237,
      "للمدينة": 5238,
      "1968": 5239,
      "الأدنى": 5240,
      "وبلغ": 5241,
      "تتمتع": 5242,
      "المؤسسة": 5243,
      "الليبية": 5244,
      "يهودي": 5245,
      "نشأت": 5246,
      "أهولة": 5247,
      "ملحوظ": 5248,
      "الرابعة": 5249,
      "%،": 5250,
      "400": 5251,
      "أشار": 5252,
      "أراد": 5253,
      "إعل": 5254,
      "إضا": 5255,
      "إله": 5256,
      "إصلاح": 5257,
      "تسمح": 5258,
      "حضر": 5259,
      "دورا": 5260,
      "سما": 5261,
      "عقب": 5262,
      "قابل": 5263,
      "كوك": 5264,
      "لأي": 5265,
      "موظ": 5266,
      "محددة": 5267,
      "نجاح": 5268,
      "هجمات": 5269,
      "والعراق": 5270,
      "يذكر": 5271,
      "المكتب": 5272,
      "انش": 5273,
      "الأجرام": 5274,
      "العرش": 5275,
      "راديو": 5276,
      "مادة": 5277,
      "واقت": 5278,
      "بيئة": 5279,
      "نائي": 5280,
      "البشري": 5281,
      "شروط": 5282,
      "1918": 5283,
      "حيات": 5284,
      "حيين": 5285,
      "بنت": 5286,
      "َّر": 5287,
      "حتية": 5288,
      "بدل": 5289,
      "وأد": 5290,
      "وأخذ": 5291,
      "قتة": 5292,
      "أكيد": 5293,
      "ردن": 5294,
      "بتاريخ": 5295,
      "تتبع": 5296,
      "تتضمن": 5297,
      "قليات": 5298,
      "الأولم": 5299,
      "1965": 5300,
      "الأخوين": 5301,
      "إليهم": 5302,
      "1954": 5303,
      "السكانية": 5304,
      "احتلت": 5305,
      "طباء": 5306,
      "الأفكار": 5307,
      "وبدأت": 5308,
      "مكتبة": 5309,
      "الجبلية": 5310,
      "قرابة": 5311,
      "القانونية": 5312,
      "الباكستانية": 5313,
      "92": 5314,
      "98": 5315,
      "de": 5316,
      "ألة": 5317,
      "ثابت": 5318,
      "جول": 5319,
      "جهود": 5320,
      "شين": 5321,
      "قديمة": 5322,
      "كُل": 5323,
      "كشف": 5324,
      "هتمام": 5325,
      "وعم": 5326,
      "التنا": 5327,
      "العظيم": 5328,
      "راعات": 5329,
      "ليكون": 5330,
      "القادر": 5331,
      "القومي": 5332,
      "الإقطاع": 5333,
      "للسلام": 5334,
      "النتائج": 5335,
      "تموز": 5336,
      "سبعة": 5337,
      "اعتمد": 5338,
      "وفرة": 5339,
      "الثانوية": 5340,
      "متها": 5341,
      "والمست": 5342,
      "والمعر": 5343,
      "لهة": 5344,
      "يوخ": 5345,
      "الزع": 5346,
      "القرنين": 5347,
      "المتحف": 5348,
      "اللهجة": 5349,
      "مُن": 5350,
      "1946": 5351,
      "تاريخية": 5352,
      "يطان": 5353,
      "1978": 5354,
      "1950": 5355,
      "أعظم": 5356,
      "فاعل": 5357,
      "أمريكية": 5358,
      "عادت": 5359,
      "التنمية": 5360,
      "الفلسطينيين": 5361,
      "أغلبية": 5362,
      "الحديدية": 5363,
      "ماليك": 5364,
      "المعارضة": 5365,
      "يعيشون": 5366,
      "وظيفة": 5367,
      "وأيض": 5368,
      "وأرسل": 5369,
      "The": 5370,
      "المخابرات": 5371,
      "73": 5372,
      "أطلقت": 5373,
      "بهذه": 5374,
      "بوجود": 5375,
      "تون": 5376,
      "تجاه": 5377,
      "دجلة": 5378,
      "ضاريس": 5379,
      "ضغط": 5380,
      "طال": 5381,
      "غو": 5382,
      "غار": 5383,
      "قمة": 5384,
      "قوية": 5385,
      "مسة": 5386,
      "نموذج": 5387,
      "هلاك": 5388,
      "ِن": 5389,
      "الوجود": 5390,
      "المال": 5391,
      "امع": 5392,
      "العائلة": 5393,
      "العادل": 5394,
      "ماس": 5395,
      "ريقي": 5396,
      "بيان": 5397,
      "القيادة": 5398,
      "سيف": 5399,
      "البالغ": 5400,
      "ائت": 5401,
      "وسل": 5402,
      "الشهيرة": 5403,
      "مرض": 5404,
      "يتين": 5405,
      "قتها": 5406,
      "المدني": 5407,
      "كيز": 5408,
      "قطب": 5409,
      "أكد": 5410,
      "شكلت": 5411,
      "ميزة": 5412,
      "لاحقاً": 5413,
      "الآسيوية": 5414,
      "لينين": 5415,
      "فقات": 5416,
      "الأولية": 5417,
      "1984": 5418,
      "صدام": 5419,
      "تابع": 5420,
      "1979": 5421,
      "1956": 5422,
      "القرون": 5423,
      "الأسواق": 5424,
      "الهندية": 5425,
      "الأنباط": 5426,
      "دائم": 5427,
      "المساحة": 5428,
      "ثقافية": 5429,
      "الأصول": 5430,
      "الأصلي": 5431,
      "الأشخاص": 5432,
      "التصويت": 5433,
      "الآخرين": 5434,
      "للعراق": 5435,
      "خفضة": 5436,
      "يهودية": 5437,
      "بوذا": 5438,
      "بالكامل": 5439,
      "وَّل": 5440,
      "95": 5441,
      "أخر": 5442,
      "إشكول": 5443,
      "بَ": 5444,
      "بإنشاء": 5445,
      "ثالث": 5446,
      "ثانية": 5447,
      "خلاف": 5448,
      "زاد": 5449,
      "سكي": 5450,
      "شط": 5451,
      "صيد": 5452,
      "طلاب": 5453,
      "ظلت": 5454,
      "قديم": 5455,
      "مشاكل": 5456,
      "يبدأ": 5457,
      "يضم": 5458,
      "الواحد": 5459,
      "المالك": 5460,
      "الأي": 5461,
      "التحتية": 5462,
      "العظمى": 5463,
      "ماج": 5464,
      "يرها": 5465,
      "بيب": 5466,
      "الدم": 5467,
      "الدور": 5468,
      "الدوري": 5469,
      "النواة": 5470,
      "الفتح": 5471,
      "الفلس": 5472,
      "تحكم": 5473,
      "بنك": 5474,
      "درالية": 5475,
      "الهندي": 5476,
      "جزائر": 5477,
      "قاموا": 5478,
      "جرت": 5479,
      "مارين": 5480,
      "بموجب": 5481,
      "عمرو": 5482,
      "لديه": 5483,
      "رشاد": 5484,
      "وقامت": 5485,
      "المحيطة": 5486,
      "والذين": 5487,
      "\">": 5488,
      "أزمة": 5489,
      "تختلف": 5490,
      "خبارات": 5491,
      "رجة": 5492,
      "زان": 5493,
      "سليم": 5494,
      "سليمان": 5495,
      "صاص": 5496,
      "فلك": 5497,
      "قرة": 5498,
      "لنظام": 5499,
      "هج": 5500,
      "هية": 5501,
      "يري": 5502,
      "المائية": 5503,
      "المشرق": 5504,
      "ماث": 5505,
      "واي": 5506,
      "والاتحاد": 5507,
      "ومت": 5508,
      "الحرية": 5509,
      "الحجري": 5510,
      "السر": 5511,
      "ربين": 5512,
      "ويون": 5513,
      "وبِ": 5514,
      "للأرض": 5515,
      "ودول": 5516,
      "النهضة": 5517,
      "الفعل": 5518,
      "سلط": 5519,
      "سلالة": 5520,
      "بينهما": 5521,
      "الذاتي": 5522,
      "باشا": 5523,
      "مته": 5524,
      "اصرة": 5525,
      "الغابات": 5526,
      "مجمع": 5527,
      "جاذ": 5528,
      "تشي": 5529,
      "بعضهم": 5530,
      "مارسات": 5531,
      "طاف": 5532,
      "النازية": 5533,
      "1983": 5534,
      "مصرية": 5535,
      "التاريخي": 5536,
      "فظات": 5537,
      "عمره": 5538,
      "العملة": 5539,
      "الهيدر": 5540,
      "بولندا": 5541,
      "الأمريكيين": 5542,
      "رابطة": 5543,
      "رياضية": 5544,
      "انتقل": 5545,
      "نظرًا": 5546,
      "عارض": 5547,
      "مسيحية": 5548,
      "جيبوتي": 5549,
      "الفضائية": 5550,
      "تلمسان": 5551,
      "الخوارزمي": 5552,
      "التُرك": 5553,
      "117": 5554,
      "Al": 5555,
      "إرسال": 5556,
      "بالج": 5557,
      "خيص": 5558,
      "دوري": 5559,
      "فج": 5560,
      "وشي": 5561,
      "الهدف": 5562,
      "السفر": 5563,
      "السطح": 5564,
      "القلعة": 5565,
      "معالجة": 5566,
      "ويوجد": 5567,
      "ائن": 5568,
      "النطاق": 5569,
      "تمتد": 5570,
      "سمرق": 5571,
      "عمله": 5572,
      "الرأي": 5573,
      "الرعاية": 5574,
      "باق": 5575,
      "يعي": 5576,
      "أيوب": 5577,
      "الطي": 5578,
      "جنكيز": 5579,
      "لهُ": 5580,
      "تنتج": 5581,
      "مليارات": 5582,
      "مستخدم": 5583,
      "المُوافق": 5584,
      "1982": 5585,
      "1966": 5586,
      "تصبح": 5587,
      "الرائ": 5588,
      "1936": 5589,
      "إمكانية": 5590,
      "أثار": 5591,
      "ذكرت": 5592,
      "ُّها": 5593,
      "التنفيذي": 5594,
      "بكثير": 5595,
      "الإداري": 5596,
      "اقتصادي": 5597,
      "معرفة": 5598,
      "معروفة": 5599,
      "السيارات": 5600,
      "تيمور": 5601,
      "عشيرة": 5602,
      "إسبانيا": 5603,
      "أعماله": 5604,
      "والتنمية": 5605,
      "43": 5606,
      "76": 5607,
      "ge": 5608,
      "li": 5609,
      "أز": 5610,
      "أمثال": 5611,
      "بز": 5612,
      "بابل": 5613,
      "حلف": 5614,
      "حالات": 5615,
      "سبي": 5616,
      "شاب": 5617,
      "صدي": 5618,
      "طورة": 5619,
      "قين": 5620,
      "مقاومة": 5621,
      "ممارسة": 5622,
      "مأهولة": 5623,
      "يناء": 5624,
      "الأهم": 5625,
      "الأوَّل": 5626,
      "التخطيط": 5627,
      "ريش": 5628,
      "السام": 5629,
      "الإير": 5630,
      "ويع": 5631,
      "للاتحاد": 5632,
      "قدرة": 5633,
      "وفية": 5634,
      "باك": 5635,
      "وفير": 5636,
      "إنجاز": 5637,
      "2022": 5638,
      "الاتصال": 5639,
      "شاور": 5640,
      "العاملة": 5641,
      "أصحاب": 5642,
      "الاستعمار": 5643,
      "180": 5644,
      "الإنسانية": 5645,
      "المستخدمة": 5646,
      "المستقلة": 5647,
      "الجنرال": 5648,
      "وسيلة": 5649,
      "يونكس": 5650,
      "دينار": 5651,
      "نهائي": 5652,
      "لاجئين": 5653,
      "المصطلح": 5654,
      "مواطن": 5655,
      "الساحلية": 5656,
      "جاءت": 5657,
      "حصلت": 5658,
      "توفير": 5659,
      "الجمهور": 5660,
      "نادق": 5661,
      "حالياً": 5662,
      "وتقع": 5663,
      "رسميًا": 5664,
      "بلوماسية": 5665,
      "مقاطعة": 5666,
      "انتشرت": 5667,
      "منصبه": 5668,
      "سمرقند": 5669,
      "%)": 5670,
      "%.": 5671,
      "59": 5672,
      "op": 5673,
      "td": 5674,
      "ؤه": 5675,
      "إير": 5676,
      "إفريقية": 5677,
      "تفا": 5678,
      "تضمن": 5679,
      "تبقى": 5680,
      "جوائز": 5681,
      "حفظ": 5682,
      "رأي": 5683,
      "زت": 5684,
      "سقطت": 5685,
      "شُ": 5686,
      "ضبة": 5687,
      "طبة": 5688,
      "قوس": 5689,
      "كوه": 5690,
      "موطن": 5691,
      "مخطوط": 5692,
      "نجيب": 5693,
      "والعديد": 5694,
      "َة": 5695,
      "المشاركة": 5696,
      "المماليك": 5697,
      "العين": 5698,
      "يابان": 5699,
      "عدل": 5700,
      "ربما": 5701,
      "وتطوير": 5702,
      "ائعة": 5703,
      "الفُ": 5704,
      "عمرات": 5705,
      "بلدة": 5706,
      "الصور": 5707,
      "الخض": 5708,
      "وأهم": 5709,
      "وزو": 5710,
      "تقلي": 5711,
      "كميات": 5712,
      "ندق": 5713,
      "المنتجات": 5714,
      "الديني": 5715,
      "باتجاه": 5716,
      "الحادي": 5717,
      "1987": 5718,
      "1935": 5719,
      "آخرون": 5720,
      "دورًا": 5721,
      "كارل": 5722,
      "الأنشطة": 5723,
      "الأساس": 5724,
      "يحمل": 5725,
      "يادات": 5726,
      "دعى": 5727,
      "الظواهر": 5728,
      "لفزيونية": 5729,
      "المعماري": 5730,
      "البصرة": 5731,
      "الابتد": 5732,
      "وأقاليم": 5733,
      "لليهود": 5734,
      "أرسطو": 5735,
      "راتيجية": 5736,
      "63": 5737,
      "79": 5738,
      "ia": 5739,
      "ter": 5740,
      "ؤها": 5741,
      "حوذ": 5742,
      "سلا": 5743,
      "شاعر": 5744,
      "علا": 5745,
      "قن": 5746,
      "موسي": 5747,
      "مشكلة": 5748,
      "نام": 5749,
      "ووضع": 5750,
      "وعدم": 5751,
      "الموت": 5752,
      "المخت": 5753,
      "انضمام": 5754,
      "اتصالات": 5755,
      "ماجد": 5756,
      "ومغ": 5757,
      "قدمة": 5758,
      "1919": 5759,
      "النيل": 5760,
      "الشاعر": 5761,
      "الصي": 5762,
      "الصوم": 5763,
      "خلفه": 5764,
      "إنسان": 5765,
      "نيسان": 5766,
      "كيفية": 5767,
      "مسلمون": 5768,
      "عددًا": 5769,
      "وهما": 5770,
      "مسافة": 5771,
      "رسول": 5772,
      "1949": 5773,
      "وذكر": 5774,
      "1969": 5775,
      "طبيقات": 5776,
      "دراسات": 5777,
      "أطول": 5778,
      "الهيئة": 5779,
      "وامر": 5780,
      "أنَّهُ": 5781,
      "الأشعة": 5782,
      "لغاء": 5783,
      "الفارسية": 5784,
      "الرحباني": 5785,
      "التلفاز": 5786,
      "البلطي": 5787,
      "عمادُ": 5788,
      "und": 5789,
      "باعتبارها": 5790,
      "النباتات": 5791,
      "عراقي": 5792,
      "الأكاديمية": 5793,
      "ud": 5794,
      "»)": 5795,
      "بالب": 5796,
      "تبدأ": 5797,
      "تولي": 5798,
      "حَ": 5799,
      "حام": 5800,
      "ذوي": 5801,
      "ضمان": 5802,
      "طوال": 5803,
      "طيات": 5804,
      "لعت": 5805,
      "ممن": 5806,
      "موجود": 5807,
      "نبي": 5808,
      "وعند": 5809,
      "الزي": 5810,
      "الليبي": 5811,
      "الملح": 5812,
      "منتج": 5813,
      "منزل": 5814,
      "الأو": 5815,
      "التربة": 5816,
      "العض": 5817,
      "يرًا": 5818,
      "ليصبح": 5819,
      "بيوتر": 5820,
      "لمدينة": 5821,
      "ناً": 5822,
      "الإي": 5823,
      "معهم": 5824,
      "البة": 5825,
      "شرقي": 5826,
      "ائة": 5827,
      "تحليل": 5828,
      "عملت": 5829,
      "هيد": 5830,
      "ساس": 5831,
      "مدين": 5832,
      "مدارس": 5833,
      "صلات": 5834,
      "نيه": 5835,
      "تقنية": 5836,
      "لتكون": 5837,
      "مثابة": 5838,
      "وانته": 5839,
      "محكمة": 5840,
      "وضة": 5841,
      "المنش": 5842,
      "الاتجاه": 5843,
      "اضية": 5844,
      "البرمجة": 5845,
      "تأتي": 5846,
      "تفعة": 5847,
      "1963": 5848,
      "1974": 5849,
      "1953": 5850,
      "جماعات": 5851,
      "البحار": 5852,
      "السنين": 5853,
      "الأغلبية": 5854,
      "تعرضت": 5855,
      "السويدية": 5856,
      "وبدأ": 5857,
      "طبقات": 5858,
      "رأى": 5859,
      "الأولمبية": 5860,
      "أبر": 5861,
      "تو": 5862,
      "تدمير": 5863,
      "جيوش": 5864,
      "خُ": 5865,
      "ذة": 5866,
      "صراع": 5867,
      "عالمي": 5868,
      "قمر": 5869,
      "قونية": 5870,
      "كود": 5871,
      "مير": 5872,
      "ّع": 5873,
      "الوق": 5874,
      "المكون": 5875,
      "المباني": 5876,
      "المائي": 5877,
      "ولها": 5878,
      "ولذلك": 5879,
      "رابين": 5880,
      "وافل": 5881,
      "ياباني": 5882,
      "ومؤ": 5883,
      "الحجاج": 5884,
      "ناح": 5885,
      "الجليد": 5886,
      "وتا": 5887,
      "وتها": 5888,
      "وتطور": 5889,
      "النصف": 5890,
      "وقية": 5891,
      "يتألف": 5892,
      "وكا": 5893,
      "لتع": 5894,
      "المنزل": 5895,
      "طيلة": 5896,
      "للمريخ": 5897,
      "تنتشر": 5898,
      "شاركت": 5899,
      "مقات": 5900,
      "لدولة": 5901,
      "خطر": 5902,
      "الاتحادية": 5903,
      "المجمع": 5904,
      "حكمه": 5905,
      "الأحياء": 5906,
      "أعلام": 5907,
      "تقدر": 5908,
      "لابس": 5909,
      "مؤسسات": 5910,
      "رياضة": 5911,
      "الحضرية": 5912,
      "الحضارات": 5913,
      "الحقبة": 5914,
      "البيزنطيين": 5915,
      "فلاسفة": 5916,
      "مراحل": 5917,
      "الإلكترونية": 5918,
      "القائمة": 5919,
      "المبكرة": 5920,
      ".)": 5921,
      "120": 5922,
      "IS": 5923,
      "أون": 5924,
      "بيا": 5925,
      "براء": 5926,
      "بالمدينة": 5927,
      "درب": 5928,
      "روح": 5929,
      "سهل": 5930,
      "صيف": 5931,
      "طلاع": 5932,
      "قضاء": 5933,
      "كوب": 5934,
      "لأ": 5935,
      "لعدة": 5936,
      "مبنى": 5937,
      "نون": 5938,
      "وأو": 5939,
      "انخفاض": 5940,
      "هاجمة": 5941,
      "التم": 5942,
      "العقد": 5943,
      "ستون": 5944,
      "ديانة": 5945,
      "أنا": 5946,
      "الحالة": 5947,
      "الإخ": 5948,
      "سيين": 5949,
      "للعلوم": 5950,
      "الدكتور": 5951,
      "الكا": 5952,
      "الكائنات": 5953,
      "النحاس": 5954,
      "وفرنسا": 5955,
      "وعلي": 5956,
      "يتي": 5957,
      "بعدما": 5958,
      "حاجة": 5959,
      "لتصبح": 5960,
      "يشمل": 5961,
      "مسرح": 5962,
      "جندي": 5963,
      "اضط": 5964,
      "اضطر": 5965,
      "أحزاب": 5966,
      "الأخبار": 5967,
      "سابقًا": 5968,
      "السوفياتي": 5969,
      "ازدهار": 5970,
      "رائم": 5971,
      "الحمراء": 5972,
      "لديهم": 5973,
      "قضية": 5974,
      "تاحف": 5975,
      "التشريعية": 5976,
      "السَلْجُوقي": 5977,
      "تعاون": 5978,
      "ew": 5979,
      "ig": 5980,
      "ist": 5981,
      "إقلي": 5982,
      "إيج": 5983,
      "تقي": 5984,
      "تفسير": 5985,
      "شفة": 5986,
      "صحة": 5987,
      "فمن": 5988,
      "فما": 5989,
      "قالة": 5990,
      "قراءة": 5991,
      "لأنها": 5992,
      "مب": 5993,
      "نواة": 5994,
      "نسخة": 5995,
      "والأم": 5996,
      "الهد": 5997,
      "الوص": 5998,
      "المزيد": 5999,
      "انين": 6000,
      "انهيار": 6001,
      "التوسع": 6002,
      "العقل": 6003,
      "ونظ": 6004,
      "ونتيجة": 6005,
      "ريض": 6006,
      "والبر": 6007,
      "ديوان": 6008,
      "الحين": 6009,
      "السماء": 6010,
      "برمج": 6011,
      "الجو": 6012,
      "البلاط": 6013,
      "الكرة": 6014,
      "النسبة": 6015,
      "الفرق": 6016,
      "وقبل": 6017,
      "استخدمت": 6018,
      "الصغير": 6019,
      "سبع": 6020,
      "مرد": 6021,
      "يتبع": 6022,
      "قاذ": 6023,
      "صرح": 6024,
      "تيزي": 6025,
      "قطار": 6026,
      "لفظ": 6027,
      "تشري": 6028,
      "المنصب": 6029,
      "المعارك": 6030,
      "خصة": 6031,
      "والتعليم": 6032,
      "ربيع": 6033,
      "تنقسم": 6034,
      "الاستقرار": 6035,
      "تجاري": 6036,
      "خطاب": 6037,
      "المغولي": 6038,
      "مؤلف": 6039,
      "الإمارة": 6040,
      "الضفة": 6041,
      "الملكي": 6042,
      "إدخال": 6043,
      "رجاع": 6044,
      "أطراف": 6045,
      "المجتمعات": 6046,
      "الأشجار": 6047,
      "َلَ": 6048,
      "وطنات": 6049,
      "التقليدي": 6050,
      "أبرزها": 6051,
      "الموساد": 6052,
      "اعتقال": 6053,
      "العاشر": 6054,
      "فكير": 6055,
      "امتداد": 6056,
      "التطبيقية": 6057,
      "الخروج": 6058,
      "الحاضر": 6059,
      "يحيى": 6060,
      "700": 6061,
      "ؤل": 6062,
      "تسم": 6063,
      "حجر": 6064,
      "رفت": 6065,
      "ساني": 6066,
      "شدة": 6067,
      "طابع": 6068,
      "غلي": 6069,
      "قس": 6070,
      "قوي": 6071,
      "لجميع": 6072,
      "ُمُ": 6073,
      "الظروف": 6074,
      "المقا": 6075,
      "مناص": 6076,
      "الأوامر": 6077,
      "ولت": 6078,
      "التفا": 6079,
      "العودة": 6080,
      "ماط": 6081,
      "ريز": 6082,
      "ريغ": 6083,
      "والولايات": 6084,
      "الحرف": 6085,
      "عدات": 6086,
      "لمي": 6087,
      "القارة": 6088,
      "القاضي": 6089,
      "القضايا": 6090,
      "سيكون": 6091,
      "وتحت": 6092,
      "وسبة": 6093,
      "عاما": 6094,
      "تمال": 6095,
      "عملة": 6096,
      "وجل": 6097,
      "هيوني": 6098,
      "َّم": 6099,
      "علام": 6100,
      "حاصر": 6101,
      "وكس": 6102,
      "أسرع": 6103,
      "بحكم": 6104,
      "بحيرة": 6105,
      "أمّا": 6106,
      "براج": 6107,
      "شارات": 6108,
      "الجنسية": 6109,
      "باتنة": 6110,
      "1943": 6111,
      "جلات": 6112,
      "وثلا": 6113,
      "وثيق": 6114,
      "فضلاً": 6115,
      "1957": 6116,
      "يستطيع": 6117,
      "أعاد": 6118,
      "أعقاب": 6119,
      "ولمَّا": 6120,
      "التقسيم": 6121,
      "تغطي": 6122,
      "جريدة": 6123,
      "يؤمن": 6124,
      "الأشياء": 6125,
      "رواية": 6126,
      "فصلة": 6127,
      "قضى": 6128,
      "مركبة": 6129,
      "القضية": 6130,
      "ؤسسات": 6131,
      "جزائري": 6132,
      "مطلع": 6133,
      "حزيران": 6134,
      "115": 6135,
      "61": 6136,
      "600": 6137,
      "ul": 6138,
      "تهدف": 6139,
      "توقف": 6140,
      "جيم": 6141,
      "حياء": 6142,
      "خراج": 6143,
      "دف": 6144,
      "شج": 6145,
      "شغل": 6146,
      "شهرة": 6147,
      "صيا": 6148,
      "ضخمة": 6149,
      "عو": 6150,
      "فرا": 6151,
      "قِ": 6152,
      "كسي": 6153,
      "كبرى": 6154,
      "لولاية": 6155,
      "لاند": 6156,
      "وخصوص": 6157,
      "الممكن": 6158,
      "العُ": 6159,
      "يربط": 6160,
      "والاجتماعية": 6161,
      "وربما": 6162,
      "السائدة": 6163,
      "القومية": 6164,
      "ويبلغ": 6165,
      "للحصول": 6166,
      "وسة": 6167,
      "تمويل": 6168,
      "الشريف": 6169,
      "بنظام": 6170,
      "الرجل": 6171,
      "سبق": 6172,
      "َّل": 6173,
      "قايا": 6174,
      "فاج": 6175,
      "هدت": 6176,
      "الاكت": 6177,
      "وحصل": 6178,
      "غيرها": 6179,
      "كونها": 6180,
      "أمور": 6181,
      "الهواء": 6182,
      "تاز": 6183,
      "عتها": 6184,
      "باراة": 6185,
      "المستشفيات": 6186,
      "أدوات": 6187,
      "وإعادة": 6188,
      "لكنَّ": 6189,
      "الفيلم": 6190,
      "وائية": 6191,
      "1976": 6192,
      "1933": 6193,
      "الصليبيَّة": 6194,
      "ارتباط": 6195,
      "اندلعت": 6196,
      "التصنيف": 6197,
      "رمضان": 6198,
      "أخذت": 6199,
      "افتتاح": 6200,
      "طائرة": 6201,
      "أنّه": 6202,
      "الإيطالية": 6203,
      "الحقيقي": 6204,
      "الألفية": 6205,
      "التعبير": 6206,
      "62": 6207,
      "Is": 6208,
      "wid": 6209,
      "إكس": 6210,
      "تصف": 6211,
      "تسبب": 6212,
      "تراجع": 6213,
      "جوان": 6214,
      "خض": 6215,
      "سورة": 6216,
      "شغ": 6217,
      "شديدة": 6218,
      "غلال": 6219,
      "فو": 6220,
      "لوك": 6221,
      "الليل": 6222,
      "المشاكل": 6223,
      "اموتو": 6224,
      "التخصص": 6225,
      "العثور": 6226,
      "واله": 6227,
      "والفر": 6228,
      "ديب": 6229,
      "القول": 6230,
      "القادة": 6231,
      "الإشارة": 6232,
      "الجيوش": 6233,
      "ويعتقد": 6234,
      "وبيا": 6235,
      "ائح": 6236,
      "الفق": 6237,
      "تحا": 6238,
      "وجاء": 6239,
      "كلغة": 6240,
      "حتلال": 6241,
      "وأما": 6242,
      "باي": 6243,
      "يتنا": 6244,
      "المدنيين": 6245,
      "تقول": 6246,
      "والمع": 6247,
      "مثلاً": 6248,
      "الهجمات": 6249,
      "تدريب": 6250,
      "الزواج": 6251,
      "للمسي": 6252,
      "والأخ": 6253,
      "الاستخدام": 6254,
      "البروتستانت": 6255,
      "تجارة": 6256,
      "واليهود": 6257,
      "صفوف": 6258,
      "وقتل": 6259,
      "أغراض": 6260,
      "1985": 6261,
      "التجري": 6262,
      "التجمع": 6263,
      "الضر": 6264,
      "قصير": 6265,
      "الانسحاب": 6266,
      "فرنسية": 6267,
      "1930": 6268,
      "حصائ": 6269,
      "ثلث": 6270,
      "الأفغان": 6271,
      "بناءً": 6272,
      "أقوى": 6273,
      "مشعل": 6274,
      "الاجتماع": 6275,
      "ثقافي": 6276,
      "المحاكم": 6277,
      "نزار": 6278,
      "جامعات": 6279,
      "المجاهدين": 6280,
      "طرابات": 6281,
      "المهدي": 6282,
      "الطبقة": 6283,
      "مسيحي": 6284,
      "ّيّة": 6285,
      "الحسيني": 6286,
      "الجغرافي": 6287,
      "الإيطالي": 6288,
      "الغذائية": 6289,
      "مغناطيسية": 6290,
      "الكهرباء": 6291,
      "الانتقال": 6292,
      "ديمقراطية": 6293,
      "الأجسام": 6294,
      "البلطيق": 6295,
      "أيل": 6296,
      "اية": 6297,
      "بمثابة": 6298,
      "تار": 6299,
      "حرف": 6300,
      "خام": 6301,
      "شو": 6302,
      "عظ": 6303,
      "غوط": 6304,
      "غلب": 6305,
      "فقام": 6306,
      "قبة": 6307,
      "ملت": 6308,
      "يمر": 6309,
      "يّة": 6310,
      "ّاً": 6311,
      "الاع": 6312,
      "مناه": 6313,
      "التب": 6314,
      "التكوين": 6315,
      "العشر": 6316,
      "أنت": 6317,
      "ومُ": 6318,
      "وميد": 6319,
      "السكن": 6320,
      "السريعة": 6321,
      "ابتداء": 6322,
      "معارك": 6323,
      "سيات": 6324,
      "وبسبب": 6325,
      "للغة": 6326,
      "للحكومة": 6327,
      "للأمم": 6328,
      "1917": 6329,
      "وقوع": 6330,
      "وفد": 6331,
      "يملك": 6332,
      "إنجلي": 6333,
      "ئيون": 6334,
      "الطرفين": 6335,
      "والمملكة": 6336,
      "تعديل": 6337,
      "المعاصرة": 6338,
      "الاتصالات": 6339,
      "َّةٍ": 6340,
      "جدد": 6341,
      "جدل": 6342,
      "ترتيب": 6343,
      "المتوقع": 6344,
      "عضوا": 6345,
      "مستويات": 6346,
      "تتألف": 6347,
      "يُعرف": 6348,
      "الناطق": 6349,
      "راتيجي": 6350,
      "فضلا": 6351,
      "كتابات": 6352,
      "الحاجة": 6353,
      "1972": 6354,
      "عادةً": 6355,
      "وبرت": 6356,
      "معظمها": 6357,
      "شعوب": 6358,
      "جزءًا": 6359,
      "أطفال": 6360,
      "يصبح": 6361,
      "نصيب": 6362,
      "شيركوه": 6363,
      "مشترك": 6364,
      "الطائرات": 6365,
      "المعادن": 6366,
      "جاذبية": 6367,
      "800": 6368,
      "la": 6369,
      "آب": 6370,
      "أعد": 6371,
      "أقام": 6372,
      "أسلوب": 6373,
      "إز": 6374,
      "ببناء": 6375,
      "تاد": 6376,
      "ثان": 6377,
      "رفي": 6378,
      "رصد": 6379,
      "سمع": 6380,
      "فها": 6381,
      "قبر": 6382,
      "قنا": 6383,
      "قوب": 6384,
      "قند": 6385,
      "مبادئ": 6386,
      "نتاج": 6387,
      "هِ": 6388,
      "وعمل": 6389,
      "يحكم": 6390,
      "ّب": 6391,
      "فيض": 6392,
      "فيينا": 6393,
      "المهام": 6394,
      "المراكز": 6395,
      "الماضية": 6396,
      "التعامل": 6397,
      "الحقيقة": 6398,
      "بيًا": 6399,
      "بيريا": 6400,
      "القلب": 6401,
      "الجها": 6402,
      "البوا": 6403,
      "للجيش": 6404,
      "الني": 6405,
      "النسخة": 6406,
      "وجز": 6407,
      "بنان": 6408,
      "الرؤ": 6409,
      "استعمال": 6410,
      "وفقاً": 6411,
      "بينه": 6412,
      "وأخ": 6413,
      "وأم": 6414,
      "يمين": 6415,
      "قيه": 6416,
      "بعث": 6417,
      "بعاث": 6418,
      "حاولة": 6419,
      "الطلب": 6420,
      "فتاء": 6421,
      "مجا": 6422,
      "محركات": 6423,
      "المعهد": 6424,
      "تايم": 6425,
      "تدفق": 6426,
      "تدعى": 6427,
      "داود": 6428,
      "سياحة": 6429,
      "راقب": 6430,
      "تنمية": 6431,
      "والأر": 6432,
      "بطلي": 6433,
      "عشرات": 6434,
      "أدرك": 6435,
      "وإذا": 6436,
      "يومًا": 6437,
      "1951": 6438,
      "الرياضي": 6439,
      "حينها": 6440,
      "أساسية": 6441,
      "بشدة": 6442,
      "القدرة": 6443,
      "1921": 6444,
      "انتقلت": 6445,
      "واضحة": 6446,
      "الجامع": 6447,
      "الشخصيات": 6448,
      "اجتماع": 6449,
      "سُليمان": 6450,
      "الرسول": 6451,
      "المؤرخون": 6452,
      "المركبة": 6453,
      "تيموجين": 6454,
      "تؤدي": 6455,
      "النهائي": 6456,
      "الباردة": 6457,
      "مشتركة": 6458,
      "النووي": 6459,
      "الجغرافيا": 6460,
      "القضائية": 6461,
      "كبيرا": 6462,
      "المعاصر": 6463,
      "سنويا": 6464,
      "المباشر": 6465,
      "44": 6466,
      "72": 6467,
      "ap": 6468,
      "أبد": 6469,
      "ئك": 6470,
      "ئمة": 6471,
      "بعل": 6472,
      "بأي": 6473,
      "سامية": 6474,
      "شوغ": 6475,
      "طاب": 6476,
      "طيران": 6477,
      "كويتي": 6478,
      "لسنة": 6479,
      "مشاريع": 6480,
      "نجا": 6481,
      "يقدم": 6482,
      "المسبار": 6483,
      "انسحاب": 6484,
      "اره": 6485,
      "ارير": 6486,
      "امه": 6487,
      "التخ": 6488,
      "ريَّة": 6489,
      "الحجم": 6490,
      "برس": 6491,
      "ناب": 6492,
      "ناز": 6493,
      "وتضم": 6494,
      "للثقافة": 6495,
      "النوع": 6496,
      "تملك": 6497,
      "بنو": 6498,
      "سافر": 6499,
      "الروسي": 6500,
      "استبد": 6501,
      "الصحافة": 6502,
      "الصُغر": 6503,
      "مرتبطة": 6504,
      "الخمسة": 6505,
      "الذات": 6506,
      "وأُ": 6507,
      "علومات": 6508,
      "خروج": 6509,
      "يتون": 6510,
      "حاً": 6511,
      "قتله": 6512,
      "لتها": 6513,
      "ندوق": 6514,
      "زيج": 6515,
      "كونه": 6516,
      "وضاع": 6517,
      "وصفه": 6518,
      "والتق": 6519,
      "ميلادي": 6520,
      "تنق": 6521,
      "شتاء": 6522,
      "لِلم": 6523,
      "سينما": 6524,
      "مناسبة": 6525,
      "عرفة": 6526,
      "عرقية": 6527,
      "الحاكمة": 6528,
      "1981": 6529,
      "الشيوعي": 6530,
      "سابقا": 6531,
      "طبيعية": 6532,
      "140": 6533,
      "يستعمل": 6534,
      "رجمة": 6535,
      "الأسماك": 6536,
      "تسجيل": 6537,
      "اختلاف": 6538,
      "داخلية": 6539,
      "اندلاع": 6540,
      "الأغلب": 6541,
      "أهلها": 6542,
      "اليونان": 6543,
      "رشيد": 6544,
      "التصميم": 6545,
      "اقترح": 6546,
      "قابلة": 6547,
      "إسلامي": 6548,
      "المشترك": 6549,
      "نجح": 6550,
      "الأبجدية": 6551,
      "حُكم": 6552,
      "واصم": 6553,
      "أصدرت": 6554,
      "حواذ": 6555,
      "الغذاء": 6556,
      "انقلاب": 6557,
      "الذهبي": 6558,
      "الكتلة": 6559,
      "الشارقة": 6560,
      "مارينر": 6561,
      "الصُغرى": 6562,
      "im": 6563,
      "res": 6564,
      "te": 6565,
      "أجرام": 6566,
      "بالعربية": 6567,
      "جبهة": 6568,
      "شهادة": 6569,
      "طير": 6570,
      "طغر": 6571,
      "كابل": 6572,
      "لتحقيق": 6573,
      "مبارك": 6574,
      "هز": 6575,
      "هلك": 6576,
      "هورة": 6577,
      "واريخ": 6578,
      "يقدر": 6579,
      "يساوي": 6580,
      "الميد": 6581,
      "المصل": 6582,
      "المقر": 6583,
      "المهرجان": 6584,
      "اتفا": 6585,
      "الألب": 6586,
      "التس": 6587,
      "العش": 6588,
      "واك": 6589,
      "ياهو": 6590,
      "ومحمد": 6591,
      "السكك": 6592,
      "القوم": 6593,
      "الإذ": 6594,
      "الجهات": 6595,
      "للحركة": 6596,
      "الدست": 6597,
      "ودا": 6598,
      "النصر": 6599,
      "النعمان": 6600,
      "الفني": 6601,
      "وعبد": 6602,
      "سند": 6603,
      "يمتلك": 6604,
      "يتر": 6605,
      "قاف": 6606,
      "قاعة": 6607,
      "كرئيس": 6608,
      "نيوتن": 6609,
      "والمؤ": 6610,
      "وحوالي": 6611,
      "الأموال": 6612,
      "ملكشاه": 6613,
      "النازي": 6614,
      "الميكانيكا": 6615,
      "والعمل": 6616,
      "صدير": 6617,
      "يتميز": 6618,
      "اليومية": 6619,
      "سابق": 6620,
      "1937": 6621,
      "160": 6622,
      "فلسطيني": 6623,
      "الفنلندي": 6624,
      "الأسماء": 6625,
      "جماع": 6626,
      "التقى": 6627,
      "المساعدة": 6628,
      "وافقت": 6629,
      "شاهين": 6630,
      "جريت": 6631,
      "وصفها": 6632,
      "افتتح": 6633,
      "تطورت": 6634,
      "حضارة": 6635,
      "انتهى": 6636,
      "زوجته": 6637,
      "امرأة": 6638,
      "والهندسة": 6639,
      "السماوية": 6640,
      "الكيميائية": 6641,
      "93": 6642,
      "أمل": 6643,
      "أقر": 6644,
      "إحصاء": 6645,
      "بمدينة": 6646,
      "توجه": 6647,
      "تواجد": 6648,
      "دارة": 6649,
      "سرية": 6650,
      "شات": 6651,
      "صابة": 6652,
      "غادر": 6653,
      "فرة": 6654,
      "موارد": 6655,
      "مظاهر": 6656,
      "والمد": 6657,
      "الوز": 6658,
      "اللاجئين": 6659,
      "المتع": 6660,
      "المحر": 6661,
      "الموجود": 6662,
      "المهند": 6663,
      "المعنى": 6664,
      "الأعداد": 6665,
      "الأوائل": 6666,
      "الأزمة": 6667,
      "التقدم": 6668,
      "العنف": 6669,
      "ابد": 6670,
      "معالم": 6671,
      "الجلي": 6672,
      "البون": 6673,
      "وبن": 6674,
      "للعمل": 6675,
      "للقوات": 6676,
      "ودور": 6677,
      "الفا": 6678,
      "الفلا": 6679,
      "وقر": 6680,
      "تحد": 6681,
      "سبأ": 6682,
      "سلح": 6683,
      "يده": 6684,
      "يدو": 6685,
      "يدخل": 6686,
      "الثر": 6687,
      "باديس": 6688,
      "إنها": 6689,
      "الطرف": 6690,
      "الطبق": 6691,
      "والمُ": 6692,
      "والمسي": 6693,
      "أسفر": 6694,
      "المعالم": 6695,
      "الاتفاق": 6696,
      "طيف": 6697,
      "المسائل": 6698,
      "انتها": 6699,
      "188": 6700,
      "مستقل": 6701,
      "أبطال": 6702,
      "مساحتها": 6703,
      "وكانوا": 6704,
      "صفحة": 6705,
      "1942": 6706,
      "مؤرخ": 6707,
      "طرح": 6708,
      "تاريخها": 6709,
      "تفجير": 6710,
      "الأخضر": 6711,
      "ضدَّ": 6712,
      "ذاتها": 6713,
      "الأحوال": 6714,
      "الديانات": 6715,
      "نفط": 6716,
      "الأرقام": 6717,
      "يسوع": 6718,
      "المسيحيون": 6719,
      "شمالي": 6720,
      "ity": 6721,
      "الجامعي": 6722,
      "باحث": 6723,
      "السادسة": 6724,
      "سياسيون": 6725,
      "التعريف": 6726,
      "البيزنطيَّة": 6727,
      "طائرات": 6728,
      "صحيح": 6729,
      "القتالية": 6730,
      "ويقع": 6731,
      "جلترا": 6732,
      "التنفيذية": 6733,
      "ماجدٍ": 6734,
      "width": 6735,
      "حصائيات": 6736,
      "أيلول": 6737,
      "114": 6738,
      "71": 6739,
      "ئذ": 6740,
      "حرة": 6741,
      "حظر": 6742,
      "خش": 6743,
      "ذاته": 6744,
      "رعاية": 6745,
      "سلاح": 6746,
      "سُل": 6747,
      "شمس": 6748,
      "عه": 6749,
      "عباس": 6750,
      "غوريون": 6751,
      "فش": 6752,
      "مذهب": 6753,
      "الوزير": 6754,
      "الوكالة": 6755,
      "فيقول": 6756,
      "المقام": 6757,
      "الموريت": 6758,
      "منط": 6759,
      "الأديان": 6760,
      "التحكم": 6761,
      "التابع": 6762,
      "ونصف": 6763,
      "والط": 6764,
      "واللغة": 6765,
      "ديون": 6766,
      "بيات": 6767,
      "الساح": 6768,
      "الجزي": 6769,
      "الجسيمات": 6770,
      "البت": 6771,
      "شرطة": 6772,
      "ائيل": 6773,
      "1914": 6774,
      "الكهر": 6775,
      "الفات": 6776,
      "تمرد": 6777,
      "وقعة": 6778,
      "الرُّها": 6779,
      "مدر": 6780,
      "الخي": 6781,
      "هوية": 6782,
      "كمل": 6783,
      "الاهتمام": 6784,
      "نظريات": 6785,
      "دمج": 6786,
      "أكا": 6787,
      "أموال": 6788,
      "داة": 6789,
      "سياً": 6790,
      "يقود": 6791,
      "الاستعم": 6792,
      "أبواب": 6793,
      "مقبرة": 6794,
      "كسرى": 6795,
      "لحركة": 6796,
      "أشعة": 6797,
      "الفيديو": 6798,
      "الضخمة": 6799,
      "وماً": 6800,
      "يتمتع": 6801,
      "اثنين": 6802,
      "1952": 6803,
      "1934": 6804,
      "نهايت": 6805,
      "معظمهم": 6806,
      "حصن": 6807,
      "تكريت": 6808,
      "التقنيات": 6809,
      "كثرة": 6810,
      "كثيراً": 6811,
      "تزوج": 6812,
      "الأنهار": 6813,
      "رائط": 6814,
      "تخطي": 6815,
      "إذاعة": 6816,
      "أبيب": 6817,
      "أبيه": 6818,
      "قطاعات": 6819,
      "تمامًا": 6820,
      "الجزائريين": 6821,
      "الشخصي": 6822,
      "قابوس": 6823,
      "حديقة": 6824,
      "حديثة": 6825,
      "جراءات": 6826,
      "اشتهر": 6827,
      "مباشر": 6828,
      "عاصي": 6829,
      "كبيراً": 6830,
      "efef": 6831,
      "الكثافة": 6832,
      "الإسكندرية": 6833,
      "إضافية": 6834,
      "طغرل": 6835,
      "</": 6836,
      "ct": 6837,
      "أبا": 6838,
      "إلغاء": 6839,
      "بدي": 6840,
      "بوم": 6841,
      "بنائ": 6842,
      "بجائزة": 6843,
      "تلا": 6844,
      "جسر": 6845,
      "حزام": 6846,
      "داع": 6847,
      "سَ": 6848,
      "سالم": 6849,
      "ضوء": 6850,
      "فدين": 6851,
      "لخ": 6852,
      "لذا": 6853,
      "ماري": 6854,
      "يبقى": 6855,
      "ٍّ": 6856,
      "الاصط": 6857,
      "فيصل": 6858,
      "المالي": 6859,
      "المند": 6860,
      "الملاحظ": 6861,
      "الممالك": 6862,
      "انح": 6863,
      "انخفض": 6864,
      "وافر": 6865,
      "واعت": 6866,
      "يروان": 6867,
      "ليت": 6868,
      "ليو": 6869,
      "ورغم": 6870,
      "ومركز": 6871,
      "الحركات": 6872,
      "القاسم": 6873,
      "برئاسة": 6874,
      "الإضافة": 6875,
      "الإقليم": 6876,
      "البلدي": 6877,
      "ويعود": 6878,
      "وبناء": 6879,
      "الشرا": 6880,
      "الشهير": 6881,
      "حيوانات": 6882,
      "الروس": 6883,
      "الرئا": 6884,
      "َّن": 6885,
      "يدرس": 6886,
      "كندا": 6887,
      "الذا": 6888,
      "جمي": 6889,
      "الثل": 6890,
      "وأحد": 6891,
      "يتا": 6892,
      "يتهم": 6893,
      "قيلي": 6894,
      "أسعار": 6895,
      "تعاليم": 6896,
      "أكسيد": 6897,
      "ومنطقة": 6898,
      "عددهم": 6899,
      "المتعددة": 6900,
      "بارية": 6901,
      "للمرة": 6902,
      "السلط": 6903,
      "تجار": 6904,
      "تجارب": 6905,
      "طاعم": 6906,
      "بقاء": 6907,
      "النظريات": 6908,
      "المؤقتة": 6909,
      "1971": 6910,
      "بغي": 6911,
      "واستخدام": 6912,
      "وراي": 6913,
      "الرافدين": 6914,
      "1959": 6915,
      "إمام": 6916,
      "بيلية": 6917,
      "ازداد": 6918,
      "شعاع": 6919,
      "الأرز": 6920,
      "مركزية": 6921,
      "ميناموتو": 6922,
      "1923": 6923,
      "دعوة": 6924,
      "العدو": 6925,
      "شبكات": 6926,
      "رفضت": 6927,
      "مقرها": 6928,
      "إلَّا": 6929,
      "المحتوى": 6930,
      "شنطن": 6931,
      "تمثيل": 6932,
      "فاءة": 6933,
      "السريع": 6934,
      "النهرين": 6935,
      "أحيانًا": 6936,
      "سنوياً": 6937,
      "توقيع": 6938,
      "الفيزيائية": 6939,
      "الآشورية": 6940,
      "محدودة": 6941,
      "المقاطعات": 6942,
      "فهرنهايت": 6943,
      "والعلوم": 6944,
      "54": 6945,
      "74": 6946,
      "ev": 6947,
      "أوس": 6948,
      "أثير": 6949,
      "حفل": 6950,
      "حركات": 6951,
      "ذُ": 6952,
      "رْ": 6953,
      "رويج": 6954,
      "شور": 6955,
      "صاب": 6956,
      "صقلية": 6957,
      "ضية": 6958,
      "عط": 6959,
      "عون": 6960,
      "عوا": 6961,
      "فعلى": 6962,
      "قرن": 6963,
      "كرا": 6964,
      "كوري": 6965,
      "نمط": 6966,
      "هامة": 6967,
      "فيف": 6968,
      "فيفة": 6969,
      "المراقبة": 6970,
      "انضم": 6971,
      "منصور": 6972,
      "هاينة": 6973,
      "ونشر": 6974,
      "واخت": 6975,
      "واشت": 6976,
      "والثقافة": 6977,
      "والفنون": 6978,
      "ورغ": 6979,
      "بيزن": 6980,
      "السف": 6981,
      "السلاح": 6982,
      "القن": 6983,
      "القمة": 6984,
      "ويقوم": 6985,
      "وتكون": 6986,
      "وبلاد": 6987,
      "قدة": 6988,
      "وسطة": 6989,
      "النواب": 6990,
      "الفكرة": 6991,
      "الفرع": 6992,
      "الصخرية": 6993,
      "جمهور": 6994,
      "وعاد": 6995,
      "يمتد": 6996,
      "ئيين": 6997,
      "مثلا": 6998,
      "تعزيز": 6999,
      "وضوعات": 7000,
      "جنيد": 7001,
      "قررت": 7002,
      "حروف": 7003,
      "المسلم": 7004,
      "الاستخبارات": 7005,
      "بقوة": 7006,
      "بطية": 7007,
      "أحياء": 7008,
      "عرش": 7009,
      "علمية": 7010,
      "الأرضية": 7011,
      "يجري": 7012,
      "يتمكن": 7013,
      "واستمرت": 7014,
      "ُلُ": 7015,
      "مواجهة": 7016,
      "قسمت": 7017,
      "السنوي": 7018,
      "والصنا": 7019,
      "1922": 7020,
      "الفرنسيين": 7021,
      "العثمانيين": 7022,
      "المحافظة": 7023,
      "انتقال": 7024,
      "طائفة": 7025,
      "ُرُ": 7026,
      "المعمارية": 7027,
      "بدورها": 7028,
      "ميدان": 7029,
      "التطبيقات": 7030,
      "مائير": 7031,
      "الذهبية": 7032,
      "أمازيغية": 7033,
      "بنفسه": 7034,
      "المطبخ": 7035,
      "الإغريق": 7036,
      "الشبكة": 7037,
      "الأيوبية": 7038,
      "حوذت": 7039,
      "العضوية": 7040,
      "الذاكرة": 7041,
      "56": 7042,
      "96": 7043,
      "Ma": 7044,
      "ne": 7045,
      "ألا": 7046,
      "بالله": 7047,
      "بخار": 7048,
      "جسم": 7049,
      "حديد": 7050,
      "خاض": 7051,
      "روبرت": 7052,
      "شرا": 7053,
      "صع": 7054,
      "ضباط": 7055,
      "فهناك": 7056,
      "قاع": 7057,
      "كشاف": 7058,
      "لَ": 7059,
      "لبي": 7060,
      "لعدد": 7061,
      "مقام": 7062,
      "الام": 7063,
      "الممت": 7064,
      "المتاحف": 7065,
      "الأُمراء": 7066,
      "ولعل": 7067,
      "العقيدة": 7068,
      "راوية": 7069,
      "واشنطن": 7070,
      "والل": 7071,
      "والجزائر": 7072,
      "واليابان": 7073,
      "ومان": 7074,
      "الحدث": 7075,
      "بيه": 7076,
      "السط": 7077,
      "لمع": 7078,
      "القديس": 7079,
      "الإطلاق": 7080,
      "الجرم": 7081,
      "وتة": 7082,
      "وتوجد": 7083,
      "وبول": 7084,
      "الدخل": 7085,
      "الكربون": 7086,
      "وقاز": 7087,
      "تحقق": 7088,
      "هيمنة": 7089,
      "بنحو": 7090,
      "استضافت": 7091,
      "َّاد": 7092,
      "مرار": 7093,
      "مرتين": 7094,
      "جمهو": 7095,
      "هرية": 7096,
      "قيين": 7097,
      "هدد": 7098,
      "نظري": 7099,
      "أسفار": 7100,
      "مسار": 7101,
      "تدور": 7102,
      "تدعم": 7103,
      "ميلي": 7104,
      "ومنهم": 7105,
      "كاي": 7106,
      "الزا": 7107,
      "المسرحية": 7108,
      "ترى": 7109,
      "المتحركة": 7110,
      "عيان": 7111,
      "دولف": 7112,
      "الاستونية": 7113,
      "جيدة": 7114,
      "رسائل": 7115,
      "تحتل": 7116,
      "مؤقت": 7117,
      "مصن": 7118,
      "وثائق": 7119,
      "أغاني": 7120,
      "القرارات": 7121,
      "تسليم": 7122,
      "مواضيع": 7123,
      "التقويم": 7124,
      "بدايات": 7125,
      "السنوية": 7126,
      "يحصل": 7127,
      "شاهدة": 7128,
      "الأصوات": 7129,
      "الأغالبة": 7130,
      "الصناعي": 7131,
      "ممالك": 7132,
      "صدرت": 7133,
      "العقبة": 7134,
      "إمبراطور": 7135,
      "وأكبر": 7136,
      "أنشأت": 7137,
      "العمران": 7138,
      "القيمة": 7139,
      "بالفعل": 7140,
      "يابانية": 7141,
      "الكهربائية": 7142,
      "الفكرية": 7143,
      "الموسيقية": 7144,
      "بطليموس": 7145,
      "116": 7146,
      "51": 7147,
      "52": 7148,
      "Un": 7149,
      "بالد": 7150,
      "بفضل": 7151,
      "تام": 7152,
      "ثية": 7153,
      "جند": 7154,
      "جلب": 7155,
      "حقيقة": 7156,
      "حكمت": 7157,
      "زعم": 7158,
      "سه": 7159,
      "شراف": 7160,
      "ضعي": 7161,
      "عدي": 7162,
      "فول": 7163,
      "فسة": 7164,
      "فلسفة": 7165,
      "قوط": 7166,
      "كف": 7167,
      "لأكثر": 7168,
      "مبي": 7169,
      "مشاركة": 7170,
      "يقل": 7171,
      "يأتي": 7172,
      "الهاد": 7173,
      "الويب": 7174,
      "المرض": 7175,
      "المشاريع": 7176,
      "مند": 7177,
      "منظ": 7178,
      "ينص": 7179,
      "ارع": 7180,
      "الأه": 7181,
      "الأوضاع": 7182,
      "التقد": 7183,
      "العن": 7184,
      "لابن": 7185,
      "واحل": 7186,
      "ياف": 7187,
      "والان": 7188,
      "برمجة": 7189,
      "ويلي": 7190,
      "ويبدو": 7191,
      "النشيد": 7192,
      "الشوارع": 7193,
      "عملي": 7194,
      "عموم": 7195,
      "استولى": 7196,
      "استعادة": 7197,
      "َّات": 7198,
      "يدل": 7199,
      "يدعى": 7200,
      "بدعم": 7201,
      "حدر": 7202,
      "بعدم": 7203,
      "وكيو": 7204,
      "أسواق": 7205,
      "محلية": 7206,
      "يشار": 7207,
      "مسرحية": 7208,
      "لبناء": 7209,
      "المعتمد": 7210,
      "حرق": 7211,
      "دولته": 7212,
      "تجري": 7213,
      "واليمن": 7214,
      "جهات": 7215,
      "خطأ": 7216,
      "سعود": 7217,
      "المنازل": 7218,
      "البيضاء": 7219,
      "مؤشر": 7220,
      "أحدث": 7221,
      "يجمع": 7222,
      "المحور": 7223,
      "جعفر": 7224,
      "البحرين": 7225,
      "وراً": 7226,
      "1932": 7227,
      "ومعظم": 7228,
      "هبان": 7229,
      "مواد": 7230,
      "بالمئة": 7231,
      "الأنواع": 7232,
      "رائد": 7233,
      "جزءاً": 7234,
      "الأغاني": 7235,
      "العدل": 7236,
      "جعلت": 7237,
      "للكتاب": 7238,
      "شملت": 7239,
      "للعديد": 7240,
      "لفزيوني": 7241,
      "تشكلت": 7242,
      "إمبراطوري": 7243,
      "اعتقاد": 7244,
      "الخصوص": 7245,
      "المعارض": 7246,
      "لعبت": 7247,
      "كَّن": 7248,
      "أعطى": 7249,
      "واطئ": 7250,
      "الأسطول": 7251,
      "الزعيم": 7252,
      "الأهمية": 7253,
      "83": 7254,
      "94": 7255,
      "ran": 7256,
      "آلة": 7257,
      "أرد": 7258,
      "إلكتر": 7259,
      "إشارة": 7260,
      "ايت": 7261,
      "اجت": 7262,
      "بولاية": 7263,
      "تسيطر": 7264,
      "جذ": 7265,
      "جور": 7266,
      "حقل": 7267,
      "دوا": 7268,
      "ذان": 7269,
      "زف": 7270,
      "سعد": 7271,
      "قف": 7272,
      "قيل": 7273,
      "محيط": 7274,
      "ووصل": 7275,
      "وحاول": 7276,
      "فيهم": 7277,
      "المض": 7278,
      "المطاف": 7279,
      "اتصال": 7280,
      "ارض": 7281,
      "التفكير": 7282,
      "رابع": 7283,
      "ياط": 7284,
      "والدين": 7285,
      "أنصار": 7286,
      "السيد": 7287,
      "السهول": 7288,
      "عدّة": 7289,
      "كانا": 7290,
      "معالج": 7291,
      "ويكون": 7292,
      "الكاملة": 7293,
      "النموذج": 7294,
      "الشؤون": 7295,
      "عمرة": 7296,
      "هيكل": 7297,
      "اليمين": 7298,
      "الذهب": 7299,
      "وأطلق": 7300,
      "علامات": 7301,
      "يعادل": 7302,
      "رضت": 7303,
      "غيرات": 7304,
      "ثماني": 7305,
      "وضح": 7306,
      "المعالجة": 7307,
      "شكلات": 7308,
      "ذاهب": 7309,
      "بارزة": 7310,
      "للمي": 7311,
      "عضوية": 7312,
      "والأدب": 7313,
      "مساجد": 7314,
      "طاجي": 7315,
      "شيوع": 7316,
      "بقيت": 7317,
      "سعر": 7318,
      "بِمُ": 7319,
      "اعتراف": 7320,
      "المؤمن": 7321,
      "التجارب": 7322,
      "ألماني": 7323,
      "زامن": 7324,
      "ذكرى": 7325,
      "الثقافات": 7326,
      "الأفريقية": 7327,
      "والإسلام": 7328,
      "الصليبيون": 7329,
      "التقاليد": 7330,
      "تستعمل": 7331,
      "اختار": 7332,
      "أقيم": 7333,
      "إسحاق": 7334,
      "النمساوي": 7335,
      "بادرة": 7336,
      "البلدية": 7337,
      "اليمنية": 7338,
      "الحميد": 7339,
      "نصوص": 7340,
      "القبض": 7341,
      "الخطوط": 7342,
      "اشتهرت": 7343,
      "وتحديد": 7344,
      "الجمعة": 7345,
      "الأقاليم": 7346,
      "المغناطيسية": 7347,
      "كافحة": 7348,
      "رسميا": 7349,
      "المذكور": 7350,
      "امتدت": 7351,
      "الإصلاحات": 7352,
      "البنك": 7353,
      "العُماني": 7354,
      "الإرهاب": 7355,
      "ألك": 7356,
      "ؤولة": 7357,
      "ئل": 7358,
      "ايا": 7359,
      "بخ": 7360,
      "بلي": 7361,
      "بوس": 7362,
      "بته": 7363,
      "بفعل": 7364,
      "تكت": 7365,
      "تلق": 7366,
      "تلقى": 7367,
      "ثلة": 7368,
      "جوس": 7369,
      "جوجل": 7370,
      "خيل": 7371,
      "سلمون": 7372,
      "صم": 7373,
      "صباح": 7374,
      "عكا": 7375,
      "فالات": 7376,
      "قوى": 7377,
      "كاء": 7378,
      "ماني": 7379,
      "مريم": 7380,
      "هنة": 7381,
      "وعن": 7382,
      "الى": 7383,
      "فيين": 7384,
      "المفر": 7385,
      "المثل": 7386,
      "انضمت": 7387,
      "منتجات": 7388,
      "اتخاذ": 7389,
      "الأجزاء": 7390,
      "الأشكال": 7391,
      "التوزيع": 7392,
      "التمرد": 7393,
      "راوي": 7394,
      "راحة": 7395,
      "ونزي": 7396,
      "واسم": 7397,
      "ستي": 7398,
      "والغرب": 7399,
      "الحاد": 7400,
      "السير": 7401,
      "الجل": 7402,
      "الجهة": 7403,
      "البلا": 7404,
      "ويقول": 7405,
      "وتص": 7406,
      "وبشكل": 7407,
      "قدس": 7408,
      "ائز": 7409,
      "ائهم": 7410,
      "1925": 7411,
      "عامين": 7412,
      "وقيل": 7413,
      "عمق": 7414,
      "بلغة": 7415,
      "بنيت": 7416,
      "استحوذت": 7417,
      "الصيني": 7418,
      "خلاله": 7419,
      "حته": 7420,
      "حتّى": 7421,
      "بدلا": 7422,
      "إنش": 7423,
      "تقنيات": 7424,
      "فتها": 7425,
      "نظراً": 7426,
      "وطلب": 7427,
      "وطرد": 7428,
      "حيثُ": 7429,
      "محرك": 7430,
      "مسألة": 7431,
      "المعز": 7432,
      "عبَّاد": 7433,
      "شاة": 7434,
      "شافات": 7435,
      "بتر": 7436,
      "أصوات": 7437,
      "والأد": 7438,
      "عاف": 7439,
      "وارق": 7440,
      "أدخل": 7441,
      "تأليف": 7442,
      "فإنها": 7443,
      "الانضمام": 7444,
      "تصدر": 7445,
      "فلما": 7446,
      "قائق": 7447,
      "أثبت": 7448,
      "ضرار": 7449,
      "ضرورة": 7450,
      "الأفراد": 7451,
      "الصليبيُّون": 7452,
      "شعراء": 7453,
      "رخيص": 7454,
      "القدماء": 7455,
      "ثلاثين": 7456,
      "المقابل": 7457,
      "هنري": 7458,
      "الحكومي": 7459,
      "فورنيا": 7460,
      "العقود": 7461,
      "اللازمة": 7462,
      "الدرجة": 7463,
      "سريع": 7464,
      "خريجو": 7465,
      "استقلالها": 7466,
      "رسمياً": 7467,
      "المعدنية": 7468,
      "المستخدمين": 7469,
      "القانوني": 7470,
      "غضب": 7471,
      "جوزيف": 7472,
      "الهيدروجين": 7473,
      "BN": 7474,
      "og": 7475,
      "to": 7476,
      "»؛": 7477,
      "أية": 7478,
      "بالص": 7479,
      "بوضع": 7480,
      "بمساعدة": 7481,
      "تهر": 7482,
      "تسع": 7483,
      "تأسس": 7484,
      "تجاوز": 7485,
      "حقي": 7486,
      "دَ": 7487,
      "ران": 7488,
      "شى": 7489,
      "طُ": 7490,
      "طيل": 7491,
      "عنا": 7492,
      "غالي": 7493,
      "غتيال": 7494,
      "ــ": 7495,
      "فإذا": 7496,
      "فندق": 7497,
      "قالت": 7498,
      "قنوات": 7499,
      "لجماعة": 7500,
      "نْ": 7501,
      "نتن": 7502,
      "هوت": 7503,
      "هزم": 7504,
      "وكتب": 7505,
      "وإنشاء": 7506,
      "يوفر": 7507,
      "الوزارة": 7508,
      "الممثل": 7509,
      "المزار": 7510,
      "انها": 7511,
      "منى": 7512,
      "منخفضة": 7513,
      "ينبغي": 7514,
      "ارته": 7515,
      "الأقليات": 7516,
      "التوق": 7517,
      "التربية": 7518,
      "التوالي": 7519,
      "ماكس": 7520,
      "ونيين": 7521,
      "لاس": 7522,
      "يرغ": 7523,
      "ستها": 7524,
      "والشرق": 7525,
      "والسياسية": 7526,
      "ورقة": 7527,
      "ومح": 7528,
      "الحص": 7529,
      "الحرس": 7530,
      "بيين": 7531,
      "السوم": 7532,
      "القريب": 7533,
      "القنوات": 7534,
      "القيروان": 7535,
      "ابية": 7536,
      "الإيمان": 7537,
      "الجبرية": 7538,
      "وتمت": 7539,
      "وتوك": 7540,
      "للفرد": 7541,
      "وسوق": 7542,
      "وقي": 7543,
      "وجمع": 7544,
      "ساقط": 7545,
      "الرشيد": 7546,
      "الصهيوني": 7547,
      "وفتح": 7548,
      "وفلسطين": 7549,
      "كنة": 7550,
      "الثابت": 7551,
      "اللون": 7552,
      "وأف": 7553,
      "يتان": 7554,
      "يتجاوز": 7555,
      "كتبت": 7556,
      "إنترنت": 7557,
      "حاض": 7558,
      "حايا": 7559,
      "حادي": 7560,
      "تقليد": 7561,
      "فاس": 7562,
      "وكوريا": 7563,
      "لتطوير": 7564,
      "بحق": 7565,
      "يشبه": 7566,
      "أمراء": 7567,
      "وضى": 7568,
      "قرأ": 7569,
      "كاة": 7570,
      "الزهور": 7571,
      "ترات": 7572,
      "ترجع": 7573,
      "لقاب": 7574,
      "أولئك": 7575,
      "مستقبل": 7576,
      "تتنا": 7577,
      "عاة": 7578,
      "مُحم": 7579,
      "أدلة": 7580,
      "وجوده": 7581,
      "وثقا": 7582,
      "المرتفعات": 7583,
      "سرح": 7584,
      "وشهدت": 7585,
      "غرار": 7586,
      "وجهات": 7587,
      "الإسلاميَّة": 7588,
      "التقنية": 7589,
      "التحليل": 7590,
      "عادل": 7591,
      "جزءا": 7592,
      "بادل": 7593,
      "موقعها": 7594,
      "الأغنية": 7595,
      "ord": 7596,
      "أُخرى": 7597,
      "وّر": 7598,
      "التركيز": 7599,
      "زعماء": 7600,
      "رموز": 7601,
      "الجامعية": 7602,
      "ell": 7603,
      "ثيوبيا": 7604,
      "اجتماعي": 7605,
      "كثيرًا": 7606,
      "الرسوم": 7607,
      "السبعة": 7608,
      "مكعب": 7609,
      "الأبحاث": 7610,
      "الخصائص": 7611,
      "الأيوبيين": 7612,
      "المكتوبة": 7613,
      "المفتوحة": 7614,
      "مغناطيسي": 7615,
      "معاداة": 7616,
      "إثبات": 7617,
      "سنويًا": 7618,
      "الفُرات": 7619,
      "ومغناطي": 7620,
      "الأوراق": 7621,
      "تخطيط": 7622,
      "53": 7623,
      "ie": 7624,
      "ir": 7625,
      "ts": 7626,
      "»).": 7627,
      "ألعاب": 7628,
      "بالعديد": 7629,
      "بالذكر": 7630,
      "جحة": 7631,
      "جابة": 7632,
      "دري": 7633,
      "ذن": 7634,
      "زياد": 7635,
      "صرة": 7636,
      "صغر": 7637,
      "ضور": 7638,
      "ظة": 7639,
      "ظفار": 7640,
      "غنية": 7641,
      "قم": 7642,
      "كِ": 7643,
      "لنا": 7644,
      "لتح": 7645,
      "لفيروز": 7646,
      "لإنتاج": 7647,
      "مسب": 7648,
      "نسي": 7649,
      "نماذج": 7650,
      "وشر": 7651,
      "يساعد": 7652,
      "الير": 7653,
      "اللاحقة": 7654,
      "انك": 7655,
      "الأُ": 7656,
      "ولية": 7657,
      "ولين": 7658,
      "هاي": 7659,
      "التون": 7660,
      "التواصل": 7661,
      "العائلات": 7662,
      "ياكل": 7663,
      "ديار": 7664,
      "لمجلس": 7665,
      "القريبة": 7666,
      "الإرشاد": 7667,
      "سيلي": 7668,
      "وتبلغ": 7669,
      "وبحسب": 7670,
      "للس": 7671,
      "للدفاع": 7672,
      "ائط": 7673,
      "الدنيا": 7674,
      "الربيع": 7675,
      "استقرار": 7676,
      "الصفر": 7677,
      "الصعيد": 7678,
      "سبت": 7679,
      "كنت": 7680,
      "الخلاف": 7681,
      "الخيرية": 7682,
      "حدائق": 7683,
      "وألم": 7684,
      "وزي": 7685,
      "أيار": 7686,
      "إنجلترا": 7687,
      "متا": 7688,
      "تقام": 7689,
      "الطابع": 7690,
      "والمغرب": 7691,
      "أساليب": 7692,
      "قطعة": 7693,
      "تعر": 7694,
      "ملات": 7695,
      "فرصة": 7696,
      "الأمراض": 7697,
      "لبث": 7698,
      "جنوبي": 7699,
      "تدهور": 7700,
      "تدريس": 7701,
      "والتح": 7702,
      "كافية": 7703,
      "براهي": 7704,
      "العاملين": 7705,
      "يُعد": 7706,
      "السياحي": 7707,
      "المستشار": 7708,
      "البيئية": 7709,
      "سيناء": 7710,
      "حوله": 7711,
      "الفيلسوف": 7712,
      "سرعان": 7713,
      "وائد": 7714,
      "طارق": 7715,
      "أوروبية": 7716,
      "دراسته": 7717,
      "زمات": 7718,
      "نفذ": 7719,
      "شعبي": 7720,
      "250": 7721,
      "رأسه": 7722,
      "الصحف": 7723,
      "صحراء": 7724,
      "سيطرت": 7725,
      "1905": 7726,
      "اشية": 7727,
      "قضائية": 7728,
      "الحكومات": 7729,
      "بورغ": 7730,
      "خلفاء": 7731,
      "ميزات": 7732,
      "تحولت": 7733,
      "الأفغاني": 7734,
      "يجعلها": 7735,
      "الكاثوليك": 7736,
      "حكومية": 7737,
      "الاشتراكية": 7738,
      "بضعة": 7739,
      "تدريجي": 7740,
      "القادمة": 7741,
      "والمناطق": 7742,
      "كاليفورنيا": 7743,
      "إشبيلية": 7744,
      "التعليمية": 7745,
      "الفلسفية": 7746,
      "الإيرانية": 7747,
      "قِبل": 7748,
      "تايمز": 7749,
      "نتنياهو": 7750,
      "),": 7751,
      "Com": 7752,
      "ian": 7753,
      "إعداد": 7754,
      "بوت": 7755,
      "بياء": 7756,
      "بمنطقة": 7757,
      "بجانب": 7758,
      "بقيمة": 7759,
      "توسع": 7760,
      "تطبيقات": 7761,
      "جيع": 7762,
      "حج": 7763,
      "خضع": 7764,
      "ذبة": 7765,
      "سارة": 7766,
      "شهور": 7767,
      "شباط": 7768,
      "صارات": 7769,
      "طاعت": 7770,
      "غياب": 7771,
      "فأرسل": 7772,
      "كورة": 7773,
      "لإنشاء": 7774,
      "موك": 7775,
      "مبدأ": 7776,
      "يعلن": 7777,
      "ّون": 7778,
      "الميز": 7779,
      "ولبنان": 7780,
      "راث": 7781,
      "راسل": 7782,
      "رافق": 7783,
      "ستين": 7784,
      "ومد": 7785,
      "الحقل": 7786,
      "الحالات": 7787,
      "الحجاز": 7788,
      "السلا": 7789,
      "القليل": 7790,
      "وتعني": 7791,
      "وتونس": 7792,
      "وتقوم": 7793,
      "للج": 7794,
      "للشركة": 7795,
      "1912": 7796,
      "النور": 7797,
      "الفريق": 7798,
      "الفضل": 7799,
      "عنصر": 7800,
      "الشيعي": 7801,
      "الشائعة": 7802,
      "َّع": 7803,
      "أوكر": 7804,
      "يدين": 7805,
      "الذرية": 7806,
      "وأعلن": 7807,
      "وعل": 7808,
      "وزيادة": 7809,
      "اريين": 7810,
      "إنهاء": 7811,
      "متعدد": 7812,
      "المدية": 7813,
      "الاث": 7814,
      "كيو": 7815,
      "أسهم": 7816,
      "تعيش": 7817,
      "درج": 7818,
      "المنطق": 7819,
      "حرص": 7820,
      "ميلاد": 7821,
      "الآلهة": 7822,
      "للمستخدم": 7823,
      "تنص": 7824,
      "البربر": 7825,
      "تتوفر": 7826,
      "أبنائ": 7827,
      "السيادة": 7828,
      "عشرين": 7829,
      "سعودي": 7830,
      "اهتم": 7831,
      "المرشد": 7832,
      "واقف": 7833,
      "يجوز": 7834,
      "ويرجع": 7835,
      "مماثلة": 7836,
      "العملات": 7837,
      "طبيعي": 7838,
      "وضعها": 7839,
      "عودته": 7840,
      "احتل": 7841,
      "رادات": 7842,
      "الحرم": 7843,
      "دوران": 7844,
      "الأفريقي": 7845,
      "اميكا": 7846,
      "الفلكي": 7847,
      "والصين": 7848,
      "عقدت": 7849,
      "وّل": 7850,
      "مكانة": 7851,
      "ايير": 7852,
      "الترفيه": 7853,
      "المحليين": 7854,
      "السويد": 7855,
      "تمكنت": 7856,
      "مقدمة": 7857,
      "خريطة": 7858,
      "ملوكة": 7859,
      "الكمبيوتر": 7860,
      "البابا": 7861,
      "بسيطة": 7862,
      "وأيضًا": 7863,
      "ائتلاف": 7864,
      "صياغة": 7865,
      "قيليقية": 7866,
      ".،": 7867,
      "113": 7868,
      "ast": 7869,
      "تض": 7870,
      "جف": 7871,
      "دست": 7872,
      "رِ": 7873,
      "سجد": 7874,
      "شجرة": 7875,
      "صعود": 7876,
      "غور": 7877,
      "غربي": 7878,
      "فجار": 7879,
      "قدي": 7880,
      "قريبة": 7881,
      "مظ": 7882,
      "مدي": 7883,
      "مطالب": 7884,
      "هون": 7885,
      "يحد": 7886,
      "يجد": 7887,
      "المار": 7888,
      "المارك": 7889,
      "المائة": 7890,
      "انو": 7891,
      "ينتج": 7892,
      "الأوس": 7893,
      "ولما": 7894,
      "مادي": 7895,
      "واه": 7896,
      "واهري": 7897,
      "والجزر": 7898,
      "الحار": 7899,
      "بيوت": 7900,
      "بيتر": 7901,
      "السُ": 7902,
      "برغ": 7903,
      "ناث": 7904,
      "سيت": 7905,
      "الجائزة": 7906,
      "ويلة": 7907,
      "وتسمى": 7908,
      "للماء": 7909,
      "الدبلوماسية": 7910,
      "ودراسة": 7911,
      "النظم": 7912,
      "النحو": 7913,
      "الفعلي": 7914,
      "الشديد": 7915,
      "عمة": 7916,
      "وجامعة": 7917,
      "0000": 7918,
      "سلطات": 7919,
      "وفا": 7920,
      "وفى": 7921,
      "مرسوم": 7922,
      "الخلافات": 7923,
      "بدراسة": 7924,
      "حدا": 7925,
      "وأور": 7926,
      "يتولى": 7927,
      "كتبها": 7928,
      "قاضي": 7929,
      "بعيدة": 7930,
      "نيوز": 7931,
      "حافظة": 7932,
      "الطول": 7933,
      "وكالات": 7934,
      "الغز": 7935,
      "أسوار": 7936,
      "تعلم": 7937,
      "تعاني": 7938,
      "مجي": 7939,
      "تشهد": 7940,
      "الاتفاقية": 7941,
      "قرى": 7942,
      "شاطات": 7943,
      "ميثاق": 7944,
      "والأس": 7945,
      "مقعد": 7946,
      "طاط": 7947,
      "المستوطنات": 7948,
      "الريف": 7949,
      "المُؤ": 7950,
      "بيرغ": 7951,
      "وائم": 7952,
      "قبول": 7953,
      "أركان": 7954,
      "الانتشار": 7955,
      "مهام": 7956,
      "1931": 7957,
      "حقبة": 7958,
      "تلاني": 7959,
      "تُعد": 7960,
      "لبناني": 7961,
      "والحكومة": 7962,
      "الأدوية": 7963,
      "دائما": 7964,
      "1926": 7965,
      "هندسة": 7966,
      "الأصغر": 7967,
      "لاستخدام": 7968,
      "رئيساً": 7969,
      "للإسلام": 7970,
      "صالحة": 7971,
      "روايات": 7972,
      "نزاع": 7973,
      "التركي": 7974,
      "الفارسي": 7975,
      "ممَّا": 7976,
      "البيزنطية": 7977,
      "مضيق": 7978,
      "الثامنة": 7979,
      "أهالي": 7980,
      "معاوية": 7981,
      "الحُكم": 7982,
      "مفتوحة": 7983,
      "العُمانية": 7984,
      "الإسبانية": 7985,
      "الحقيقية": 7986,
      "البطولة": 7987,
      "عائلته": 7988,
      "كابول": 7989,
      "منزله": 7990,
      "البولندية": 7991,
      "الابتدائية": 7992,
      "ISBN": 7993,
      "غليزان": 7994,
      "قندهار": 7995,
      "الجهاز": 7996,
      "البونساي": 7997,
      "الطبقات": 7998,
      "للميلاد": 7999,
      "مُحمَّد": 8000,
      "(«": 8001,
      "81": 8002,
      "97": 8003,
      "com": 8004,
      "ik": 8005,
      "lam": 8006,
      "ow": 8007,
      "أست": 8008,
      "بؤ": 8009,
      "تقت": 8010,
      "تركز": 8011,
      "تجميع": 8012,
      "تطل": 8013,
      "ثنائية": 8014,
      "جرائم": 8015,
      "حدة": 8016,
      "دقيقة": 8017,
      "سانت": 8018,
      "شوارع": 8019,
      "ظى": 8020,
      "عالي": 8021,
      "عواصم": 8022,
      "فلس": 8023,
      "فجر": 8024,
      "فادة": 8025,
      "كير": 8026,
      "كوس": 8027,
      "لقي": 8028,
      "لإسرائيل": 8029,
      "مشر": 8030,
      "موضع": 8031,
      "نر": 8032,
      "نقص": 8033,
      "هجرة": 8034,
      "يختلف": 8035,
      "الوج": 8036,
      "الوحدات": 8037,
      "انطلقت": 8038,
      "ماة": 8039,
      "ريان": 8040,
      "واكت": 8041,
      "وائي": 8042,
      "واصف": 8043,
      "واعتبر": 8044,
      "والفي": 8045,
      "والجنوب": 8046,
      "ورث": 8047,
      "ومه": 8048,
      "ومين": 8049,
      "الإبراهي": 8050,
      "سيارة": 8051,
      "البري": 8052,
      "البير": 8053,
      "ويش": 8054,
      "وبق": 8055,
      "وبداية": 8056,
      "للنظام": 8057,
      "الدعاية": 8058,
      "النماذج": 8059,
      "تمتع": 8060,
      "الشا": 8061,
      "الشيوخ": 8062,
      "التيار": 8063,
      "تحاد": 8064,
      "كلف": 8065,
      "خلع": 8066,
      "أوراق": 8067,
      "اللقب": 8068,
      "بعدة": 8069,
      "كتبه": 8070,
      "يعاب": 8071,
      "أييد": 8072,
      "قاح": 8073,
      "كرد": 8074,
      "حاج": 8075,
      "هدم": 8076,
      "الطراز": 8077,
      "لتلك": 8078,
      "والمت": 8079,
      "نظرا": 8080,
      "الغناء": 8081,
      "بحار": 8082,
      "واتخذ": 8083,
      "أمَّا": 8084,
      "الهامة": 8085,
      "جنوبية": 8086,
      "تاحة": 8087,
      "خصيص": 8088,
      "يوشي": 8089,
      "انتو": 8090,
      "داول": 8091,
      "لقات": 8092,
      "سياسات": 8093,
      "عملها": 8094,
      "ملكية": 8095,
      "تتطلب": 8096,
      "تتجاوز": 8097,
      "يُعتقد": 8098,
      "لدراسة": 8099,
      "كسر": 8100,
      "المغربية": 8101,
      "لكنهم": 8102,
      "المُسلمون": 8103,
      "عروض": 8104,
      "المحطات": 8105,
      "وغالب": 8106,
      "السكاني": 8107,
      "محاولات": 8108,
      "موسم": 8109,
      "بأنهم": 8110,
      "التشكيل": 8111,
      "الكتابات": 8112,
      "الأدوات": 8113,
      "مركزًا": 8114,
      "المسافة": 8115,
      "وديو": 8116,
      "تشارد": 8117,
      "الأصليين": 8118,
      "أشهرها": 8119,
      "اعتبارا": 8120,
      "للكويت": 8121,
      "وإنما": 8122,
      "العراقيين": 8123,
      "المحتلة": 8124,
      "الجيولوجية": 8125,
      "الوثائق": 8126,
      "الورق": 8127,
      "أنشطة": 8128,
      "باعتباره": 8129,
      "السَلْجُوقيَّة": 8130,
      "الملوك": 8131,
      "القائم": 8132,
      "الفيزيائي": 8133,
      "بشرية": 8134,
      "ack": 8135,
      "ازدياد": 8136,
      "الانقلاب": 8137,
      "إغلاق": 8138,
      "الثمانينات": 8139,
      "انشمن": 8140,
      "موسيقي": 8141,
      "8م": 8142,
      "Le": 8143,
      "آراء": 8144,
      "أسم": 8145,
      "أكل": 8146,
      "أداة": 8147,
      "بْ": 8148,
      "بوط": 8149,
      "ببعض": 8150,
      "بقايا": 8151,
      "تري": 8152,
      "تسب": 8153,
      "جذب": 8154,
      "حط": 8155,
      "حرك": 8156,
      "روس": 8157,
      "سجن": 8158,
      "صنف": 8159,
      "طه": 8160,
      "علاج": 8161,
      "لعدم": 8162,
      "موق": 8163,
      "مالية": 8164,
      "هجر": 8165,
      "والعالم": 8166,
      "يث": 8167,
      "يسم": 8168,
      "يصف": 8169,
      "الوظائف": 8170,
      "فيلمون": 8171,
      "الموال": 8172,
      "المكر": 8173,
      "المخطط": 8174,
      "الملابس": 8175,
      "الأوز": 8176,
      "هائلة": 8177,
      "التوا": 8178,
      "العديدة": 8179,
      "العلاج": 8180,
      "راس": 8181,
      "ونز": 8182,
      "يرك": 8183,
      "والاقتصادية": 8184,
      "ورها": 8185,
      "ورفض": 8186,
      "الحوسبة": 8187,
      "بيون": 8188,
      "القوقاز": 8189,
      "الجُ": 8190,
      "الجيل": 8191,
      "ويؤ": 8192,
      "ويكب": 8193,
      "ويذكر": 8194,
      "ويستخدم": 8195,
      "وتنظيم": 8196,
      "وبقي": 8197,
      "وبهذا": 8198,
      "وبالرغم": 8199,
      "الدقيقة": 8200,
      "ودعم": 8201,
      "الكار": 8202,
      "الفة": 8203,
      "الفئة": 8204,
      "بلية": 8205,
      "الرموز": 8206,
      "الصوت": 8207,
      "سبعين": 8208,
      "خلفية": 8209,
      "وعادة": 8210,
      "سنتين": 8211,
      "اريات": 8212,
      "لتش": 8213,
      "لتن": 8214,
      "والموسيقى": 8215,
      "الاضط": 8216,
      "كيوتو": 8217,
      "بحة": 8218,
      "واتي": 8219,
      "مسر": 8220,
      "والتاريخ": 8221,
      "طيب": 8222,
      "ميين": 8223,
      "ردد": 8224,
      "بتون": 8225,
      "المتخصصة": 8226,
      "جيجل": 8227,
      "مقالات": 8228,
      "شيوعية": 8229,
      "وارث": 8230,
      "لِمُ": 8231,
      "تاريخه": 8232,
      "أشجار": 8233,
      "حولها": 8234,
      "التجربة": 8235,
      "واستطاع": 8236,
      "تبادل": 8237,
      "القرص": 8238,
      "الهندوس": 8239,
      "ابلية": 8240,
      "والحض": 8241,
      "أسابيع": 8242,
      "حماد": 8243,
      "الأنباء": 8244,
      "التنوع": 8245,
      "اختراع": 8246,
      "لعطارد": 8247,
      "الهيكل": 8248,
      "دعاء": 8249,
      "قادر": 8250,
      "اعتبارًا": 8251,
      "وحده": 8252,
      "تتمثل": 8253,
      "شمالية": 8254,
      "الحيوية": 8255,
      "أقلية": 8256,
      "معدلات": 8257,
      "فريقي": 8258,
      "الأمنية": 8259,
      "بصفة": 8260,
      "بريطانية": 8261,
      "التعاليم": 8262,
      "الأعظم": 8263,
      "ساهمت": 8264,
      "الاعتماد": 8265,
      "الورتلاني": 8266,
      "أنشئت": 8267,
      "الأطلس": 8268,
      "الفردية": 8269,
      "أحيانا": 8270,
      "الإسباني": 8271,
      "الجميع": 8272,
      "يتحدثون": 8273,
      "بوابة": 8274,
      "....-": 8275,
      "الباحثين": 8276,
      "الممتدة": 8277,
      "110": 8278,
      "3هـ": 8279,
      "87": 8280,
      "est": 8281,
      "ich": 8282,
      "yle": 8283,
      "أعض": 8284,
      "إيل": 8285,
      "بذ": 8286,
      "تث": 8287,
      "تما": 8288,
      "تيل": 8289,
      "تخدم": 8290,
      "تمنح": 8291,
      "تأمين": 8292,
      "تربط": 8293,
      "توجيه": 8294,
      "جود": 8295,
      "جيران": 8296,
      "جذور": 8297,
      "خبيل": 8298,
      "شان": 8299,
      "شقيق": 8300,
      "ضاب": 8301,
      "قوت": 8302,
      "قصد": 8303,
      "قريب": 8304,
      "كشفت": 8305,
      "لطالبان": 8306,
      "لإدارة": 8307,
      "لتحديد": 8308,
      "مهد": 8309,
      "مشق": 8310,
      "مطب": 8311,
      "مبكر": 8312,
      "محدد": 8313,
      "نِ": 8314,
      "نار": 8315,
      "هكت": 8316,
      "وول": 8317,
      "وئي": 8318,
      "وشارك": 8319,
      "يهدف": 8320,
      "الْ": 8321,
      "الالتزام": 8322,
      "المصار": 8323,
      "الموقف": 8324,
      "المادية": 8325,
      "المبادئ": 8326,
      "امرة": 8327,
      "الأث": 8328,
      "التلفزيونية": 8329,
      "العص": 8330,
      "لازل": 8331,
      "ستكون": 8332,
      "ليح": 8333,
      "والفن": 8334,
      "والدولة": 8335,
      "والفيزياء": 8336,
      "ديه": 8337,
      "الحكام": 8338,
      "الحكمة": 8339,
      "السجن": 8340,
      "القرية": 8341,
      "القواعد": 8342,
      "ابنة": 8343,
      "ابهة": 8344,
      "ادرة": 8345,
      "الإث": 8346,
      "الإل": 8347,
      "سيون": 8348,
      "سيتم": 8349,
      "وبحلول": 8350,
      "للتق": 8351,
      "للفن": 8352,
      "للسكان": 8353,
      "للحرب": 8354,
      "شرعية": 8355,
      "1900": 8356,
      "الدورة": 8357,
      "الدخول": 8358,
      "الكوري": 8359,
      "الفجر": 8360,
      "الفوضى": 8361,
      "عنف": 8362,
      "عنهم": 8363,
      "بلوتو": 8364,
      "حيم": 8365,
      "استعداد": 8366,
      "مديرية": 8367,
      "يلية": 8368,
      "الخلا": 8369,
      "كتات": 8370,
      "قاض": 8371,
      "وفين": 8372,
      "بعثة": 8373,
      "المدر": 8374,
      "الطقوس": 8375,
      "ثروة": 8376,
      "وطنة": 8377,
      "وحر": 8378,
      "وحسب": 8379,
      "الغر": 8380,
      "أسطول": 8381,
      "تعدي": 8382,
      "فرج": 8383,
      "فرعية": 8384,
      "ولاي": 8385,
      "الأموي": 8386,
      "عبادة": 8387,
      "حرر": 8388,
      "سراح": 8389,
      "الزمان": 8390,
      "فسر": 8391,
      "انتصر": 8392,
      "جرم": 8393,
      "سيادة": 8394,
      "ذاكرة": 8395,
      "بارز": 8396,
      "تنتمي": 8397,
      "يقات": 8398,
      "يقيم": 8399,
      "والأمن": 8400,
      "شارل": 8401,
      "وهة": 8402,
      "اللهجات": 8403,
      "السياح": 8404,
      "صفحات": 8405,
      "ليني": 8406,
      "الناش": 8407,
      "النادي": 8408,
      "وإيطاليا": 8409,
      "مصالح": 8410,
      "أحكام": 8411,
      "ريطانيا": 8412,
      "الفيني": 8413,
      "رئيسًا": 8414,
      "حينما": 8415,
      "رجون": 8416,
      "الأسد": 8417,
      "المصريين": 8418,
      "حصة": 8419,
      "الأحمد": 8420,
      "الحروف": 8421,
      "شأة": 8422,
      "موافقة": 8423,
      "التحديد": 8424,
      "تقدير": 8425,
      "الساحة": 8426,
      "قاطع": 8427,
      "العثمانيون": 8428,
      "قادرة": 8429,
      "عرضت": 8430,
      "الشعراء": 8431,
      "بالقاهرة": 8432,
      "المحافظات": 8433,
      "اكورا": 8434,
      "اللبنانيين": 8435,
      "العباس": 8436,
      "والكيم": 8437,
      "النفوذ": 8438,
      "واجب": 8439,
      "غالبا": 8440,
      "ريموند": 8441,
      "حاولت": 8442,
      "اشترا": 8443,
      "افتتحت": 8444,
      "تناول": 8445,
      "والفلسفة": 8446,
      "المشتري": 8447,
      "تمييز": 8448,
      "القطرية": 8449,
      "المغولية": 8450,
      "التدريب": 8451,
      "دلالة": 8452,
      "مصطلحات": 8453,
      "بدوره": 8454,
      "عقود": 8455,
      "ؤسسة": 8456,
      "العبَّا": 8457,
      "الفاطميين": 8458,
      "الأسباب": 8459,
      "ويعدّ": 8460,
      "النزاعات": 8461,
      "فريدريك": 8462,
      "المادي": 8463,
      "الإمبراطوريَّة": 8464,
      "خراسان": 8465,
      "فوضية": 8466,
      "متلكات": 8467,
      "المظلمة": 8468,
      "نابليون": 8469,
      "الثروة": 8470,
      "3000": 8471,
      "أجنبي": 8472,
      "أجريت": 8473,
      "إمارات": 8474,
      "بنا": 8475,
      "بوش": 8476,
      "بالجزائر": 8477,
      "بتقديم": 8478,
      "تال": 8479,
      "تعم": 8480,
      "تالين": 8481,
      "توسيع": 8482,
      "جوا": 8483,
      "خة": 8484,
      "خز": 8485,
      "خبر": 8486,
      "رث": 8487,
      "سهول": 8488,
      "شهاد": 8489,
      "ضائع": 8490,
      "عف": 8491,
      "عربة": 8492,
      "عطاء": 8493,
      "غزا": 8494,
      "فز": 8495,
      "فجير": 8496,
      "قياس": 8497,
      "لُ": 8498,
      "لألمانيا": 8499,
      "لأغراض": 8500,
      "مختل": 8501,
      "ممكن": 8502,
      "مكاتب": 8503,
      "موجة": 8504,
      "نهي": 8505,
      "يوح": 8506,
      "يريد": 8507,
      "ّس": 8508,
      "الوادي": 8509,
      "الارتفاع": 8510,
      "فيون": 8511,
      "فينا": 8512,
      "المرة": 8513,
      "المئة": 8514,
      "المطار": 8515,
      "المفاوضات": 8516,
      "انوس": 8517,
      "منفصل": 8518,
      "اتجه": 8519,
      "الأوب": 8520,
      "الأطباء": 8521,
      "ولاء": 8522,
      "التحول": 8523,
      "التكنولوجيا": 8524,
      "العادية": 8525,
      "العوامل": 8526,
      "راغ": 8527,
      "والشيخ": 8528,
      "والثقافية": 8529,
      "ومر": 8530,
      "الحب": 8531,
      "الحيو": 8532,
      "الحرير": 8533,
      "السبت": 8534,
      "السواحل": 8535,
      "لمح": 8536,
      "القطب": 8537,
      "نادر": 8538,
      "الإجراءات": 8539,
      "الجوائز": 8540,
      "الجوفية": 8541,
      "وتاريخ": 8542,
      "وتمكن": 8543,
      "وبوت": 8544,
      "للجماعة": 8545,
      "ائقة": 8546,
      "الدار": 8547,
      "الكلي": 8548,
      "الكلام": 8549,
      "الكوفة": 8550,
      "الكاتب": 8551,
      "النشر": 8552,
      "وقرا": 8553,
      "تحدد": 8554,
      "عمارة": 8555,
      "وجم": 8556,
      "وجها": 8557,
      "ساع": 8558,
      "استقبال": 8559,
      "الصلة": 8560,
      "الصهاينة": 8561,
      "هوري": 8562,
      "الذكية": 8563,
      "وأمر": 8564,
      "وفيها": 8565,
      "حاكمة": 8566,
      "المدى": 8567,
      "الطعام": 8568,
      "الطلبة": 8569,
      "والمسا": 8570,
      "وطني": 8571,
      "يشة": 8572,
      "الأمراء": 8573,
      "جافا": 8574,
      "وضوح": 8575,
      "تشبه": 8576,
      "المنتج": 8577,
      "والتر": 8578,
      "ومنظمة": 8579,
      "بتص": 8580,
      "بتن": 8581,
      "َّةً": 8582,
      "انتقد": 8583,
      "ذافي": 8584,
      "والأردن": 8585,
      "البرونزي": 8586,
      "تتعلق": 8587,
      "مقياس": 8588,
      "صفقة": 8589,
      "بطت": 8590,
      "خطاء": 8591,
      "لحماية": 8592,
      "وذية": 8593,
      "مناق": 8594,
      "الأولي": 8595,
      "فضائية": 8596,
      "الشيء": 8597,
      "الاند": 8598,
      "فعال": 8599,
      "وظفين": 8600,
      "رقاء": 8601,
      "كاماكورا": 8602,
      "ليبيين": 8603,
      "أعيد": 8604,
      "استخدامها": 8605,
      "القرى": 8606,
      "ُّع": 8607,
      "ُّه": 8608,
      "فاعلات": 8609,
      "البريطانيين": 8610,
      "تسعة": 8611,
      "بإرسال": 8612,
      "قسمين": 8613,
      "لنك": 8614,
      "لإعادة": 8615,
      "يهتم": 8616,
      "طلبات": 8617,
      "السياسيين": 8618,
      "الأميركية": 8619,
      "روابط": 8620,
      "صناعات": 8621,
      "الهاش": 8622,
      "شاملة": 8623,
      "الليكود": 8624,
      "العقيد": 8625,
      "خصوصاً": 8626,
      "أراضيها": 8627,
      "المهنية": 8628,
      "الموسوعة": 8629,
      "تكنولوجيا": 8630,
      "السوداء": 8631,
      "السريانية": 8632,
      "الصحيح": 8633,
      "سواحل": 8634,
      "التسعينات": 8635,
      "ترتبط": 8636,
      "الخضراء": 8637,
      "اضطهاد": 8638,
      "البواقي": 8639,
      "بعلبك": 8640,
      "أكاديمية": 8641,
      "جمهوريات": 8642,
      "وألمانيا": 8643,
      "86": 8644,
      ":«": 8645,
      "ag": 8646,
      "io": 8647,
      "lin": 8648,
      "أظهر": 8649,
      "أستاذ": 8650,
      "إبان": 8651,
      "ئًا": 8652,
      "ئناف": 8653,
      "بود": 8654,
      "بالخ": 8655,
      "تلت": 8656,
      "تفت": 8657,
      "تعدد": 8658,
      "توقع": 8659,
      "ثمر": 8660,
      "خليل": 8661,
      "دريب": 8662,
      "رحلات": 8663,
      "رخصة": 8664,
      "سس": 8665,
      "سوري": 8666,
      "سورية": 8667,
      "سوء": 8668,
      "صلا": 8669,
      "ضمنها": 8670,
      "عاء": 8671,
      "غت": 8672,
      "غرق": 8673,
      "فلت": 8674,
      "كست": 8675,
      "كسب": 8676,
      "كواكب": 8677,
      "لحل": 8678,
      "مْ": 8679,
      "مبلغ": 8680,
      "موجات": 8681,
      "مفاوضات": 8682,
      "نسخ": 8683,
      "والمدن": 8684,
      "ّز": 8685,
      "المعن": 8686,
      "المقت": 8687,
      "المهد": 8688,
      "الموحد": 8689,
      "الموانئ": 8690,
      "منهما": 8691,
      "الأمثلة": 8692,
      "الأجنبي": 8693,
      "التطوير": 8694,
      "التدخل": 8695,
      "الترخيص": 8696,
      "ونو": 8697,
      "رياح": 8698,
      "واش": 8699,
      "وايا": 8700,
      "يرون": 8701,
      "والثاني": 8702,
      "ديق": 8703,
      "ومقر": 8704,
      "ومدينة": 8705,
      "الحربية": 8706,
      "بيو": 8707,
      "بيبرس": 8708,
      "القوية": 8709,
      "القراءة": 8710,
      "سيج": 8711,
      "الجري": 8712,
      "الجمال": 8713,
      "الباي": 8714,
      "البقاء": 8715,
      "ويه": 8716,
      "وبها": 8717,
      "للولايات": 8718,
      "للجمهورية": 8719,
      "الدوائر": 8720,
      "الدانشمن": 8721,
      "ودين": 8722,
      "وسطي": 8723,
      "النقطة": 8724,
      "الفج": 8725,
      "الفصل": 8726,
      "الشنت": 8727,
      "سمت": 8728,
      "هيون": 8729,
      "ساطة": 8730,
      "استفتاء": 8731,
      "الصلبة": 8732,
      "أوضاع": 8733,
      "بدقة": 8734,
      "جمالية": 8735,
      "وأشار": 8736,
      "وأمري": 8737,
      "وعقد": 8738,
      "وعشرين": 8739,
      "وعضو": 8740,
      "بعين": 8741,
      "لتنظيم": 8742,
      "والمر": 8743,
      "كيين": 8744,
      "أسد": 8745,
      "تعبير": 8746,
      "وانه": 8747,
      "تهديد": 8748,
      "وضرب": 8749,
      "قرص": 8750,
      "والتص": 8751,
      "والتكنولوجيا": 8752,
      "ميلة": 8753,
      "الزهرة": 8754,
      "المسر": 8755,
      "ترط": 8756,
      "عندها": 8757,
      "المتحدث": 8758,
      "دولي": 8759,
      "أصيب": 8760,
      "للمياه": 8761,
      "يقصد": 8762,
      "السلع": 8763,
      "مستشار": 8764,
      "تجربة": 8765,
      "يُمكن": 8766,
      "المستمر": 8767,
      "كسجين": 8768,
      "أدنى": 8769,
      "المناظر": 8770,
      "منازل": 8771,
      "سكك": 8772,
      "الفينيقية": 8773,
      "وظل": 8774,
      "الأخلا": 8775,
      "كامي": 8776,
      "إدارية": 8777,
      "أعوام": 8778,
      "المصن": 8779,
      "عُرف": 8780,
      "مواط": 8781,
      "بإعادة": 8782,
      "كثيرا": 8783,
      "الأوروبيين": 8784,
      "لإقامة": 8785,
      "الأدبية": 8786,
      "دائمة": 8787,
      "مغني": 8788,
      "ard": 8789,
      "1927": 8790,
      "تماما": 8791,
      "جعله": 8792,
      "صنيع": 8793,
      "اقتح": 8794,
      "شاطئ": 8795,
      "الإسرائيليين": 8796,
      "توفيق": 8797,
      "أسسها": 8798,
      "غييرات": 8799,
      "بسهولة": 8800,
      "بورصة": 8801,
      "الليبر": 8802,
      "نسبته": 8803,
      "الأعياد": 8804,
      "نُور": 8805,
      "تميزة": 8806,
      "للحفاظ": 8807,
      "الرقم": 8808,
      "المذكورة": 8809,
      "وجيزة": 8810,
      "الأطراف": 8811,
      "موزعة": 8812,
      "ضحى": 8813,
      "فُوذ": 8814,
      "سفينة": 8815,
      "البعث": 8816,
      "سطنطينيَّة": 8817,
      "القُسطنطينيَّة": 8818,
      "الصادرة": 8819,
      "إيجاد": 8820,
      "مناصب": 8821,
      "التخصصات": 8822,
      "الناطقين": 8823,
      "الدستورية": 8824,
      "البلديات": 8825,
      "مصنفة": 8826,
      "اليرموك": 8827,
      "9هـ": 8828,
      "sch": 8829,
      "ub": 8830,
      "أوسع": 8831,
      "أجنبية": 8832,
      "بادة": 8833,
      "باليابانية": 8834,
      "توما": 8835,
      "تذكر": 8836,
      "ترفض": 8837,
      "جوهر": 8838,
      "حصر": 8839,
      "حلت": 8840,
      "حسان": 8841,
      "درة": 8842,
      "ذف": 8843,
      "سيرة": 8844,
      "سفن": 8845,
      "ضريح": 8846,
      "طس": 8847,
      "عال": 8848,
      "عثر": 8849,
      "عثمان": 8850,
      "غدا": 8851,
      "فوج": 8852,
      "قو": 8853,
      "مخطط": 8854,
      "مباراة": 8855,
      "نتج": 8856,
      "وBBC": 8857,
      "يال": 8858,
      "يبعد": 8859,
      "الهر": 8860,
      "الوها": 8861,
      "المطالب": 8862,
      "المفكر": 8863,
      "المحددة": 8864,
      "المفاهيم": 8865,
      "الممارسات": 8866,
      "منفصلة": 8867,
      "الأخص": 8868,
      "التعا": 8869,
      "الترجمة": 8870,
      "مائية": 8871,
      "ريتشارد": 8872,
      "يادين": 8873,
      "ليها": 8874,
      "ورس": 8875,
      "أند": 8876,
      "أندر": 8877,
      "ومملكة": 8878,
      "الحماية": 8879,
      "بيعة": 8880,
      "السم": 8881,
      "السور": 8882,
      "القليلة": 8883,
      "القذافي": 8884,
      "الجدار": 8885,
      "البرا": 8886,
      "ويّة": 8887,
      "وبني": 8888,
      "للحياة": 8889,
      "شرون": 8890,
      "الكي": 8891,
      "وسلم": 8892,
      "النمط": 8893,
      "الشاف": 8894,
      "وجا": 8895,
      "وجو": 8896,
      "وجامع": 8897,
      "كله": 8898,
      "كلما": 8899,
      "الرحلة": 8900,
      "الرهبان": 8901,
      "الصخر": 8902,
      "الصورة": 8903,
      "سباق": 8904,
      "مدنية": 8905,
      "مرتفعة": 8906,
      "الذكور": 8907,
      "وأسر": 8908,
      "وأشهر": 8909,
      "وأجزاء": 8910,
      "وعرض": 8911,
      "خرفة": 8912,
      "خرجت": 8913,
      "يتضمن": 8914,
      "يعقوب": 8915,
      "قيود": 8916,
      "قيلة": 8917,
      "تقال": 8918,
      "الطيران": 8919,
      "الطويلة": 8920,
      "الاض": 8921,
      "مجان": 8922,
      "محور": 8923,
      "غيره": 8924,
      "الهول": 8925,
      "تدين": 8926,
      "جزة": 8927,
      "ترخيص": 8928,
      "المتقدمة": 8929,
      "انتفاضة": 8930,
      "الآراء": 8931,
      "للمر": 8932,
      "والأك": 8933,
      "والأن": 8934,
      "تجعل": 8935,
      "يُّ": 8936,
      "السياسات": 8937,
      "ويتكون": 8938,
      "سعار": 8939,
      "لحقوق": 8940,
      "ذيب": 8941,
      "المرج": 8942,
      "دوني": 8943,
      "يطلب": 8944,
      "وشبه": 8945,
      "الأردنيين": 8946,
      "احتمال": 8947,
      "بمعدل": 8948,
      "مهما": 8949,
      "حقول": 8950,
      "زلج": 8951,
      "الرياضات": 8952,
      "محاكم": 8953,
      "بلاده": 8954,
      "الموافقة": 8955,
      "كيلو": 8956,
      "موسوعة": 8957,
      "التقرير": 8958,
      "التقسيمات": 8959,
      "ِّي": 8960,
      "اختصار": 8961,
      "تقدات": 8962,
      "القمرية": 8963,
      "1924": 8964,
      "الجماهير": 8965,
      "ألبرت": 8966,
      "دعوى": 8967,
      "للإشارة": 8968,
      "جعلها": 8969,
      "يؤكد": 8970,
      "ite": 8971,
      "1901": 8972,
      "الظواهري": 8973,
      "الترتيب": 8974,
      "الرسالة": 8975,
      "بأكم": 8976,
      "ظاهرات": 8977,
      "الأيوبيون": 8978,
      "البصري": 8979,
      "يغطي": 8980,
      "للاستخدام": 8981,
      "العبادة": 8982,
      "المعادلات": 8983,
      "الصحيحة": 8984,
      "ستراليا": 8985,
      "العرقية": 8986,
      "تدريج": 8987,
      "كولوم": 8988,
      "الموسيقي": 8989,
      "التطورات": 8990,
      "ماثيل": 8991,
      "تيمورلنك": 8992,
      "مخطوطة": 8993,
      "تقليدي": 8994,
      "عظيمة": 8995,
      "السكنية": 8996,
      "ress": 8997,
      "الفلاسفة": 8998,
      "الماركسية": 8999,
      "العبَّاسي": 9000,
      "وجميع": 9001,
      "%\">": 9002,
      "112": 9003,
      "6هـ": 9004,
      "Ch": 9005,
      "eb": 9006,
      "ies": 9007,
      "ma": 9008,
      "ot": 9009,
      "qu": 9010,
      "أبعد": 9011,
      "أولا": 9012,
      "أسلحة": 9013,
      "إف": 9014,
      "إيمان": 9015,
      "بحي": 9016,
      "بالاست": 9017,
      "تِ": 9018,
      "تند": 9019,
      "تخت": 9020,
      "تدرس": 9021,
      "تكلفة": 9022,
      "جرا": 9023,
      "دود": 9024,
      "ذرة": 9025,
      "زلي": 9026,
      "زلة": 9027,
      "زدهار": 9028,
      "سريعة": 9029,
      "شه": 9030,
      "شأن": 9031,
      "صفر": 9032,
      "صندوق": 9033,
      "ضريبة": 9034,
      "غربية": 9035,
      "غامي": 9036,
      "فئات": 9037,
      "لور": 9038,
      "لقة": 9039,
      "لتقديم": 9040,
      "مولة": 9041,
      "مزا": 9042,
      "مهاجر": 9043,
      "مِن": 9044,
      "وپ": 9045,
      "وشا": 9046,
      "والعربية": 9047,
      "يأخذ": 9048,
      "ّق": 9049,
      "الالت": 9050,
      "الخلفاء": 9051,
      "فيله": 9052,
      "فيليب": 9053,
      "فيديو": 9054,
      "المشارك": 9055,
      "المشاهد": 9056,
      "اتة": 9057,
      "ينغ": 9058,
      "ينيا": 9059,
      "ينتمي": 9060,
      "اربين": 9061,
      "ولل": 9062,
      "ولن": 9063,
      "ولار": 9064,
      "التحق": 9065,
      "يرن": 9066,
      "ليوم": 9067,
      "والبعض": 9068,
      "والخدمات": 9069,
      "والطاقة": 9070,
      "الحملات": 9071,
      "معون": 9072,
      "معلم": 9073,
      "معًا": 9074,
      "الجند": 9075,
      "البتر": 9076,
      "ويعمل": 9077,
      "ويضم": 9078,
      "وتنا": 9079,
      "للخ": 9080,
      "للزراعة": 9081,
      "قدار": 9082,
      "قدوم": 9083,
      "الدب": 9084,
      "الدقة": 9085,
      "وده": 9086,
      "وسُ": 9087,
      "النُ": 9088,
      "الفصح": 9089,
      "تمدة": 9090,
      "تملة": 9091,
      "الشاي": 9092,
      "تحتاج": 9093,
      "بلديات": 9094,
      "ساعات": 9095,
      "مدا": 9096,
      "مدف": 9097,
      "مدادات": 9098,
      "سلوك": 9099,
      "اللفظ": 9100,
      "وأعاد": 9101,
      "سنت": 9102,
      "يمارس": 9103,
      "قاعد": 9104,
      "قيب": 9105,
      "قيقات": 9106,
      "صلح": 9107,
      "متزايد": 9108,
      "قتين": 9109,
      "ئيّة": 9110,
      "الافت": 9111,
      "مثيل": 9112,
      "تعطي": 9113,
      "تعترف": 9114,
      "بحوث": 9115,
      "وانتشر": 9116,
      "محلي": 9117,
      "أمانة": 9118,
      "أملاك": 9119,
      "جاجات": 9120,
      "الهجري": 9121,
      "المنفى": 9122,
      "عبور": 9123,
      "وصي": 9124,
      "تاي": 9125,
      "تدير": 9126,
      "ميكانيكا": 9127,
      "جزئي": 9128,
      "جدار": 9129,
      "فسيرات": 9130,
      "عتين": 9131,
      "أولاً": 9132,
      "للمؤ": 9133,
      "والأق": 9134,
      "والأرض": 9135,
      "مستمرة": 9136,
      "جيال": 9137,
      "تتخذ": 9138,
      "يُعتبر": 9139,
      "يُطلق": 9140,
      "بقوله": 9141,
      "لدعم": 9142,
      "كسار": 9143,
      "مُست": 9144,
      "وإسرائيل": 9145,
      "وإيران": 9146,
      "وإدارة": 9147,
      "أشك": 9148,
      "وشاعر": 9149,
      "فقدت": 9150,
      "قصيدة": 9151,
      "أخوذ": 9152,
      "زاوية": 9153,
      "بغزو": 9154,
      "الفرنجة": 9155,
      "صارى": 9156,
      "زلزال": 9157,
      "قائم": 9158,
      "130": 9159,
      "فلسطينيين": 9160,
      "بلادهم": 9161,
      "تُوفي": 9162,
      "المواصلات": 9163,
      "السابعة": 9164,
      "عمران": 9165,
      "حملته": 9166,
      "البحوث": 9167,
      "حماة": 9168,
      "شعبة": 9169,
      "لعبة": 9170,
      "قاتلين": 9171,
      "1928": 9172,
      "جليد": 9173,
      "الإعلانات": 9174,
      "سطحه": 9175,
      "السياسيَّة": 9176,
      "وحدها": 9177,
      "التصوير": 9178,
      "آلان": 9179,
      "فصال": 9180,
      "أثرت": 9181,
      "خصوصًا": 9182,
      "1895": 9183,
      "الأقسام": 9184,
      "الفرعية": 9185,
      "المشهور": 9186,
      "أنشأها": 9187,
      "فرضت": 9188,
      "يعملون": 9189,
      "البصريات": 9190,
      "المفتي": 9191,
      "نسبيًا": 9192,
      "اتباع": 9193,
      "السبعينيات": 9194,
      "امتلاك": 9195,
      "امتياز": 9196,
      "الغالبية": 9197,
      "وغرافية": 9198,
      "معارضة": 9199,
      "الثمانينيات": 9200,
      "ivers": 9201,
      "إنجليزي": 9202,
      "البتراء": 9203,
      "وبقيت": 9204,
      "ويكبات": 9205,
      "69": 9206,
      "89": 9207,
      "Ar": 9208,
      "ov": 9209,
      "أجر": 9210,
      "ؤال": 9211,
      "إحصائيات": 9212,
      "اجتمع": 9213,
      "بئ": 9214,
      "بوز": 9215,
      "بسط": 9216,
      "تبعد": 9217,
      "تزايد": 9218,
      "ثنائي": 9219,
      "جهي": 9220,
      "حِ": 9221,
      "خن": 9222,
      "داء": 9223,
      "ذرية": 9224,
      "رز": 9225,
      "سهم": 9226,
      "سُم": 9227,
      "شيات": 9228,
      "صلى": 9229,
      "صفة": 9230,
      "ضت": 9231,
      "طم": 9232,
      "طلا": 9233,
      "ظار": 9234,
      "عْ": 9235,
      "عوض": 9236,
      "عزام": 9237,
      "عقيدة": 9238,
      "غبة": 9239,
      "غلاف": 9240,
      "فتم": 9241,
      "قع": 9242,
      "كه": 9243,
      "كهرب": 9244,
      "لمنع": 9245,
      "ميش": 9246,
      "متحدث": 9247,
      "نقد": 9248,
      "نزل": 9249,
      "هاني": 9250,
      "وانية": 9251,
      "وشركة": 9252,
      "يكتب": 9253,
      "يمنح": 9254,
      "الوا": 9255,
      "الديم": 9256,
      "الوسائل": 9257,
      "فيزيا": 9258,
      "المأم": 9259,
      "المتر": 9260,
      "المبكر": 9261,
      "الموضوع": 9262,
      "الملفات": 9263,
      "انغ": 9264,
      "الأفضل": 9265,
      "ولادة": 9266,
      "التضاريس": 9267,
      "العبد": 9268,
      "ريفات": 9269,
      "ستا": 9270,
      "والكر": 9271,
      "والطب": 9272,
      "والبحر": 9273,
      "والبرامج": 9274,
      "أندية": 9275,
      "ومجلس": 9276,
      "الحز": 9277,
      "السلم": 9278,
      "عدن": 9279,
      "القصور": 9280,
      "القلاع": 9281,
      "القوافل": 9282,
      "سيارات": 9283,
      "الجهود": 9284,
      "البخ": 9285,
      "البشت": 9286,
      "البادية": 9287,
      "وبح": 9288,
      "همات": 9289,
      "للحكم": 9290,
      "1916": 9291,
      "النجم": 9292,
      "الفرض": 9293,
      "الفساد": 9294,
      "تمارس": 9295,
      "تحف": 9296,
      "بنجاح": 9297,
      "اليس": 9298,
      "ساحلية": 9299,
      "الصن": 9300,
      "سبا": 9301,
      "مدخل": 9302,
      "يلبث": 9303,
      "انيَّة": 9304,
      "كنعان": 9305,
      "الخطة": 9306,
      "هوار": 9307,
      "وأع": 9308,
      "بايت": 9309,
      "هرمز": 9310,
      "صرفية": 9311,
      "إنقاذ": 9312,
      "كرونة": 9313,
      "متنا": 9314,
      "متاح": 9315,
      "دمياط": 9316,
      "الغطاء": 9317,
      "تياله": 9318,
      "مجدد": 9319,
      "تهتم": 9320,
      "الأمويين": 9321,
      "ثمارات": 9322,
      "قرارات": 9323,
      "تدى": 9324,
      "حرم": 9325,
      "الشرف": 9326,
      "الشرعية": 9327,
      "مييز": 9328,
      "كاث": 9329,
      "جزئ": 9330,
      "المتبقية": 9331,
      "حلقة": 9332,
      "البرلمانية": 9333,
      "مقالة": 9334,
      "الإنجيل": 9335,
      "الإنجاز": 9336,
      "المستهلك": 9337,
      "وقتها": 9338,
      "مُع": 9339,
      "وجودها": 9340,
      "الناطقة": 9341,
      "تحتفظ": 9342,
      "1500": 9343,
      "التجار": 9344,
      "أرمين": 9345,
      "تصوير": 9346,
      "وظهر": 9347,
      "يفوز": 9348,
      "مهند": 9349,
      "قائلاً": 9350,
      "تلعب": 9351,
      "غرفة": 9352,
      "تُعرف": 9353,
      "تُعتبر": 9354,
      "الفنانين": 9355,
      "المصالح": 9356,
      "شرقًا": 9357,
      "ألفريد": 9358,
      "الأنبياء": 9359,
      "أقمار": 9360,
      "والقوات": 9361,
      "وديوهات": 9362,
      "1929": 9363,
      "الجماعية": 9364,
      "style": 9365,
      "الاحتيا": 9366,
      "تشارلز": 9367,
      "إستراتيجية": 9368,
      "المحاصيل": 9369,
      "للكوكب": 9370,
      "اليونسكو": 9371,
      "للتعليم": 9372,
      "التاسعة": 9373,
      "صناعية": 9374,
      "شمالاً": 9375,
      "انتقادات": 9376,
      "الحيوان": 9377,
      "واجبات": 9378,
      "السُلجُوق": 9379,
      "وريتومو": 9380,
      "سيدنا": 9381,
      "فردات": 9382,
      "نسبياً": 9383,
      "نشط": 9384,
      "كريست": 9385,
      "الأعوام": 9386,
      "النهائية": 9387,
      "مشتقة": 9388,
      "المرافق": 9389,
      "خمسين": 9390,
      "الزنكيين": 9391,
      "جزائرية": 9392,
      "يشكلون": 9393,
      "الغازية": 9394,
      "حملات": 9395,
      "الرواية": 9396,
      "الروايات": 9397,
      "معادلات": 9398,
      "أسرته": 9399,
      "جورجيا": 9400,
      "العروض": 9401,
      "البرتغال": 9402,
      "والآداب": 9403,
      "خسرو": 9404,
      "معارض": 9405,
      "النقدية": 9406,
      "وانتهى": 9407,
      "التمويل": 9408,
      "ؤلؤ": 9409,
      "جوانب": 9410,
      "البروتستانتية": 9411,
      "اتفاقيات": 9412,
      "....-....": 9413,
      "هكتار": 9414,
      "آق": 9415,
      "إِ": 9416,
      "إيط": 9417,
      "إثيوبيا": 9418,
      "باع": 9419,
      "بأكثر": 9420,
      "باستمرار": 9421,
      "تجد": 9422,
      "حى": 9423,
      "خِ": 9424,
      "خائيل": 9425,
      "دبي": 9426,
      "سول": 9427,
      "سقط": 9428,
      "شئ": 9429,
      "عوامل": 9430,
      "غام": 9431,
      "غون": 9432,
      "غنت": 9433,
      "فحسب": 9434,
      "قضايا": 9435,
      "قيادات": 9436,
      "لتق": 9437,
      "لضمان": 9438,
      "ملم": 9439,
      "مسلسل": 9440,
      "مزيج": 9441,
      "نض": 9442,
      "نقا": 9443,
      "نتي": 9444,
      "نموا": 9445,
      "وْ": 9446,
      "يوريتومو": 9447,
      "ّها": 9448,
      "فينة": 9449,
      "المخطوط": 9450,
      "الموجات": 9451,
      "المميزة": 9452,
      "منرا": 9453,
      "ينت": 9454,
      "ينتشر": 9455,
      "ارين": 9456,
      "ارتها": 9457,
      "ولهذا": 9458,
      "ولته": 9459,
      "ديفيد": 9460,
      "بيته": 9461,
      "السع": 9462,
      "السالم": 9463,
      "القطبي": 9464,
      "القبلية": 9465,
      "معبد": 9466,
      "الجا": 9467,
      "البسي": 9468,
      "ويَ": 9469,
      "ويَّة": 9470,
      "وبحر": 9471,
      "للجدل": 9472,
      "شرقية": 9473,
      "ائقي": 9474,
      "1915": 9475,
      "الكُ": 9476,
      "وسائط": 9477,
      "النتيجة": 9478,
      "النجاح": 9479,
      "الفور": 9480,
      "الفوهات": 9481,
      "الشهود": 9482,
      "عمه": 9483,
      "بلور": 9484,
      "هيمن": 9485,
      "اليف": 9486,
      "ساكر": 9487,
      "استسلم": 9488,
      "الصادر": 9489,
      "َّه": 9490,
      "وفاك": 9491,
      "مرج": 9492,
      "جمل": 9493,
      "جموعات": 9494,
      "وأدى": 9495,
      "علنت": 9496,
      "علامة": 9497,
      "يترك": 9498,
      "كتي": 9499,
      "وفيه": 9500,
      "إنهم": 9501,
      "نيو": 9502,
      "حاي": 9503,
      "والمنظ": 9504,
      "والمواد": 9505,
      "كيان": 9506,
      "كيخسرو": 9507,
      "وريغامي": 9508,
      "وانضم": 9509,
      "وانتشار": 9510,
      "ولاكو": 9511,
      "درات": 9512,
      "مسير": 9513,
      "وضيح": 9514,
      "الهن": 9515,
      "الهاتف": 9516,
      "قرطبة": 9517,
      "وصفت": 9518,
      "يومنا": 9519,
      "والترك": 9520,
      "بتأسيس": 9521,
      "المتوسطة": 9522,
      "دافع": 9523,
      "عيدة": 9524,
      "دولتهم": 9525,
      "يقال": 9526,
      "الاستحواذ": 9527,
      "السلالة": 9528,
      "جيكا": 9529,
      "مساحات": 9530,
      "الإنفاق": 9531,
      "شيح": 9532,
      "المستعمرات": 9533,
      "رسى": 9534,
      "طقوس": 9535,
      "أدب": 9536,
      "فقه": 9537,
      "لحان": 9538,
      "المغربي": 9539,
      "المناسبات": 9540,
      "البيوت": 9541,
      "اعتقد": 9542,
      "الفيدا": 9543,
      "الميثاق": 9544,
      "ساتين": 9545,
      "والعلم": 9546,
      "فإنّ": 9547,
      "صدارات": 9548,
      "أرقام": 9549,
      "أرجاء": 9550,
      "الانح": 9551,
      "بموج": 9552,
      "واستولى": 9553,
      "طلبة": 9554,
      "يستمر": 9555,
      "محافظات": 9556,
      "حصائية": 9557,
      "زنكي": 9558,
      "أساسا": 9559,
      "الحرارية": 9560,
      "رائع": 9561,
      "قاتل": 9562,
      "تخضع": 9563,
      "بابا": 9564,
      "منهج": 9565,
      "يسكن": 9566,
      "وديان": 9567,
      "برزت": 9568,
      "يَملك": 9569,
      "سحابة": 9570,
      "أهلية": 9571,
      "العدالة": 9572,
      "للكني": 9573,
      "وصوله": 9574,
      "لغتهم": 9575,
      "التركيبة": 9576,
      "واجدة": 9577,
      "مترًا": 9578,
      "1907": 9579,
      "غالباً": 9580,
      "كيلومترا": 9581,
      "أتى": 9582,
      "حضور": 9583,
      "المركبات": 9584,
      "زراعية": 9585,
      "الاشتراك": 9586,
      "المشهورة": 9587,
      "قارنة": 9588,
      "الانتفاضة": 9589,
      "مقدار": 9590,
      "القيصر": 9591,
      "يعتقدون": 9592,
      "الرقمية": 9593,
      "واصلة": 9594,
      "الجغرافية": 9595,
      "مصريون": 9596,
      "الإقليمي": 9597,
      "اللغوية": 9598,
      "السبعينات": 9599,
      "كَّان": 9600,
      "وازد": 9601,
      "المجرية": 9602,
      "وتعدّ": 9603,
      "البرتغاليين": 9604,
      "يرتبط": 9605,
      "الوليد": 9606,
      "التسعينيات": 9607,
      "حاصلون": 9608,
      "وأيضاً": 9609,
      "دائمًا": 9610,
      "الطيور": 9611,
      "سلاطين": 9612,
      "المائيّة": 9613,
      "وثلاث": 9614,
      "دفعت": 9615,
      "Islam": 9616,
      "بعاثات": 9617,
      "فشلت": 9618,
      "داعش": 9619,
      "Univers": 9620,
      "الهادئ": 9621,
      "الأهالي": 9622,
      "ويليام": 9623,
      "يوحنا": 9624,
      "منراست": 9625,
      "ah": 9626,
      "ber": 9627,
      "du": 9628,
      "ment": 9629,
      "tr": 9630,
      "أظهرت": 9631,
      "إت": 9632,
      "ئب": 9633,
      "بمن": 9634,
      "بالعمل": 9635,
      "بأمر": 9636,
      "بقدر": 9637,
      "تير": 9638,
      "توم": 9639,
      "تسي": 9640,
      "تخرج": 9641,
      "تلفزيون": 9642,
      "ثبات": 9643,
      "جَ": 9644,
      "جنيه": 9645,
      "خب": 9646,
      "خلة": 9647,
      "سْ": 9648,
      "شواطئ": 9649,
      "صائل": 9650,
      "صعيد": 9651,
      "ضواحي": 9652,
      "ضفاف": 9653,
      "طُغر": 9654,
      "عائد": 9655,
      "غني": 9656,
      "غرس": 9657,
      "فخ": 9658,
      "فخر": 9659,
      "قلت": 9660,
      "ككل": 9661,
      "كّن": 9662,
      "لط": 9663,
      "لدرجة": 9664,
      "لأداء": 9665,
      "مانية": 9666,
      "مفر": 9667,
      "مملك": 9668,
      "موسيقى": 9669,
      "مخا": 9670,
      "مسبار": 9671,
      "نفي": 9672,
      "نيت": 9673,
      "هلا": 9674,
      "هارة": 9675,
      "هضبة": 9676,
      "وَّة": 9677,
      "وآسيا": 9678,
      "يبق": 9679,
      "يخرج": 9680,
      "يمنع": 9681,
      "ّما": 9682,
      "الائتلاف": 9683,
      "فيات": 9684,
      "المسم": 9685,
      "المتش": 9686,
      "المخرج": 9687,
      "الموضوعات": 9688,
      "انحل": 9689,
      "منتخب": 9690,
      "ينقسم": 9691,
      "امح": 9692,
      "التوس": 9693,
      "العبري": 9694,
      "ونظام": 9695,
      "يره": 9696,
      "والهي": 9697,
      "والشام": 9698,
      "والغاز": 9699,
      "والرياضيات": 9700,
      "الحجة": 9701,
      "الحربي": 9702,
      "السلة": 9703,
      "السني": 9704,
      "السرية": 9705,
      "عدت": 9706,
      "عداء": 9707,
      "لمصر": 9708,
      "القطر": 9709,
      "القناة": 9710,
      "برون": 9711,
      "برميل": 9712,
      "ابير": 9713,
      "ابقة": 9714,
      "ربت": 9715,
      "ادا": 9716,
      "الإع": 9717,
      "الإشارات": 9718,
      "معتدل": 9719,
      "الجد": 9720,
      "البدي": 9721,
      "ويك": 9722,
      "ويلات": 9723,
      "ويجب": 9724,
      "وتخ": 9725,
      "وتتكون": 9726,
      "وتوزيع": 9727,
      "وتستخدم": 9728,
      "للدول": 9729,
      "1911": 9730,
      "الدن": 9731,
      "الدوران": 9732,
      "ودعا": 9733,
      "ودفع": 9734,
      "ودمشق": 9735,
      "الكرك": 9736,
      "الكمية": 9737,
      "الفل": 9738,
      "الفري": 9739,
      "تمون": 9740,
      "عمد": 9741,
      "وجية": 9742,
      "حيفا": 9743,
      "كلين": 9744,
      "استهلاك": 9745,
      "استرجاع": 9746,
      "الصا": 9747,
      "مدارات": 9748,
      "وفن": 9749,
      "وفاز": 9750,
      "يدعم": 9751,
      "وأحيان": 9752,
      "سندر": 9753,
      "خرًا": 9754,
      "يتطلب": 9755,
      "كتائب": 9756,
      "يعرض": 9757,
      "قييم": 9758,
      "اريو": 9759,
      "كررة": 9760,
      "متعلقة": 9761,
      "المدير": 9762,
      "تقبل": 9763,
      "فاط": 9764,
      "الطيب": 9765,
      "لتشمل": 9766,
      "فتر": 9767,
      "والمؤسسات": 9768,
      "رضا": 9769,
      "كيك": 9770,
      "تعويض": 9771,
      "بحري": 9772,
      "فرس": 9773,
      "فرغ": 9774,
      "واته": 9775,
      "تهما": 9776,
      "يشارك": 9777,
      "الأموية": 9778,
      "مسائل": 9779,
      "وضم": 9780,
      "ضاة": 9781,
      "المنتخب": 9782,
      "المعسكر": 9783,
      "لاحية": 9784,
      "المتنا": 9785,
      "الآلات": 9786,
      "الآداب": 9787,
      "داقة": 9788,
      "جرات": 9789,
      "أولي": 9790,
      "للمعلومات": 9791,
      "تنز": 9792,
      "والأح": 9793,
      "والأراضي": 9794,
      "وهبي": 9795,
      "مستمر": 9796,
      "مقال": 9797,
      "صادرات": 9798,
      "شيكا": 9799,
      "لِلس": 9800,
      "سعودية": 9801,
      "وإقامة": 9802,
      "اعترف": 9803,
      "وسيطر": 9804,
      "اليابانيين": 9805,
      "تاريخيًا": 9806,
      "المرتبطة": 9807,
      "إلاّ": 9808,
      "والعرب": 9809,
      "علمي": 9810,
      "قصور": 9811,
      "المحتمل": 9812,
      "المحاربين": 9813,
      "زاخ": 9814,
      "بغض": 9815,
      "وراس": 9816,
      "الرازي": 9817,
      "وضعه": 9818,
      "إدراك": 9819,
      "أعياد": 9820,
      "رجب": 9821,
      "ang": 9822,
      "عُرفت": 9823,
      "ضرحة": 9824,
      "واحات": 9825,
      "المقدمة": 9826,
      "مايكل": 9827,
      "والإمارات": 9828,
      "تستطيع": 9829,
      "قتلوا": 9830,
      "دولارًا": 9831,
      "مزيد": 9832,
      "دائق": 9833,
      "دائي": 9834,
      "بشير": 9835,
      "الشامل": 9836,
      "الاحتفال": 9837,
      "رئيسا": 9838,
      "لاعبو": 9839,
      "اليوناني": 9840,
      "رياضي": 9841,
      "والدته": 9842,
      "تأسيسها": 9843,
      "الهادي": 9844,
      "الظاهرة": 9845,
      "ممّا": 9846,
      "ish": 9847,
      "الخطاب": 9848,
      "واصلات": 9849,
      "واجهات": 9850,
      "نووية": 9851,
      "الصفقة": 9852,
      "الأقمار": 9853,
      "تؤثر": 9854,
      "زوجة": 9855,
      "الانتصار": 9856,
      "العادي": 9857,
      "فاضطر": 9858,
      "use": 9859,
      "الفضيل": 9860,
      "إخراج": 9861,
      "العباسيين": 9862,
      "القصيرة": 9863,
      "الإلكتروني": 9864,
      "حصاءات": 9865,
      "مفتوح": 9866,
      "التأثيرات": 9867,
      "المنتشرة": 9868,
      "مكونة": 9869,
      "يديه": 9870,
      "غضون": 9871,
      "كاليف": 9872,
      "المسؤولية": 9873,
      "المسؤولين": 9874,
      "أضعاف": 9875,
      "تداول": 9876,
      "خلاص": 9877,
      "ملاحظة": 9878,
      "ثابتة": 9879,
      "المالكي": 9880,
      "فلكية": 9881,
      "تضمنت": 9882,
      "وعليه": 9883,
      "إقليمية": 9884,
      "ونظرية": 9885,
      "التجمعات": 9886,
      "قناع": 9887,
      "سُلطان": 9888,
[...]
