{
  "version": "1.0",
  "truncation": null,
  "padding": null,
  "added_tokens": [
    {
      "id": 0,
      "content": "<unk>",
      "single_word": false,
      "lstrip": false,
      "rstrip": false,
      "normalized": false,
      "special": true
    },
    {
      "id": 1,
      "content": "<pad>",
      "single_word": false,
      "lstrip": false,
      "rstrip": false,
      "normalized": false,
      "special": true
    },
    {
      "id": 2,
      "content": "<bos>",
      "single_word": false,
      "lstrip": false,
      "rstrip": false,
      "normalized": false,
      "special": true
    },
    {
      "id": 3,
      "content": "<eos>",
      "single_word": false,
      "lstrip": false,
      "rstrip": false,
      "normalized": false,
      "special": true
    }
  ],
  "normalizer": null,
  "pre_tokenizer": {
    "type": "Whitespace"
  },
  "post_processor": null,
  "decoder": null,
  "model": {
    "type": "BPE",
    "dropout": null,
    "unk_token": "<unk>",
    "continuing_subword_prefix": null,
    "end_of_word_suffix": null,
    "fuse_unk": false,
    "byte_fallback": false,
    "ignore_merges": false,
    "vocab": {
      "<unk>": 0,
      "<pad>": 1,
      "<bos>": 2,
      "<eos>": 3,
      "!": 4,
      "\"": 5,
      "#": 6,
      "$": 7,
      "%": 8,
      "&": 9,
      "'": 10,
      "(": 11,
      ")": 12,
      "*": 13,
      "+": 14,
      ",": 15,
      "-": 16,
      ".": 17,
      "/": 18,
      "0": 19,
      "1": 20,
      "2": 21,
      "3": 22,
      "4": 23,
      "5": 24,
      "6": 25,
      "7": 26,
      "8": 27,
      "9": 28,
      ":": 29,
      ";": 30,
      "<": 31,
      "=": 32,
      ">": 33,
      "?": 34,
      "@": 35,
      "A": 36,
      "B": 37,
      "C": 38,
      "D": 39,
      "E": 40,
      "F": 41,
      "G": 42,
      "H": 43,
      "I": 44,
      "J": 45,
      "K": 46,
      "L": 47,
      "M": 48,
      "N": 49,
      "O": 50,
      "P": 51,
      "Q": 52,
      "R": 53,
      "S": 54,
      "T": 55,
      "U": 56,
      "V": 57,
      "W": 58,
      "X": 59,
      "Y": 60,
      "Z": 61,
      "[": 62,
      "\\": 63,
      "]": 64,
      "^": 65,
      "_": 66,
      "`": 67,
      "a": 68,
      "b": 69,
      "c": 70,
      "d": 71,
      "e": 72,
      "f": 73,
      "g": 74,
      "h": 75,
      "i": 76,
      "j": 77,
      "k": 78,
      "l": 79,
      "m": 80,
      "n": 81,
      "o": 82,
      "p": 83,
      "q": 84,
      "r": 85,
      "s": 86,
      "t": 87,
      "u": 88,
      "v": 89,
      "w": 90,
      "x": 91,
      "y": 92,
      "z": 93,
      "{": 94,
      "|": 95,
      "}": 96,
      "~": 97,
      "": 98,
      "": 99,
      "": 100,
      "¡": 101,
      "¢": 102,
      "£": 103,
      "¤": 104,
      "¥": 105,
      "§": 106,
      "¨": 107,
      "©": 108,
      "ª": 109,
      "«": 110,
      "¬": 111,
      "­": 112,
      "®": 113,
      "¯": 114,
      "°": 115,
      "±": 116,
      "²": 117,
      "³": 118,
      "´": 119,
      "µ": 120,
      "·": 121,
      "¸": 122,
      "¹": 123,
      "º": 124,
      "»": 125,
      "¼": 126,
      "½": 127,
      "¾": 128,
      "À": 129,
      "Á": 130,
      "Â": 131,
      "Ä": 132,
      "Å": 133,
      "Æ": 134,
      "Ç": 135,
      "É": 136,
      "Ê": 137,
      "Í": 138,
      "Î": 139,
      "Ñ": 140,
      "Ó": 141,
      "Õ": 142,
      "Ö": 143,
      "×": 144,
      "Ø": 145,
      "Ú": 146,
      "Ü": 147,
      "Þ": 148,
      "ß": 149,
      "à": 150,
      "á": 151,
      "â": 152,
      "ã": 153,
      "ä": 154,
      "å": 155,
      "æ": 156,
      "ç": 157,
      "è": 158,
      "é": 159,
      "ê": 160,
      "ë": 161,
      "ì": 162,
      "í": 163,
      "î": 164,
      "ï": 165,
      "ð": 166,
      "ñ": 167,
      "ò": 168,
      "ó": 169,
      "ô": 170,
      "õ": 171,
      "ö": 172,
      "÷": 173,
      "ø": 174,
      "ù": 175,
      "ú": 176,
      "û": 177,
      "ü": 178,
      "ý": 179,
      "þ": 180,
      "ÿ": 181,
      "Ā": 182,
      "ā": 183,
      "ă": 184,
      "ą": 185,
      "ć": 186,
      "ĉ": 187,
      "Ċ": 188,
      "ċ": 189,
      "Č": 190,
      "č": 191,
      "ď": 192,
      "Đ": 193,
      "đ": 194,
      "Ē": 195,
      "ē": 196,
      "ė": 197,
      "ę": 198,
      "ě": 199,
      "Ĝ": 200,
      "ĝ": 201,
      "ğ": 202,
      "Ġ": 203,
      "ġ": 204,
      "Ģ": 205,
      "ĥ": 206,
      "Ħ": 207,
      "ħ": 208,
      "Ī": 209,
      "ī": 210,
      "ĭ": 211,
      "İ": 212,
      "ı": 213,
      "ĵ": 214,
      "Ķ": 215,
      "Ļ": 216,
      "ļ": 217,
      "Ľ": 218,
      "Ł": 219,
      "ł": 220,
      "ń": 221,
      "Ņ": 222,
      "ņ": 223,
      "ň": 224,
      "ŋ": 225,
      "Ō": 226,
      "ō": 227,
      "ŏ": 228,
      "Ő": 229,
      "ő": 230,
      "Œ": 231,
      "œ": 232,
      "Ř": 233,
      "ř": 234,
      "Ś": 235,
      "ś": 236,
      "Ŝ": 237,
      "ŝ": 238,
      "Ş": 239,
      "ş": 240,
      "Š": 241,
      "š": 242,
      "ţ": 243,
      "Ū": 244,
      "ū": 245,
      "ŭ": 246,
      "ů": 247,
      "Ű": 248,
      "ű": 249,
      "ų": 250,
      "ŷ": 251,
      "ź": 252,
      "Ż": 253,
      "ż": 254,
      "Ž": 255,
      "ž": 256,
      "Ə": 257,
      "ƒ": 258,
      "Ɣ": 259,
      "ǎ": 260,
      "ǔ": 261,
      "ǣ": 262,
      "ǧ": 263,
      "ǫ": 264,
      "ș": 265,
      "ț": 266,
      "ȝ": 267,
      "ɑ": 268,
      "ɒ": 269,
      "ɔ": 270,
      "ɕ": 271,
      "ə": 272,
      "ɛ": 273,
      "ɡ": 274,
      "ɣ": 275,
      "ɪ": 276,
      "ɬ": 277,
      "ɲ": 278,
      "ɹ": 279,
      "ɽ": 280,
      "ɾ": 281,
      "ʁ": 282,
      "ʃ": 283,
      "ʊ": 284,
      "ʒ": 285,
      "ʔ": 286,
      "ʕ": 287,
      "ʤ": 288,
      "ʦ": 289,
      "ʰ": 290,
      "ʲ": 291,
      "ʷ": 292,
      "ʹ": 293,
      "ʻ": 294,
      "ʼ": 295,
      "ʾ": 296,
      "ʿ": 297,
      "ˁ": 298,
      "ˈ": 299,
      "ˌ": 300,
      "ː": 301,
      "ˑ": 302,
      "˘": 303,
      "ˠ": 304,
      "ˤ": 305,
      "˧": 306,
      "˨": 307,
      "̀": 308,
      "́": 309,
      "̃": 310,
      "̈": 311,
      "̊": 312,
      "̯": 313,
      "͡": 314,
      "΄": 315,
      "Ά": 316,
      "Έ": 317,
      "Α": 318,
      "Β": 319,
      "Γ": 320,
      "Δ": 321,
      "Ε": 322,
      "Ζ": 323,
      "Η": 324,
      "Θ": 325,
      "Ι": 326,
      "Κ": 327,
      "Λ": 328,
      "Μ": 329,
      "Ν": 330,
      "Ξ": 331,
      "Ο": 332,
      "Π": 333,
      "Ρ": 334,
      "Σ": 335,
      "Τ": 336,
      "Υ": 337,
      "Φ": 338,
      "Χ": 339,
      "Ψ": 340,
      "Ω": 341,
      "ά": 342,
      "έ": 343,
      "ή": 344,
      "ί": 345,
      "α": 346,
      "β": 347,
      "γ": 348,
      "δ": 349,
      "ε": 350,
      "ζ": 351,
      "η": 352,
      "θ": 353,
      "ι": 354,
      "κ": 355,
      "λ": 356,
      "μ": 357,
      "ν": 358,
      "ξ": 359,
      "ο": 360,
      "π": 361,
      "ρ": 362,
      "ς": 363,
      "σ": 364,
      "τ": 365,
      "υ": 366,
      "φ": 367,
      "χ": 368,
      "ψ": 369,
      "ω": 370,
      "ϊ": 371,
      "ό": 372,
      "ύ": 373,
      "ώ": 374,
      "ϐ": 375,
      "ϑ": 376,
      "ϕ": 377,
      "ϝ": 378,
      "ϣ": 379,
      "Є": 380,
      "І": 381,
      "Ї": 382,
      "Ј": 383,
      "Љ": 384,
      "Њ": 385,
      "Ћ": 386,
      "Ў": 387,
      "Џ": 388,
      "А": 389,
      "Б": 390,
      "В": 391,
      "Г": 392,
      "Д": 393,
      "Е": 394,
      "Ж": 395,
      "З": 396,
      "И": 397,
      "Й": 398,
      "К": 399,
      "Л": 400,
      "М": 401,
      "Н": 402,
      "О": 403,
      "П": 404,
      "Р": 405,
      "С": 406,
      "Т": 407,
      "У": 408,
      "Ф": 409,
      "Х": 410,
      "Ц": 411,
      "Ч": 412,
      "Ш": 413,
      "Щ": 414,
      "Ъ": 415,
      "Ы": 416,
      "Ь": 417,
      "Ю": 418,
      "Я": 419,
      "а": 420,
      "б": 421,
      "в": 422,
      "г": 423,
      "д": 424,
      "е": 425,
      "ж": 426,
      "з": 427,
      "и": 428,
      "й": 429,
      "к": 430,
      "л": 431,
      "м": 432,
      "н": 433,
      "о": 434,
      "п": 435,
      "р": 436,
      "с": 437,
      "т": 438,
      "у": 439,
      "ф": 440,
      "х": 441,
      "ц": 442,
      "ч": 443,
      "ш": 444,
      "щ": 445,
      "ъ": 446,
      "ы": 447,
      "ь": 448,
      "ю": 449,
      "я": 450,
      "ё": 451,
      "ѕ": 452,
      "і": 453,
      "ї": 454,
      "ј": 455,
      "љ": 456,
      "Ѵ": 457,
      "Ґ": 458,
      "Қ": 459,
      "қ": 460,
      "ң": 461,
      "ү": 462,
      "Ӏ": 463,
      "ә": 464,
      "ө": 465,
      "Ա": 466,
      "Ե": 467,
      "Թ": 468,
      "Հ": 469,
      "ա": 470,
      "դ": 471,
      "ե": 472,
      "ի": 473,
      "լ": 474,
      "կ": 475,
      "ղ": 476,
      "յ": 477,
      "ն": 478,
      "ո": 479,
      "ռ": 480,
      "ս": 481,
      "տ": 482,
      "ր": 483,
      "ց": 484,
      "ւ": 485,
      "ք": 486,
      "և": 487,
      "ְ": 488,
      "ֲ": 489,
      "ִ": 490,
      "ֵ": 491,
      "ֶ": 492,
      "ַ": 493,
      "ָ": 494,
      "ֹ": 495,
      "ֻ": 496,
      "ּ": 497,
      "־": 498,
      "ׁ": 499,
      "ׂ": 500,
      "א": 501,
      "ב": 502,
      "ג": 503,
      "ד": 504,
      "ה": 505,
      "ו": 506,
      "ז": 507,
      "ח": 508,
      "ט": 509,
      "י": 510,
      "ך": 511,
      "כ": 512,
      "ל": 513,
      "ם": 514,
      "מ": 515,
      "ן": 516,
      "נ": 517,
      "ס": 518,
      "ע": 519,
      "ף": 520,
      "פ": 521,
      "ץ": 522,
      "צ": 523,
      "ק": 524,
      "ר": 525,
      "ש": 526,
      "ת": 527,
      "ײ": 528,
      "״": 529,
      "،": 530,
      "ؐ": 531,
      "؛": 532,
      "؜": 533,
      "؟": 534,
      "ء": 535,
      "آ": 536,
      "أ": 537,
      "ؤ": 538,
      "إ": 539,
      "ئ": 540,
      "ا": 541,
      "ب": 542,
      "ة": 543,
      "ت": 544,
      "ث": 545,
      "ج": 546,
      "ح": 547,
      "خ": 548,
      "د": 549,
      "ذ": 550,
      "ر": 551,
      "ز": 552,
      "س": 553,
      "ش": 554,
      "ص": 555,
      "ض": 556,
      "ط": 557,
      "ظ": 558,
      "ع": 559,
      "غ": 560,
      "ؿ": 561,
      "ـ": 562,
      "ف": 563,
      "ق": 564,
      "ك": 565,
      "ل": 566,
      "م": 567,
      "ن": 568,
      "ه": 569,
      "و": 570,
      "ى": 571,
      "ي": 572,
      "ً": 573,
      "ٌ": 574,
      "ٍ": 575,
      "َ": 576,
      "ُ": 577,
      "ِ": 578,
      "ّ": 579,
      "ْ": 580,
      "ٓ": 581,
      "ٔ": 582,
      "ٕ": 583,
      "ٙ": 584,
      "ٚ": 585,
      "ٞ": 586,
      "٠": 587,
      "١": 588,
      "٢": 589,
      "٣": 590,
      "٤": 591,
      "٥": 592,
      "٦": 593,
      "٧": 594,
      "٨": 595,
      "٩": 596,
      "٪": 597,
      "٫": 598,
      "٬": 599,
      "٭": 600,
      "ٰ": 601,
      "ٱ": 602,
      "ٲ": 603,
      "ٳ": 604,
      "ٹ": 605,
      "ٺ": 606,
      "ٻ": 607,
      "پ": 608,
      "ٿ": 609,
      "ڃ": 610,
      "چ": 611,
      "ڈ": 612,
      "ڌ": 613,
      "ڑ": 614,
      "ڕ": 615,
      "ژ": 616,
      "ڠ": 617,
      "ڢ": 618,
      "ڤ": 619,
      "ڨ": 620,
      "ک": 621,
      "ڪ": 622,
      "ڬ": 623,
      "ڭ": 624,
      "گ": 625,
      "ڳ": 626,
      "ں": 627,
      "ڽ": 628,
      "ھ": 629,
      "ۀ": 630,
      "ہ": 631,
      "ۃ": 632,
      "ۆ": 633,
      "ۈ": 634,
      "ۋ": 635,
      "ی": 636,
      "ێ": 637,
      "ۏ": 638,
      "ے": 639,
      "۔": 640,
      "ە": 641,
      "ۖ": 642,
      "ۗ": 643,
      "ۚ": 644,
      "۝": 645,
      "۟": 646,
      "ۡ": 647,
      "ۢ": 648,
      "ۥ": 649,
      "۰": 650,
      "۱": 651,
      "۲": 652,
      "۳": 653,
      "۹": 654,
      "ܐ": 655,
      "ܒ": 656,
      "ܓ": 657,
      "ܕ": 658,
      "ܗ": 659,
      "ܘ": 660,
      "ܙ": 661,
      "ܚ": 662,
      "ܛ": 663,
      "ܝ": 664,
      "ܟ": 665,
      "ܠ": 666,
      "ܡ": 667,
      "ܢ": 668,
      "ܣ": 669,
      "ܤ": 670,
      "ܥ": 671,
      "ܦ": 672,
      "ܨ": 673,
      "ܩ": 674,
      "ܪ": 675,
      "ܫ": 676,
      "ܬ": 677,
      "ܳ": 678,
      "ܵ": 679,
      "ܶ": 680,
      "ܸ": 681,
      "ݐ": 682,
      "ݘ": 683,
      "ݙ": 684,
      "ݜ": 685,
      "ݣ": 686,
      "ݪ": 687,
      "ݫ": 688,
      "ݭ": 689,
      "ހ": 690,
      "ރ": 691,
      "އ": 692,
      "ވ": 693,
      "މ": 694,
      "ދ": 695,
      "ގ": 696,
      "ޔ": 697,
      "ޖ": 698,
      "ާ": 699,
      "ި": 700,
      "ު": 701,
      "ޫ": 702,
      "ެ": 703,
      "ޭ": 704,
      "ް": 705,
      "ߊ": 706,
      "ߋ": 707,
      "ߌ": 708,
      "ߎ": 709,
      "ߕ": 710,
      "ߖ": 711,
      "ߘ": 712,
      "ߡ": 713,
      "ߣ": 714,
      "ऀ": 715,
      "ँ": 716,
      "ं": 717,
      "अ": 718,
      "आ": 719,
      "उ": 720,
      "ओ": 721,
      "क": 722,
      "ख": 723,
      "ग": 724,
      "च": 725,
      "ज": 726,
      "ट": 727,
      "ण": 728,
      "त": 729,
      "थ": 730,
      "द": 731,
      "ध": 732,
      "न": 733,
      "प": 734,
      "फ": 735,
      "ब": 736,
      "भ": 737,
      "म": 738,
      "य": 739,
      "र": 740,
      "ल": 741,
      "व": 742,
      "श": 743,
      "ष": 744,
      "स": 745,
      "ह": 746,
      "़": 747,
      "ा": 748,
      "ि": 749,
      "ी": 750,
      "ु": 751,
      "ू": 752,
      "े": 753,
      "ो": 754,
      "ौ": 755,
      "्": 756,
      "ং": 757,
      "অ": 758,
      "ঐ": 759,
      "ঔ": 760,
      "ক": 761,
      "খ": 762,
      "গ": 763,
      "ঙ": 764,
      "চ": 765,
      "জ": 766,
      "ট": 767,
      "ঢ": 768,
      "ণ": 769,
      "ত": 770,
      "দ": 771,
      "ধ": 772,
      "ন": 773,
      "প": 774,
      "ব": 775,
      "ভ": 776,
      "ম": 777,
      "য": 778,
      "র": 779,
      "ল": 780,
      "শ": 781,
      "ষ": 782,
      "স": 783,
      "হ": 784,
      "়": 785,
      "া": 786,
      "ি": 787,
      "ী": 788,
      "ু": 789,
      "ে": 790,
      "ো": 791,
      "্": 792,
      "ਖ": 793,
      "ਸ": 794,
      "ਿ": 795,
      "ੀ": 796,
      "ੱ": 797,
      "ઠ": 798,
      "પ": 799,
      "બ": 800,
      "ા": 801,
      "ુ": 802,
      "இ": 803,
      "க": 804,
      "ங": 805,
      "ச": 806,
      "ட": 807,
      "ண": 808,
      "த": 809,
      "ந": 810,
      "ன": 811,
      "ப": 812,
      "ம": 813,
      "ய": 814,
      "ர": 815,
      "ல": 816,
      "வ": 817,
      "ா": 818,
      "ி": 819,
      "ு": 820,
      "ூ": 821,
      "ை": 822,
      "்": 823,
      "ಕ": 824,
      "ರ": 825,
      "ಶ": 826,
      "ು": 827,
      "್": 828,
      "ං": 829,
      "ක": 830,
      "ප": 831,
      "ය": 832,
      "ර": 833,
      "ල": 834,
      "ව": 835,
      "ශ": 836,
      "්": 837,
      "ා": 838,
      "ි": 839,
      "ී": 840,
      "ු": 841,
      "ก": 842,
      "ข": 843,
      "ค": 844,
      "ง": 845,
      "จ": 846,
      "ช": 847,
      "ฐ": 848,
      "ฑ": 849,
      "ฒ": 850,
      "ณ": 851,
      "ด": 852,
      "ต": 853,
      "ถ": 854,
      "ท": 855,
      "ธ": 856,
      "น": 857,
      "บ": 858,
      "ป": 859,
      "ผ": 860,
      "พ": 861,
      "ภ": 862,
      "ม": 863,
      "ย": 864,
      "ร": 865,
      "ล": 866,
      "ว": 867,
      "ศ": 868,
      "ษ": 869,
      "ส": 870,
      "ห": 871,
      "อ": 872,
      "ฯ": 873,
      "ะ": 874,
      "ั": 875,
      "า": 876,
      "ิ": 877,
      "ี": 878,
      "ื": 879,
      "ุ": 880,
      "ู": 881,
      "฿": 882,
      "เ": 883,
      "แ": 884,
      "โ": 885,
      "ไ": 886,
      "่": 887,
      "้": 888,
      "์": 889,
      "ກ": 890,
      "ງ": 891,
      "ຊ": 892,
      "ດ": 893,
      "ຕ": 894,
      "ທ": 895,
      "ນ": 896,
      "ບ": 897,
      "ປ": 898,
      "ມ": 899,
      "ລ": 900,
      "ວ": 901,
      "ສ": 902,
      "ອ": 903,
      "ະ": 904,
      "ັ": 905,
      "າ": 906,
      "ິ": 907,
      "ີ": 908,
      "ື": 909,
      "ົ": 910,
      "ເ": 911,
      "ໄ": 912,
      "້": 913,
      "་": 914,
      "།": 915,
      "ཀ": 916,
      "ཁ": 917,
      "ག": 918,
      "ང": 919,
      "ཇ": 920,
      "ད": 921,
      "ན": 922,
      "ཕ": 923,
      "བ": 924,
      "མ": 925,
      "ཟ": 926,
      "འ": 927,
      "ཡ": 928,
      "ར": 929,
      "ལ": 930,
      "ས": 931,
      "ི": 932,
      "ུ": 933,
      "ེ": 934,
      "ོ": 935,
      "ྒ": 936,
      "ྱ": 937,
      "ྲ": 938,
      "ა": 939,
      "ბ": 940,
      "გ": 941,
      "დ": 942,
      "ე": 943,
      "ვ": 944,
      "თ": 945,
      "ი": 946,
      "კ": 947,
      "ლ": 948,
      "მ": 949,
      "ნ": 950,
      "ო": 951,
      "რ": 952,
      "ს": 953,
      "ტ": 954,
      "უ": 955,
      "ქ": 956,
      "ღ": 957,
      "ჩ": 958,
      "ძ": 959,
      "ხ": 960,
      "ᄎ": 961,
      "ᆡ": 962,
      "ል": 963,
      "ሎ": 964,
      "ሕ": 965,
      "ማ": 966,
      "ም": 967,
      "ሠ": 968,
      "ሥ": 969,
      "ሪ": 970,
      "ር": 971,
      "ሮ": 972,
      "ሷ": 973,
      "ቀ": 974,
      "ቅ": 975,
      "ቕ": 976,
      "በ": 977,
      "ቡ": 978,
      "ባ": 979,
      "ተ": 980,
      "ት": 981,
      "ቶ": 982,
      "ነ": 983,
      "ና": 984,
      "ን": 985,
      "ኛ": 986,
      "አ": 987,
      "ኢ": 988,
      "ኣ": 989,
      "ወ": 990,
      "ዘ": 991,
      "ያ": 992,
      "ይ": 993,
      "ዮ": 994,
      "ደ": 995,
      "ዳ": 996,
      "ድ": 997,
      "ጃ": 998,
      "ገ": 999,
      "ጉ": 1000,
      "ጊ": 1001,
      "ጋ": 1002,
      "ጵ": 1003,
      "ፊ": 1004,
      "ፋ": 1005,
      "ᐃ": 1006,
      "ᑦ": 1007,
      "ᒾ": 1008,
      "ᓄ": 1009,
      "ក": 1010,
      "ខ": 1011,
      "ជ": 1012,
      "ទ": 1013,
      "ន": 1014,
      "ប": 1015,
      "ព": 1016,
      "ម": 1017,
      "រ": 1018,
      "ល": 1019,
      "ស": 1020,
      "ា": 1021,
      "ុ": 1022,
      "េ": 1023,
      "ែ": 1024,
      "្": 1025,
      "ᵍ": 1026,
      "ᶜ": 1027,
      "ḍ": 1028,
      "ḕ": 1029,
      "ḗ": 1030,
      "Ḥ": 1031,
      "ḥ": 1032,
      "ṓ": 1033,
      "Ṣ": 1034,
      "ṣ": 1035,
      "Ṭ": 1036,
      "ṭ": 1037,
      "ṯ": 1038,
      "ẓ": 1039,
      "ạ": 1040,
      "ẽ": 1041,
      "ệ": 1042,
      "ố": 1043,
      "ộ": 1044,
      "ỡ": 1045,
      "ụ": 1046,
      "ἀ": 1047,
      "ἄ": 1048,
      "Ἀ": 1049,
      "Ἄ": 1050,
      "ἐ": 1051,
      "ἑ": 1052,
      "ἔ": 1053,
      "Ἐ": 1054,
      "Ἑ": 1055,
      "Ἔ": 1056,
      "Ἕ": 1057,
      "ἡ": 1058,
      "ἤ": 1059,
      "ἥ": 1060,
      "ἰ": 1061,
      "ἱ": 1062,
      "ἴ": 1063,
      "Ἰ": 1064,
      "Ἱ": 1065,
      "Ἴ": 1066,
      "Ἶ": 1067,
      "ὀ": 1068,
      "ὁ": 1069,
      "ὅ": 1070,
      "Ὁ": 1071,
      "Ὂ": 1072,
      "ὐ": 1073,
      "ὕ": 1074,
      "ὖ": 1075,
      "ὠ": 1076,
      "ὰ": 1077,
      "ὲ": 1078,
      "ὴ": 1079,
      "ὶ": 1080,
      "ὸ": 1081,
      "ᾍ": 1082,
      "ᾱ": 1083,
      "ᾶ": 1084,
      "ῆ": 1085,
      "ῖ": 1086,
      "ῤ": 1087,
      "ῥ": 1088,
      "ῦ": 1089,
      "Ῥ": 1090,
      "ῴ": 1091,
      "ῶ": 1092,
      "ῷ": 1093,
      "‌": 1094,
      "‍": 1095,
      "‎": 1096,
      "‑": 1097,
      "‒": 1098,
      "–": 1099,
      "—": 1100,
      "―": 1101,
      "‖": 1102,
      "‘": 1103,
      "’": 1104,
      "‚": 1105,
      "“": 1106,
      "”": 1107,
      "„": 1108,
      "†": 1109,
      "‡": 1110,
      "•": 1111,
      "…": 1112,
      "‰": 1113,
      "′": 1114,
      "″": 1115,
      "‹": 1116,
      "›": 1117,
      "⁄": 1118,
      "⁧": 1119,
      "⁩": 1120,
      "⁪": 1121,
      "⁬": 1122,
      "⁰": 1123,
      "⁴": 1124,
      "⁵": 1125,
      "⁹": 1126,
      "ⁿ": 1127,
      "₂": 1128,
      "₃": 1129,
      "₣": 1130,
      "₤": 1131,
      "₥": 1132,
      "₪": 1133,
      "€": 1134,
      "₭": 1135,
      "₮": 1136,
      "₱": 1137,
      "₹": 1138,
      "℃": 1139,
      "℅": 1140,
      "℉": 1141,
      "ℊ": 1142,
      "ℎ": 1143,
      "ℏ": 1144,
      "ℑ": 1145,
      "ℓ": 1146,
      "ℜ": 1147,
      "ℝ": 1148,
      "™": 1149,
      "ℤ": 1150,
      "⅓": 1151,
      "⅔": 1152,
      "⅛": 1153,
      "←": 1154,
      "↑": 1155,
      "→": 1156,
      "↓": 1157,
      "↔": 1158,
      "↦": 1159,
      "⇌": 1160,
      "⇒": 1161,
      "⇝": 1162,
      "∂": 1163,
      "∆": 1164,
      "∇": 1165,
      "∈": 1166,
      "∑": 1167,
      "−": 1168,
      "∗": 1169,
      "∘": 1170,
      "√": 1171,
      "∞": 1172,
      "∠": 1173,
      "∧": 1174,
      "∨": 1175,
      "≃": 1176,
      "≈": 1177,
      "≠": 1178,
      "≡": 1179,
      "≤": 1180,
      "≥": 1181,
      "⊆": 1182,
      "⊕": 1183,
      "⊙": 1184,
      "⊥": 1185,
      "⋅": 1186,
      "⋿": 1187,
      "⌬": 1188,
      "┒": 1189,
      "◄": 1190,
      "○": 1191,
      "◌": 1192,
      "●": 1193,
      "☉": 1194,
      "♀": 1195,
      "♂": 1196,
      "⛢": 1197,
      "⟨": 1198,
      "⟩": 1199,
      "⟶": 1200,
      "ⲁ": 1201,
      "Ⲉ": 1202,
      "ⲉ": 1203,
      "Ⲏ": 1204,
      "ⲏ": 1205,
      "ⲓ": 1206,
      "ⲙ": 1207,
      "Ⲛ": 1208,
      "ⲛ": 1209,
      "ⲟ": 1210,
      "ⲡ": 1211,
      "Ⲣ": 1212,
      "ⲣ": 1213,
      "Ⲥ": 1214,
      "ⲥ": 1215,
      "ⲧ": 1216,
      "ⲩ": 1217,
      "ⲫ": 1218,
      "ⲭ": 1219,
      "ⴰ": 1220,
      "ⴱ": 1221,
      "ⴲ": 1222,
      "ⴳ": 1223,
      "ⴶ": 1224,
      "ⴷ": 1225,
      "ⴻ": 1226,
      "ⴼ": 1227,
      "ⴽ": 1228,
      "ⴾ": 1229,
      "ⵀ": 1230,
      "ⵃ": 1231,
      "ⵄ": 1232,
      "ⵈ": 1233,
      "ⵉ": 1234,
      "ⵊ": 1235,
      "ⵍ": 1236,
      "ⵎ": 1237,
      "ⵏ": 1238,
      "ⵓ": 1239,
      "ⵔ": 1240,
      "ⵕ": 1241,
      "ⵖ": 1242,
      "ⵗ": 1243,
      "ⵙ": 1244,
      "ⵛ": 1245,
      "ⵜ": 1246,
      "ⵝ": 1247,
      "ⵟ": 1248,
      "ⵡ": 1249,
      "ⵢ": 1250,
      "ⵣ": 1251,
      "ⵯ": 1252,
      "、": 1253,
      "〈": 1254,
      "〉": 1255,
      "《": 1256,
      "》": 1257,
      "あ": 1258,
      "い": 1259,
      "う": 1260,
      "え": 1261,
      "お": 1262,
      "か": 1263,
      "が": 1264,
      "き": 1265,
      "く": 1266,
      "け": 1267,
      "げ": 1268,
      "こ": 1269,
      "さ": 1270,
      "ざ": 1271,
      "し": 1272,
      "じ": 1273,
      "ず": 1274,
      "せ": 1275,
      "た": 1276,
      "だ": 1277,
      "ち": 1278,
      "っ": 1279,
      "つ": 1280,
      "と": 1281,
      "ど": 1282,
      "な": 1283,
      "に": 1284,
      "の": 1285,
      "は": 1286,
      "ば": 1287,
      "び": 1288,
      "ぶ": 1289,
      "へ": 1290,
      "べ": 1291,
      "ぼ": 1292,
      "ま": 1293,
      "み": 1294,
      "も": 1295,
      "や": 1296,
      "ゆ": 1297,
      "よ": 1298,
      "ら": 1299,
      "り": 1300,
      "れ": 1301,
      "わ": 1302,
      "ゑ": 1303,
      "を": 1304,
      "ん": 1305,
      "ァ": 1306,
      "ア": 1307,
      "ィ": 1308,
      "イ": 1309,
      "ウ": 1310,
      "オ": 1311,
      "カ": 1312,
      "ガ": 1313,
      "キ": 1314,
      "ク": 1315,
      "グ": 1316,
      "コ": 1317,
      "ゴ": 1318,
      "サ": 1319,
      "ザ": 1320,
      "シ": 1321,
      "ジ": 1322,
      "ス": 1323,
      "ゼ": 1324,
      "ゾ": 1325,
      "タ": 1326,
      "ダ": 1327,
      "チ": 1328,
      "ッ": 1329,
      "テ": 1330,
      "ト": 1331,
      "ド": 1332,
      "ナ": 1333,
      "ニ": 1334,
      "ヌ": 1335,
      "ハ": 1336,
      "バ": 1337,
      "ビ": 1338,
      "ピ": 1339,
      "フ": 1340,
      "ブ": 1341,
      "プ": 1342,
      "ベ": 1343,
      "ボ": 1344,
      "ポ": 1345,
      "マ": 1346,
      "ム": 1347,
      "モ": 1348,
      "ャ": 1349,
      "ヤ": 1350,
      "ュ": 1351,
      "ョ": 1352,
      "ヨ": 1353,
      "ラ": 1354,
      "リ": 1355,
      "ル": 1356,
      "レ": 1357,
      "ロ": 1358,
      "ン": 1359,
      "ヶ": 1360,
      "・": 1361,
      "ー": 1362,
      "ㄅ": 1363,
      "ㄆ": 1364,
      "ㄇ": 1365,
      "ㄈ": 1366,
      "ㄉ": 1367,
      "ㄊ": 1368,
      "ㄋ": 1369,
      "ㄌ": 1370,
      "ㄍ": 1371,
      "ㄎ": 1372,
      "ㄏ": 1373,
      "ㄐ": 1374,
      "ㄑ": 1375,
      "ㄒ": 1376,
      "ㄓ": 1377,
      "ㄔ": 1378,
      "ㄕ": 1379,
      "ㄖ": 1380,
      "ㄗ": 1381,
      "ㄘ": 1382,
      "ㄙ": 1383,
      "ㄚ": 1384,
      "ㄛ": 1385,
      "ㄜ": 1386,
      "ㄝ": 1387,
      "ㄞ": 1388,
      "ㄟ": 1389,
      "ㄠ": 1390,
      "ㄡ": 1391,
      "ㄢ": 1392,
      "ㄣ": 1393,
      "ㄤ": 1394,
      "ㄥ": 1395,
      "ㄦ": 1396,
      "ㄧ": 1397,
      "ㄨ": 1398,
      "ㄩ": 1399,
      "ㄱ": 1400,
      "ㄲ": 1401,
      "ㄴ": 1402,
      "ㄷ": 1403,
      "ㄸ": 1404,
      "ㄹ": 1405,
      "ㅁ": 1406,
      "ㅂ": 1407,
      "ㅃ": 1408,
      "ㅅ": 1409,
      "ㅆ": 1410,
      "ㅇ": 1411,
      "ㅈ": 1412,
      "ㅉ": 1413,
      "ㅊ": 1414,
      "ㅋ": 1415,
      "ㅌ": 1416,
      "ㅍ": 1417,
      "ㅎ": 1418,
      "ㅏ": 1419,
      "ㅐ": 1420,
      "ㅑ": 1421,
      "ㅒ": 1422,
      "ㅓ": 1423,
      "ㅔ": 1424,
      "ㅕ": 1425,
      "ㅖ": 1426,
      "ㅗ": 1427,
      "ㅘ": 1428,
      "ㅙ": 1429,
      "ㅚ": 1430,
      "ㅛ": 1431,
      "ㅜ": 1432,
      "ㅝ": 1433,
      "ㅞ": 1434,
      "ㅟ": 1435,
      "ㅠ": 1436,
      "ㅡ": 1437,
      "ㅢ": 1438,
      "ㅣ": 1439,
      "一": 1440,
      "丁": 1441,
      "七": 1442,
      "万": 1443,
      "丈": 1444,
      "三": 1445,
      "上": 1446,
      "下": 1447,
      "与": 1448,
      "世": 1449,
      "东": 1450,
      "丝": 1451,
      "中": 1452,
      "丸": 1453,
      "主": 1454,
      "久": 1455,
      "之": 1456,
      "乌": 1457,
      "乐": 1458,
      "九": 1459,
      "也": 1460,
      "乱": 1461,
      "了": 1462,
      "争": 1463,
      "事": 1464,
      "二": 1465,
      "于": 1466,
      "云": 1467,
      "五": 1468,
      "井": 1469,
      "亡": 1470,
      "京": 1471,
      "亳": 1472,
      "人": 1473,
      "仁": 1474,
      "今": 1475,
      "付": 1476,
      "仙": 1477,
      "代": 1478,
      "令": 1479,
      "仮": 1480,
      "伊": 1481,
      "伎": 1482,
      "伏": 1483,
      "会": 1484,
      "伦": 1485,
      "伯": 1486,
      "位": 1487,
      "住": 1488,
      "佛": 1489,
      "作": 1490,
      "侍": 1491,
      "便": 1492,
      "係": 1493,
      "保": 1494,
      "信": 1495,
      "俳": 1496,
      "俺": 1497,
      "倉": 1498,
      "値": 1499,
      "倭": 1500,
      "偵": 1501,
      "僕": 1502,
      "儒": 1503,
      "允": 1504,
      "元": 1505,
      "先": 1506,
      "光": 1507,
      "克": 1508,
      "児": 1509,
      "党": 1510,
      "入": 1511,
      "八": 1512,
      "公": 1513,
      "六": 1514,
      "共": 1515,
      "兵": 1516,
      "円": 1517,
      "冇": 1518,
      "冠": 1519,
      "冷": 1520,
      "出": 1521,
      "刀": 1522,
      "分": 1523,
      "列": 1524,
      "初": 1525,
      "別": 1526,
      "利": 1527,
      "别": 1528,
      "刳": 1529,
      "制": 1530,
      "刺": 1531,
      "前": 1532,
      "剣": 1533,
      "劇": 1534,
      "力": 1535,
      "功": 1536,
      "加": 1537,
      "助": 1538,
      "勇": 1539,
      "動": 1540,
      "勝": 1541,
      "勢": 1542,
      "包": 1543,
      "化": 1544,
      "北": 1545,
      "匹": 1546,
      "区": 1547,
      "區": 1548,
      "十": 1549,
      "千": 1550,
      "半": 1551,
      "华": 1552,
      "南": 1553,
      "単": 1554,
      "博": 1555,
      "历": 1556,
      "厘": 1557,
      "厚": 1558,
      "原": 1559,
      "厳": 1560,
      "县": 1561,
      "参": 1562,
      "參": 1563,
      "友": 1564,
      "反": 1565,
      "发": 1566,
      "口": 1567,
      "古": 1568,
      "句": 1569,
      "可": 1570,
      "台": 1571,
      "右": 1572,
      "号": 1573,
      "合": 1574,
      "吉": 1575,
      "名": 1576,
      "吐": 1577,
      "向": 1578,
      "君": 1579,
      "呂": 1580,
      "呉": 1581,
      "周": 1582,
      "呼": 1583,
      "命": 1584,
      "和": 1585,
      "咖": 1586,
      "哇": 1587,
      "員": 1588,
      "唐": 1589,
      "問": 1590,
      "啡": 1591,
      "善": 1592,
      "喜": 1593,
      "喪": 1594,
      "四": 1595,
      "回": 1596,
      "団": 1597,
      "国": 1598,
      "圆": 1599,
      "國": 1600,
      "園": 1601,
      "圓": 1602,
      "圖": 1603,
      "土": 1604,
      "圣": 1605,
      "地": 1606,
      "圳": 1607,
      "场": 1608,
      "坊": 1609,
      "垂": 1610,
      "垣": 1611,
      "城": 1612,
      "執": 1613,
      "基": 1614,
      "堀": 1615,
      "堂": 1616,
      "堡": 1617,
      "場": 1618,
      "墓": 1619,
      "墨": 1620,
      "墳": 1621,
      "士": 1622,
      "多": 1623,
      "夜": 1624,
      "夢": 1625,
      "大": 1626,
      "天": 1627,
      "太": 1628,
      "夫": 1629,
      "央": 1630,
      "头": 1631,
      "夷": 1632,
      "奇": 1633,
      "奈": 1634,
      "女": 1635,
      "如": 1636,
      "妉": 1637,
      "妓": 1638,
      "姑": 1639,
      "委": 1640,
      "姫": 1641,
      "娘": 1642,
      "子": 1643,
      "孔": 1644,
      "字": 1645,
      "孝": 1646,
      "学": 1647,
      "孫": 1648,
      "宁": 1649,
      "宅": 1650,
      "守": 1651,
      "安": 1652,
      "宋": 1653,
      "宗": 1654,
      "官": 1655,
      "定": 1656,
      "宝": 1657,
      "实": 1658,
      "室": 1659,
      "宮": 1660,
      "家": 1661,
      "宾": 1662,
      "富": 1663,
      "察": 1664,
      "實": 1665,
      "寺": 1666,
      "将": 1667,
      "將": 1668,
      "尊": 1669,
      "尋": 1670,
      "小": 1671,
      "少": 1672,
      "尔": 1673,
      "尼": 1674,
      "尾": 1675,
      "居": 1676,
      "屋": 1677,
      "履": 1678,
      "山": 1679,
      "岛": 1680,
      "岡": 1681,
      "峦": 1682,
      "島": 1683,
      "峻": 1684,
      "崇": 1685,
      "崎": 1686,
      "崑": 1687,
      "崖": 1688,
      "崙": 1689,
      "川": 1690,
      "州": 1691,
      "左": 1692,
      "已": 1693,
      "巳": 1694,
      "市": 1695,
      "布": 1696,
      "帝": 1697,
      "師": 1698,
      "帯": 1699,
      "幅": 1700,
      "幌": 1701,
      "幕": 1702,
      "幡": 1703,
      "平": 1704,
      "年": 1705,
      "幹": 1706,
      "广": 1707,
      "庁": 1708,
      "広": 1709,
      "庆": 1710,
      "库": 1711,
      "府": 1712,
      "座": 1713,
      "庭": 1714,
      "康": 1715,
      "廓": 1716,
      "廣": 1717,
      "式": 1718,
      "弓": 1719,
      "引": 1720,
      "弗": 1721,
      "弘": 1722,
      "弥": 1723,
      "張": 1724,
      "弾": 1725,
      "形": 1726,
      "影": 1727,
      "征": 1728,
      "律": 1729,
      "後": 1730,
      "得": 1731,
      "御": 1732,
      "徳": 1733,
      "德": 1734,
      "徽": 1735,
      "心": 1736,
      "忒": 1737,
      "応": 1738,
      "忠": 1739,
      "怀": 1740,
      "思": 1741,
      "急": 1742,
      "总": 1743,
      "恋": 1744,
      "恐": 1745,
      "悪": 1746,
      "愛": 1747,
      "慄": 1748,
      "慶": 1749,
      "戊": 1750,
      "成": 1751,
      "我": 1752,
      "战": 1753,
      "戦": 1754,
      "戸": 1755,
      "所": 1756,
      "扁": 1757,
      "手": 1758,
      "扬": 1759,
      "承": 1760,
      "投": 1761,
      "折": 1762,
      "抱": 1763,
      "抹": 1764,
      "拜": 1765,
      "拳": 1766,
      "振": 1767,
      "掛": 1768,
      "探": 1769,
      "推": 1770,
      "摂": 1771,
      "摩": 1772,
      "撃": 1773,
      "撒": 1774,
      "撲": 1775,
      "操": 1776,
      "改": 1777,
      "攻": 1778,
      "政": 1779,
      "教": 1780,
      "敷": 1781,
      "文": 1782,
      "料": 1783,
      "斡": 1784,
      "斯": 1785,
      "新": 1786,
      "方": 1787,
      "於": 1788,
      "施": 1789,
      "旋": 1790,
      "族": 1791,
      "旗": 1792,
      "日": 1793,
      "旨": 1794,
      "时": 1795,
      "明": 1796,
      "星": 1797,
      "春": 1798,
      "昭": 1799,
      "時": 1800,
      "普": 1801,
      "景": 1802,
      "智": 1803,
      "暗": 1804,
      "曜": 1805,
      "曳": 1806,
      "更": 1807,
      "書": 1808,
      "曹": 1809,
      "月": 1810,
      "服": 1811,
      "朝": 1812,
      "木": 1813,
      "未": 1814,
      "末": 1815,
      "本": 1816,
      "札": 1817,
      "机": 1818,
      "杉": 1819,
      "村": 1820,
      "条": 1821,
      "来": 1822,
      "東": 1823,
      "松": 1824,
      "板": 1825,
      "林": 1826,
      "枚": 1827,
      "枝": 1828,
      "枯": 1829,
      "架": 1830,
      "染": 1831,
      "柔": 1832,
      "柳": 1833,
      "栃": 1834,
      "栄": 1835,
      "校": 1836,
      "栽": 1837,
      "桃": 1838,
      "桐": 1839,
      "桜": 1840,
      "桶": 1841,
      "梅": 1842,
      "梟": 1843,
      "梦": 1844,
      "梧": 1845,
      "森": 1846,
      "棺": 1847,
      "検": 1848,
      "楊": 1849,
      "業": 1850,
      "楷": 1851,
      "楼": 1852,
      "楽": 1853,
      "榮": 1854,
      "榴": 1855,
      "槟": 1856,
      "樂": 1857,
      "標": 1858,
      "横": 1859,
      "橋": 1860,
      "機": 1861,
      "次": 1862,
      "歌": 1863,
      "武": 1864,
      "殺": 1865,
      "殿": 1866,
      "毛": 1867,
      "氏": 1868,
      "民": 1869,
      "気": 1870,
      "水": 1871,
      "氵": 1872,
      "氷": 1873,
      "汉": 1874,
      "汗": 1875,
      "江": 1876,
      "汤": 1877,
      "沈": 1878,
      "沉": 1879,
      "沖": 1880,
      "沙": 1881,
      "沢": 1882,
      "河": 1883,
      "治": 1884,
      "泉": 1885,
      "法": 1886,
      "波": 1887,
      "泽": 1888,
      "洋": 1889,
      "洞": 1890,
      "津": 1891,
      "洪": 1892,
      "洲": 1893,
      "浅": 1894,
      "济": 1895,
      "浪": 1896,
      "浮": 1897,
      "浴": 1898,
      "海": 1899,
      "淡": 1900,
      "淮": 1901,
      "深": 1902,
      "清": 1903,
      "済": 1904,
      "温": 1905,
      "港": 1906,
      "湖": 1907,
      "湯": 1908,
      "湾": 1909,
      "満": 1910,
      "源": 1911,
      "漆": 1912,
      "漢": 1913,
      "澤": 1914,
      "澳": 1915,
      "濃": 1916,
      "濟": 1917,
      "瀋": 1918,
      "火": 1919,
      "灯": 1920,
      "災": 1921,
      "点": 1922,
      "為": 1923,
      "烏": 1924,
      "無": 1925,
      "照": 1926,
      "爆": 1927,
      "爾": 1928,
      "片": 1929,
      "版": 1930,
      "牙": 1931,
      "牛": 1932,
      "物": 1933,
      "特": 1934,
      "犬": 1935,
      "狙": 1936,
      "狭": 1937,
      "狮": 1938,
      "猪": 1939,
      "猿": 1940,
      "獄": 1941,
      "獅": 1942,
      "玄": 1943,
      "玉": 1944,
      "王": 1945,
      "球": 1946,
      "理": 1947,
      "瓦": 1948,
      "甚": 1949,
      "生": 1950,
      "田": 1951,
      "由": 1952,
      "甲": 1953,
      "电": 1954,
      "町": 1955,
      "界": 1956,
      "留": 1957,
      "略": 1958,
      "番": 1959,
      "異": 1960,
      "畳": 1961,
      "發": 1962,
      "白": 1963,
      "的": 1964,
      "皇": 1965,
      "盆": 1966,
      "盛": 1967,
      "目": 1968,
      "直": 1969,
      "相": 1970,
      "省": 1971,
      "真": 1972,
      "着": 1973,
      "睦": 1974,
      "瞑": 1975,
      "瞳": 1976,
      "石": 1977,
      "破": 1978,
      "碧": 1979,
      "礼": 1980,
      "社": 1981,
      "神": 1982,
      "祭": 1983,
      "祯": 1984,
      "禁": 1985,
      "禅": 1986,
      "福": 1987,
      "禪": 1988,
      "禮": 1989,
      "秀": 1990,
      "私": 1991,
      "秋": 1992,
      "科": 1993,
      "秦": 1994,
      "稲": 1995,
      "穀": 1996,
      "穆": 1997,
      "空": 1998,
      "立": 1999,
      "竜": 2000,
      "童": 2001,
      "笔": 2002,
      "第": 2003,
      "等": 2004,
      "筛": 2005,
      "箇": 2006,
      "箏": 2007,
      "管": 2008,
      "節": 2009,
      "篇": 2010,
      "築": 2011,
      "簪": 2012,
      "籠": 2013,
      "米": 2014,
      "粉": 2015,
      "粟": 2016,
      "紀": 2017,
      "紅": 2018,
      "紋": 2019,
      "納": 2020,
      "紐": 2021,
      "純": 2022,
      "紙": 2023,
      "紫": 2024,
      "紺": 2025,
      "経": 2026,
      "結": 2027,
      "絲": 2028,
      "絵": 2029,
      "絶": 2030,
      "絹": 2031,
      "經": 2032,
      "綢": 2033,
      "維": 2034,
      "綱": 2035,
      "線": 2036,
      "縄": 2037,
      "縣": 2038,
      "織": 2039,
      "繰": 2040,
      "红": 2041,
      "纳": 2042,
      "线": 2043,
      "经": 2044,
      "绸": 2045,
      "罕": 2046,
      "羅": 2047,
      "義": 2048,
      "羽": 2049,
      "翼": 2050,
      "者": 2051,
      "而": 2052,
      "聖": 2053,
      "肌": 2054,
      "肥": 2055,
      "肩": 2056,
      "背": 2057,
      "能": 2058,
      "脇": 2059,
      "脑": 2060,
      "腦": 2061,
      "腰": 2062,
      "臣": 2063,
      "臨": 2064,
      "自": 2065,
      "舞": 2066,
      "舟": 2067,
      "舶": 2068,
      "船": 2069,
      "良": 2070,
      "色": 2071,
      "艾": 2072,
      "芜": 2073,
      "芭": 2074,
      "花": 2075,
      "芸": 2076,
      "苏": 2077,
      "苑": 2078,
      "茂": 2079,
      "茅": 2080,
      "茶": 2081,
      "草": 2082,
      "荷": 2083,
      "莫": 2084,
      "莲": 2085,
      "菅": 2086,
      "菜": 2087,
      "華": 2088,
      "菱": 2089,
      "菴": 2090,
      "萄": 2091,
      "葉": 2092,
      "葡": 2093,
      "董": 2094,
      "葵": 2095,
      "蒙": 2096,
      "蓮": 2097,
      "蔘": 2098,
      "蕃": 2099,
      "蕉": 2100,
      "蕪": 2101,
      "蕾": 2102,
      "薩": 2103,
      "藏": 2104,
      "藤": 2105,
      "蘇": 2106,
      "虎": 2107,
      "蜜": 2108,
      "蝦": 2109,
      "螺": 2110,
      "行": 2111,
      "術": 2112,
      "街": 2113,
      "衛": 2114,
      "衣": 2115,
      "表": 2116,
      "衽": 2117,
      "衿": 2118,
      "袋": 2119,
      "袖": 2120,
      "袢": 2121,
      "袴": 2122,
      "裁": 2123,
      "裄": 2124,
      "製": 2125,
      "裾": 2126,
      "褄": 2127,
      "襟": 2128,
      "襦": 2129,
      "西": 2130,
      "見": 2131,
      "視": 2132,
      "親": 2133,
      "视": 2134,
      "言": 2135,
      "計": 2136,
      "記": 2137,
      "訪": 2138,
      "詞": 2139,
      "詮": 2140,
      "話": 2141,
      "誉": 2142,
      "認": 2143,
      "誓": 2144,
      "語": 2145,
      "誠": 2146,
      "読": 2147,
      "諭": 2148,
      "謀": 2149,
      "謙": 2150,
      "謝": 2151,
      "識": 2152,
      "譜": 2153,
      "警": 2154,
      "護": 2155,
      "认": 2156,
      "识": 2157,
      "词": 2158,
      "话": 2159,
      "语": 2160,
      "谷": 2161,
      "豆": 2162,
      "豊": 2163,
      "豚": 2164,
      "象": 2165,
      "豬": 2166,
      "貝": 2167,
      "財": 2168,
      "資": 2169,
      "贤": 2170,
      "赤": 2171,
      "越": 2172,
      "足": 2173,
      "跡": 2174,
      "路": 2175,
      "踞": 2176,
      "蹲": 2177,
      "身": 2178,
      "車": 2179,
      "軍": 2180,
      "輝": 2181,
      "輪": 2182,
      "车": 2183,
      "辖": 2184,
      "辰": 2185,
      "辽": 2186,
      "达": 2187,
      "近": 2188,
      "还": 2189,
      "连": 2190,
      "迪": 2191,
      "迷": 2192,
      "追": 2193,
      "退": 2194,
      "通": 2195,
      "速": 2196,
      "遊": 2197,
      "道": 2198,
      "遠": 2199,
      "遼": 2200,
      "還": 2201,
      "那": 2202,
      "郎": 2203,
      "部": 2204,
      "郭": 2205,
      "郷": 2206,
      "都": 2207,
      "鄂": 2208,
      "酌": 2209,
      "醍": 2210,
      "醐": 2211,
      "里": 2212,
      "重": 2213,
      "野": 2214,
      "金": 2215,
      "鉄": 2216,
      "銀": 2217,
      "銭": 2218,
      "錢": 2219,
      "鎌": 2220,
      "鎮": 2221,
      "鐘": 2222,
      "鐵": 2223,
      "铁": 2224,
      "長": 2225,
      "长": 2226,
      "門": 2227,
      "閃": 2228,
      "開": 2229,
      "間": 2230,
      "関": 2231,
      "閣": 2232,
      "閥": 2233,
      "门": 2234,
      "闪": 2235,
      "间": 2236,
      "阜": 2237,
      "阪": 2238,
      "阳": 2239,
      "阿": 2240,
      "际": 2241,
      "陰": 2242,
      "陳": 2243,
      "陵": 2244,
      "険": 2245,
      "隆": 2246,
      "隈": 2247,
      "隊": 2248,
      "階": 2249,
      "際": 2250,
      "隠": 2251,
      "雄": 2252,
      "集": 2253,
      "難": 2254,
      "雪": 2255,
      "雲": 2256,
      "電": 2257,
      "震": 2258,
      "霊": 2259,
      "青": 2260,
      "面": 2261,
      "革": 2262,
      "鞋": 2263,
      "韓": 2264,
      "韩": 2265,
      "音": 2266,
      "韵": 2267,
      "韻": 2268,
      "頃": 2269,
      "頭": 2270,
      "頼": 2271,
      "風": 2272,
      "风": 2273,
      "飛": 2274,
      "食": 2275,
      "館": 2276,
      "馆": 2277,
      "香": 2278,
      "馬": 2279,
      "駄": 2280,
      "駿": 2281,
      "马": 2282,
      "高": 2283,
      "鬼": 2284,
      "魂": 2285,
      "魏": 2286,
      "魔": 2287,
      "魯": 2288,
      "鮫": 2289,
      "鲁": 2290,
      "鳥": 2291,
      "鵝": 2292,
      "鶴": 2293,
      "鸞": 2294,
      "鹅": 2295,
      "鹿": 2296,
      "麦": 2297,
      "麻": 2298,
      "黍": 2299,
      "黑": 2300,
      "黒": 2301,
      "默": 2302,
      "黙": 2303,
      "點": 2304,
      "鼓": 2305,
      "齐": 2306,
      "龍": 2307,
      "ꜣ": 2308,
      "가": 2309,
      "각": 2310,
      "간": 2311,
      "갓": 2312,
      "개": 2313,
      "거": 2314,
      "겉": 2315,
      "고": 2316,
      "관": 2317,
      "국": 2318,
      "글": 2319,
      "기": 2320,
      "김": 2321,
      "까": 2322,
      "깍": 2323,
      "나": 2324,
      "닙": 2325,
      "다": 2326,
      "단": 2327,
      "당": 2328,
      "대": 2329,
      "도": 2330,
      "동": 2331,
      "된": 2332,
      "두": 2333,
      "디": 2334,
      "딤": 2335,
      "래": 2336,
      "려": 2337,
      "리": 2338,
      "마": 2339,
      "말": 2340,
      "면": 2341,
      "멸": 2342,
      "무": 2343,
      "묵": 2344,
      "미": 2345,
      "민": 2346,
      "박": 2347,
      "반": 2348,
      "밥": 2349,
      "배": 2350,
      "백": 2351,
      "버": 2352,
      "보": 2353,
      "볶": 2354,
      "부": 2355,
      "북": 2356,
      "삼": 2357,
      "새": 2358,
      "석": 2359,
      "선": 2360,
      "섯": 2361,
      "소": 2362,
      "시": 2363,
      "식": 2364,
      "신": 2365,
      "쌈": 2366,
      "아": 2367,
      "액": 2368,
      "야": 2369,
      "양": 2370,
      "어": 2371,
      "없": 2372,
      "역": 2373,
      "열": 2374,
      "오": 2375,
      "외": 2376,
      "요": 2377,
      "우": 2378,
      "월": 2379,
      "으": 2380,
      "은": 2381,
      "음": 2382,
      "이": 2383,
      "일": 2384,
      "임": 2385,
      "잎": 2386,
      "자": 2387,
      "장": 2388,
      "전": 2389,
      "절": 2390,
      "젓": 2391,
      "정": 2392,
      "조": 2393,
      "족": 2394,
      "지": 2395,
      "짐": 2396,
      "찌": 2397,
      "찬": 2398,
      "총": 2399,
      "추": 2400,
      "츼": 2401,
      "치": 2402,
      "칫": 2403,
      "탕": 2404,
      "팀": 2405,
      "파": 2406,
      "표": 2407,
      "풀": 2408,
      "한": 2409,
      "호": 2410,
      "홍": 2411,
      "히": 2412,
      "ﬁ": 2413,
      "﴾": 2414,
      "﴿": 2415,
      "（": 2416,
      "）": 2417,
      "～": 2418,
      "￼": 2419,
      "𐀃": 2420,
      "𐀆": 2421,
      "𐀚": 2422,
      "𐀡": 2423,
      "𐀮": 2424,
      "𐀺": 2425,
      "𐎧": 2426,
      "𐎹": 2427,
      "𐏁": 2428,
      "𐏂": 2429,
      "𐡇": 2430,
      "𐢊": 2431,
      "𐤁": 2432,
      "𐤇": 2433,
      "𐤉": 2434,
      "𐤋": 2435,
      "𐤌": 2436,
      "𐤍": 2437,
      "𐤏": 2438,
      "𐩢": 2439,
      "𐩣": 2440,
      "𐩥": 2441,
      "𐩧": 2442,
      "𐩩": 2443,
      "𐩳": 2444,
      "𐭠": 2445,
      "𐭩": 2446,
      "𐭪": 2447,
      "𐭰": 2448,
      "𐭲": 2449,
      "𒀭": 2450,
      "𒀸": 2451,
      "𒁉": 2452,
      "𒁺": 2453,
      "𒂍": 2454,
      "𒄠": 2455,
      "𒄩": 2456,
      "𒆍": 2457,
      "𒆠": 2458,
      "𒈬": 2459,
      "𒊏": 2460,
      "𒋗": 2461,
      "𒋩": 2462,
      "𒋼": 2463,
      "𓂋": 2464,
      "𓅓": 2465,
      "𓆎": 2466,
      "𓈖": 2467,
      "𓊖": 2468,
      "𓏏": 2469,
      "𓏺": 2470,
      "𝐅": 2471,
      "𝐕": 2472,
      "𝐹": 2473,
      "𝒻": 2474,
      "𝒽": 2475,
      "ال": 2476,
      "ية": 2477,
      "في": 2478,
      "الم": 2479,
      "ان": 2480,
      "من": 2481,
      "ات": 2482,
      "ين": 2483,
      "ار": 2484,
      "لى": 2485,
      "ام": 2486,
      "ول": 2487,
      "الأ": 2488,
      "ها": 2489,
      "ون": 2490,
      "الت": 2491,
      "ري": 2492,
      "را": 2493,
      "ما": 2494,
      "الع": 2495,
      "لا": 2496,
      "ير": 2497,
      "وا": 2498,
      "لي": 2499,
      "ور": 2500,
      "ست": 2501,
      "يا": 2502,
      "على": 2503,
      "أن": 2504,
      "وال": 2505,
      "دي": 2506,
      "وم": 2507,
      "الح": 2508,
      "اب": 2509,
      "الس": 2510,
      "الب": 2511,
      "لك": 2512,
      "نا": 2513,
      "عد": 2514,
      "الق": 2515,
      "وي": 2516,
      "إلى": 2517,
      "كان": 2518,
      "وب": 2519,
      "لم": 2520,
      "رب": 2521,
      "اد": 2522,
      "سي": 2523,
      "مع": 2524,
      "وت": 2525,
      "الج": 2526,
      "الإ": 2527,
      "لل": 2528,
      "قد": 2529,
      "ائ": 2530,
      "رة": 2531,
      "عن": 2532,
      "هم": 2533,
      "الك": 2534,
      "الن": 2535,
      "بر": 2536,
      "بي": 2537,
      "الش": 2538,
      "دة": 2539,
      "19": 2540,
      "ًا": 2541,
      "وس": 2542,
      "الد": 2543,
      "عة": 2544,
      "ود": 2545,
      "الف": 2546,
      "تم": 2547,
      "وج": 2548,
      "يم": 2549,
      "هذ": 2550,
      "اء": 2551,
      "وق": 2552,
      "سم": 2553,
      "تح": 2554,
      "عام": 2555,
      "بن": 2556,
      "لة": 2557,
      "التي": 2558,
      "حي": 2559,
      "رك": 2560,
      "عم": 2561,
      "َّ": 2562,
      "سب": 2563,
      "الر": 2564,
      "هي": 2565,
      "كل": 2566,
      "قة": 2567,
      "اف": 2568,
      "بل": 2569,
      "با": 2570,
      "مد": 2571,
      "بد": 2572,
      "أو": 2573,
      "الي": 2574,
      "الص": 2575,
      "كن": 2576,
      "00": 2577,
      "الخ": 2578,
      "وف": 2579,
      "شر": 2580,
      "يد": 2581,
      "يل": 2582,
      "سا": 2583,
      "اني": 2584,
      "حد": 2585,
      "است": 2586,
      "هو": 2587,
      "الذ": 2588,
      "ذلك": 2589,
      "الث": 2590,
      "يت": 2591,
      "مة": 2592,
      "حت": 2593,
      "سل": 2594,
      "اع": 2595,
      "بين": 2596,
      "كت": 2597,
      "له": 2598,
      "مر": 2599,
      "جم": 2600,
      "خل": 2601,
      "وع": 2602,
      "وأ": 2603,
      "خر": 2604,
      "هر": 2605,
      "سن": 2606,
      "صر": 2607,
      "إن": 2608,
      "يع": 2609,
      "يس": 2610,
      "أي": 2611,
      "الط": 2612,
      "بعد": 2613,
      "بع": 2614,
      "رن": 2615,
      "قي": 2616,
      "صل": 2617,
      "مت": 2618,
      "وفي": 2619,
      "مح": 2620,
      "كر": 2621,
      "اً": 2622,
      "تق": 2623,
      "مث": 2624,
      "وك": 2625,
      "وز": 2626,
      "انية": 2627,
      "عل": 2628,
      "ينة": 2629,
      "در": 2630,
      "لف": 2631,
      "اري": 2632,
      "هذا": 2633,
      "هذه": 2634,
      "اص": 2635,
      "ارة": 2636,
      "علي": 2637,
      "لت": 2638,
      "كون": 2639,
      "قت": 2640,
      "يرة": 2641,
      "ني": 2642,
      "كم": 2643,
      "الذي": 2644,
      "الا": 2645,
      "كانت": 2646,
      "ثر": 2647,
      "الغ": 2648,
      "أم": 2649,
      "فر": 2650,
      "بة": 2651,
      "هد": 2652,
      "تر": 2653,
      "ند": 2654,
      "عر": 2655,
      "سة": 2656,
      "ولا": 2657,
      "قل": 2658,
      "لس": 2659,
      "وح": 2660,
      "يات": 2661,
      "والم": 2662,
      "ته": 2663,
      "أك": 2664,
      "20": 2665,
      "ثم": 2666,
      "فة": 2667,
      "بح": 2668,
      "حيث": 2669,
      "يز": 2670,
      "خت": 2671,
      "فا": 2672,
      "غير": 2673,
      "ديد": 2674,
      "طة": 2675,
      "تش": 2676,
      "ولة": 2677,
      "أس": 2678,
      "يو": 2679,
      "خد": 2680,
      "الل": 2681,
      "كي": 2682,
      "المد": 2683,
      "وط": 2684,
      "قا": 2685,
      "الأم": 2686,
      "عب": 2687,
      "مل": 2688,
      "وات": 2689,
      "تي": 2690,
      "مثل": 2691,
      "اله": 2692,
      "مس": 2693,
      "كما": 2694,
      "وية": 2695,
      "وري": 2696,
      "المن": 2697,
      "18": 2698,
      "يش": 2699,
      "200": 2700,
      "جا": 2701,
      "حة": 2702,
      "الز": 2703,
      "قبل": 2704,
      "تع": 2705,
      "طل": 2706,
      "عند": 2707,
      "راء": 2708,
      "جن": 2709,
      "به": 2710,
      "وض": 2711,
      "فس": 2712,
      "قط": 2713,
      "مج": 2714,
      "نظ": 2715,
      "رق": 2716,
      "دا": 2717,
      "وص": 2718,
      "تا": 2719,
      "وقد": 2720,
      "قر": 2721,
      "ورة": 2722,
      "سية": 2723,
      "سنة": 2724,
      "وان": 2725,
      "ركة": 2726,
      "كا": 2727,
      "حر": 2728,
      "الية": 2729,
      "حا": 2730,
      "َّة": 2731,
      "بعض": 2732,
      "ريق": 2733,
      "العرب": 2734,
      "جة": 2735,
      "زي": 2736,
      "ومن": 2737,
      "العالم": 2738,
      "خص": 2739,
      "بت": 2740,
      "فت": 2741,
      "الة": 2742,
      "افة": 2743,
      "رض": 2744,
      "أنه": 2745,
      "عبد": 2746,
      "الات": 2747,
      "بار": 2748,
      "خرى": 2749,
      ").": 2750,
      "برا": 2751,
      "حل": 2752,
      "عت": 2753,
      "ئيس": 2754,
      "أيض": 2755,
      "انت": 2756,
      "اريخ": 2757,
      "شكل": 2758,
      "بط": 2759,
      "جر": 2760,
      "الله": 2761,
      "ئي": 2762,
      "لاد": 2763,
      "المت": 2764,
      "القرن": 2765,
      "خلال": 2766,
      "شي": 2767,
      "نة": 2768,
      "ادة": 2769,
      "سلام": 2770,
      "عي": 2771,
      "مي": 2772,
      "جد": 2773,
      "عدد": 2774,
      "جز": 2775,
      "يق": 2776,
      "كب": 2777,
      "حتى": 2778,
      "ذا": 2779,
      "ناء": 2780,
      "أص": 2781,
      "الآ": 2782,
      "عمل": 2783,
      "تن": 2784,
      "تد": 2785,
      "ورية": 2786,
      "وهو": 2787,
      "ولي": 2788,
      "شا": 2789,
      "والت": 2790,
      "طقة": 2791,
      "فض": 2792,
      "بق": 2793,
      "مار": 2794,
      "المس": 2795,
      "مص": 2796,
      ")،": 2797,
      "جي": 2798,
      "نية": 2799,
      "أب": 2800,
      "أول": 2801,
      "خط": 2802,
      "وهي": 2803,
      "يُ": 2804,
      "تت": 2805,
      "عا": 2806,
      "بات": 2807,
      "الإن": 2808,
      "اض": 2809,
      "مست": 2810,
      "للم": 2811,
      "فق": 2812,
      "تج": 2813,
      "مدينة": 2814,
      "بية": 2815,
      "المتح": 2816,
      "والأ": 2817,
      "المدينة": 2818,
      "جل": 2819,
      "عية": 2820,
      "مُ": 2821,
      "رية": 2822,
      "وه": 2823,
      "غة": 2824,
      "قام": 2825,
      "لاح": 2826,
      "صف": 2827,
      "سيا": 2828,
      "كوم": 2829,
      "يف": 2830,
      "أكثر": 2831,
      "رد": 2832,
      "201": 2833,
      "محمد": 2834,
      "كية": 2835,
      "وى": 2836,
      "بها": 2837,
      "السل": 2838,
      "وكان": 2839,
      "الاست": 2840,
      "العام": 2841,
      "يني": 2842,
      "جت": 2843,
      "عض": 2844,
      "قدم": 2845,
      "سط": 2846,
      "ثير": 2847,
      "ظم": 2848,
      "وسط": 2849,
      "مق": 2850,
      "ملك": 2851,
      "تف": 2852,
      "وة": 2853,
      "وار": 2854,
      "لد": 2855,
      "سع": 2856,
      "199": 2857,
      "وسي": 2858,
      "ثة": 2859,
      "جه": 2860,
      "النا": 2861,
      "ستخد": 2862,
      "رائ": 2863,
      "الض": 2864,
      "ماء": 2865,
      "المتحدة": 2866,
      "كس": 2867,
      "الإسلام": 2868,
      "خاص": 2869,
      "أش": 2870,
      "لق": 2871,
      "يمكن": 2872,
      "ئة": 2873,
      "أد": 2874,
      "ينية": 2875,
      "جع": 2876,
      "اليا": 2877,
      "فيها": 2878,
      "الملك": 2879,
      "انيا": 2880,
      "البر": 2881,
      "طا": 2882,
      "أحد": 2883,
      "وجد": 2884,
      "وعة": 2885,
      "والي": 2886,
      "ّة": 2887,
      "وش": 2888,
      "المع": 2889,
      "اه": 2890,
      "طي": 2891,
      "والتي": 2892,
      "عشر": 2893,
      "ولى": 2894,
      "عدة": 2895,
      "رس": 2896,
      "سبب": 2897,
      "الجن": 2898,
      "ارات": 2899,
      "هـ": 2900,
      "شت": 2901,
      "راق": 2902,
      "ولكن": 2903,
      "المح": 2904,
      "راض": 2905,
      "مال": 2906,
      "وروب": 2907,
      "لب": 2908,
      "طق": 2909,
      "نفس": 2910,
      "زة": 2911,
      "سر": 2912,
      "الجز": 2913,
      "الأول": 2914,
      "فإن": 2915,
      "تأ": 2916,
      "لها": 2917,
      "ناك": 2918,
      "ابن": 2919,
      "ختلف": 2920,
      "تحت": 2921,
      "15": 2922,
      "بِ": 2923,
      "».": 2924,
      "صاد": 2925,
      "اته": 2926,
      "قص": 2927,
      "بلغ": 2928,
      "كرة": 2929,
      "فل": 2930,
      "سبة": 2931,
      "وقت": 2932,
      "أح": 2933,
      "الحرب": 2934,
      "يط": 2935,
      "إس": 2936,
      "وث": 2937,
      "تلك": 2938,
      "المست": 2939,
      "عات": 2940,
      "رات": 2941,
      "المنا": 2942,
      "17": 2943,
      "قلي": 2944,
      "مان": 2945,
      "اث": 2946,
      "الدولة": 2947,
      "ركز": 2948,
      "يوم": 2949,
      "السيا": 2950,
      "كتاب": 2951,
      "لِ": 2952,
      "ئية": 2953,
      "أخرى": 2954,
      "دول": 2955,
      "قال": 2956,
      "طر": 2957,
      "بشكل": 2958,
      "ارية": 2959,
      "المُ": 2960,
      "حية": 2961,
      "العربية": 2962,
      "ياء": 2963,
      "بدأ": 2964,
      "كو": 2965,
      "العديد": 2966,
      "مصر": 2967,
      "مؤ": 2968,
      "198": 2969,
      "لات": 2970,
      "إلا": 2971,
      "تص": 2972,
      "المر": 2973,
      "تها": 2974,
      "از": 2975,
      "فن": 2976,
      "لكن": 2977,
      "10": 2978,
      "ارج": 2979,
      "جميع": 2980,
      "حم": 2981,
      "ريط": 2982,
      "غم": 2983,
      "يج": 2984,
      "أنها": 2985,
      "يون": 2986,
      "er": 2987,
      "أخ": 2988,
      "ظر": 2989,
      "عندما": 2990,
      "ينا": 2991,
      "كري": 2992,
      "منها": 2993,
      "وإ": 2994,
      "وما": 2995,
      "لاف": 2996,
      "الدين": 2997,
      "ملي": 2998,
      "فع": 2999,
      "شار": 3000,
      "ذي": 3001,
      "ظهر": 3002,
      "197": 3003,
      "رئيس": 3004,
      "والع": 3005,
      "دم": 3006,
      "هل": 3007,
      "كومة": 3008,
      "واق": 3009,
      "أما": 3010,
      "الغرب": 3011,
      "فيه": 3012,
      "سان": 3013,
      "الإم": 3014,
      "أمري": 3015,
      "غرب": 3016,
      "196": 3017,
      "بير": 3018,
      "كة": 3019,
      "وصل": 3020,
      "حول": 3021,
      "عليه": 3022,
      "الرا": 3023,
      "14": 3024,
      "فقد": 3025,
      "تُ": 3026,
      "سين": 3027,
      "13": 3028,
      "يتم": 3029,
      "إلي": 3030,
      "ديدة": 3031,
      "مجم": 3032,
      "لاق": 3033,
      "بال": 3034,
      "مسا": 3035,
      "ضافة": 3036,
      "لسط": 3037,
      "وقع": 3038,
      "وجود": 3039,
      "أغ": 3040,
      "»،": 3041,
      "حاد": 3042,
      "ائل": 3043,
      "المؤ": 3044,
      "حق": 3045,
      "دون": 3046,
      "جان": 3047,
      "مه": 3048,
      "16": 3049,
      "an": 3050,
      "المص": 3051,
      "حو": 3052,
      "اسم": 3053,
      "جام": 3054,
      "زا": 3055,
      "ذكر": 3056,
      "طان": 3057,
      "تاريخ": 3058,
      "هناك": 3059,
      "الري": 3060,
      "أر": 3061,
      "12": 3062,
      "الأس": 3063,
      "آخر": 3064,
      "الولا": 3065,
      "اح": 3066,
      "تين": 3067,
      "ثلا": 3068,
      "الثاني": 3069,
      "وني": 3070,
      "يكون": 3071,
      "منذ": 3072,
      "الأولى": 3073,
      "أكبر": 3074,
      "قية": 3075,
      "مما": 3076,
      "يادة": 3077,
      "اليوم": 3078,
      "منطقة": 3079,
      "علم": 3080,
      "سات": 3081,
      "الفي": 3082,
      "كار": 3083,
      "الدول": 3084,
      "الحر": 3085,
      "ابة": 3086,
      "منا": 3087,
      "أف": 3088,
      "ذات": 3089,
      "194": 3090,
      "الأمري": 3091,
      "وغ": 3092,
      "صد": 3093,
      "الان": 3094,
      "راد": 3095,
      "هما": 3096,
      "عمال": 3097,
      "كام": 3098,
      "ضم": 3099,
      "000": 3100,
      "الوط": 3101,
      "تكون": 3102,
      "اعت": 3103,
      "البحر": 3104,
      "القدي": 3105,
      "عمر": 3106,
      "براط": 3107,
      "التج": 3108,
      "ِّ": 3109,
      "هب": 3110,
      "المي": 3111,
      "الشي": 3112,
      "ستخدم": 3113,
      "الذين": 3114,
      "وير": 3115,
      "on": 3116,
      "عادة": 3117,
      "أث": 3118,
      "لية": 3119,
      "تط": 3120,
      "أبي": 3121,
      "دية": 3122,
      "in": 3123,
      "إد": 3124,
      "التح": 3125,
      "وضع": 3126,
      "وبر": 3127,
      "حين": 3128,
      "ملكة": 3129,
      "القر": 3130,
      "افظ": 3131,
      "حوالي": 3132,
      "نها": 3133,
      "مية": 3134,
      "وائ": 3135,
      "الرئيس": 3136,
      "فرن": 3137,
      "195": 3138,
      "مو": 3139,
      "أيضًا": 3140,
      "غر": 3141,
      "استخد": 3142,
      "اللغة": 3143,
      "قب": 3144,
      "البلاد": 3145,
      "ائية": 3146,
      "ودة": 3147,
      "زب": 3148,
      "قتصاد": 3149,
      "راً": 3150,
      "الأن": 3151,
      "ساب": 3152,
      "طريق": 3153,
      "وذلك": 3154,
      "والد": 3155,
      "الأخ": 3156,
      "النظ": 3157,
      "البي": 3158,
      "كبير": 3159,
      "وجه": 3160,
      "أع": 3161,
      "حص": 3162,
      "بم": 3163,
      "يين": 3164,
      "بسبب": 3165,
      "الكت": 3166,
      "قائ": 3167,
      "ليل": 3168,
      "الجنوب": 3169,
      "ائر": 3170,
      "ثل": 3171,
      "اس": 3172,
      "أهم": 3173,
      "الأرض": 3174,
      "انون": 3175,
      "إذا": 3176,
      "المج": 3177,
      "إم": 3178,
      "ويل": 3179,
      "بان": 3180,
      "تز": 3181,
      "يه": 3182,
      "تاج": 3183,
      "طب": 3184,
      "عليها": 3185,
      "أبو": 3186,
      "مات": 3187,
      "رف": 3188,
      "en": 3189,
      "بالإ": 3190,
      "عرف": 3191,
      "كتب": 3192,
      "ويت": 3193,
      "شخص": 3194,
      "التاريخ": 3195,
      "باسم": 3196,
      "تس": 3197,
      "يب": 3198,
      "شع": 3199,
      "لح": 3200,
      "واد": 3201,
      "ياة": 3202,
      "الإس": 3203,
      "راجع": 3204,
      "اخت": 3205,
      "ياً": 3206,
      "ديث": 3207,
      "الفرن": 3208,
      "لن": 3209,
      "الأخرى": 3210,
      "يح": 3211,
      "خارج": 3212,
      "الولايات": 3213,
      "تل": 3214,
      "المنطقة": 3215,
      "عرض": 3216,
      "العل": 3217,
      "الأح": 3218,
      "لمين": 3219,
      "ضر": 3220,
      "ظمة": 3221,
      "واحد": 3222,
      "زل": 3223,
      "الروم": 3224,
      "الو": 3225,
      "جلي": 3226,
      "العمل": 3227,
      "واح": 3228,
      "ابات": 3229,
      "جنوب": 3230,
      "نظام": 3231,
      "حدث": 3232,
      "الشرق": 3233,
      "دين": 3234,
      "الساب": 3235,
      "غي": 3236,
      "شف": 3237,
      "ودية": 3238,
      "جتما": 3239,
      "روس": 3240,
      "طلق": 3241,
      "صور": 3242,
      "طار": 3243,
      "ضمن": 3244,
      "فاع": 3245,
      "لاً": 3246,
      "وين": 3247,
      "تبر": 3248,
      "السكان": 3249,
      "بأن": 3250,
      "ألم": 3251,
      "طف": 3252,
      "يست": 3253,
      "ترة": 3254,
      "ُل": 3255,
      "اية": 3256,
      "ولم": 3257,
      "193": 3258,
      "ربع": 3259,
      "واع": 3260,
      "ألف": 3261,
      "رائيل": 3262,
      "مرة": 3263,
      "بما": 3264,
      "والذي": 3265,
      "الهند": 3266,
      "نف": 3267,
      "لاء": 3268,
      "سكان": 3269,
      "صار": 3270,
      "لغ": 3271,
      "راف": 3272,
      "انات": 3273,
      "ومع": 3274,
      "أيضا": 3275,
      "طول": 3276,
      "سمى": 3277,
      "صب": 3278,
      "al": 3279,
      "كث": 3280,
      "بالم": 3281,
      "نت": 3282,
      "وكانت": 3283,
      "يمة": 3284,
      "سكر": 3285,
      "رح": 3286,
      "رج": 3287,
      "واست": 3288,
      "لين": 3289,
      "مجموعة": 3290,
      "ُّ": 3291,
      "أوروب": 3292,
      "ضة": 3293,
      "الشم": 3294,
      "دولة": 3295,
      "نق": 3296,
      "شرة": 3297,
      "معظم": 3298,
      "أحمد": 3299,
      "باب": 3300,
      "الحكومة": 3301,
      "قاط": 3302,
      "واء": 3303,
      "فقط": 3304,
      "ولاية": 3305,
      "خاصة": 3306,
      "كات": 3307,
      "الدي": 3308,
      "الرغم": 3309,
      "ترك": 3310,
      "ادي": 3311,
      "كيل": 3312,
      "درجة": 3313,
      "الثانية": 3314,
      "جامعة": 3315,
      "طبي": 3316,
      "عبر": 3317,
      "الأد": 3318,
      "بري": 3319,
      "وأن": 3320,
      "نحو": 3321,
      "or": 3322,
      "ar": 3323,
      "اند": 3324,
      "ختلفة": 3325,
      "ضد": 3326,
      "بيل": 3327,
      "زم": 3328,
      "25": 3329,
      "امة": 3330,
      "لاعب": 3331,
      "ستان": 3332,
      "الوقت": 3333,
      "احت": 3334,
      "غل": 3335,
      "هُ": 3336,
      "عداد": 3337,
      "لع": 3338,
      "بالت": 3339,
      "الجيش": 3340,
      "الخاص": 3341,
      "اصمة": 3342,
      "فترة": 3343,
      "انتخ": 3344,
      "العلم": 3345,
      "ولد": 3346,
      "الشر": 3347,
      "الأك": 3348,
      "الإمبراط": 3349,
      "هار": 3350,
      "هور": 3351,
      "es": 3352,
      "المسي": 3353,
      "مش": 3354,
      "رير": 3355,
      "امي": 3356,
      "خلي": 3357,
      "واس": 3358,
      "فين": 3359,
      "ضاء": 3360,
      "لمة": 3361,
      "كبيرة": 3362,
      "العراق": 3363,
      "شرين": 3364,
      "الطبي": 3365,
      "الثالث": 3366,
      "هرب": 3367,
      "استخدام": 3368,
      "زية": 3369,
      "..": 3370,
      "عهد": 3371,
      "السن": 3372,
      "نوع": 3373,
      "بول": 3374,
      "طية": 3375,
      "آن": 3376,
      "رم": 3377,
      "ثماني": 3378,
      "حكم": 3379,
      "اة": 3380,
      "فه": 3381,
      "راضي": 3382,
      "عالم": 3383,
      "داخل": 3384,
      "شركة": 3385,
      "ونية": 3386,
      "ارس": 3387,
      "سمية": 3388,
      "بور": 3389,
      "مجلس": 3390,
      "وخ": 3391,
      "اليون": 3392,
      "أوروبا": 3393,
      "سيس": 3394,
      "أنَّ": 3395,
      "لإ": 3396,
      "والح": 3397,
      "العالمية": 3398,
      "البريط": 3399,
      "ندا": 3400,
      "يص": 3401,
      "هن": 3402,
      "بناء": 3403,
      "أت": 3404,
      "شاء": 3405,
      "مليون": 3406,
      "ضع": 3407,
      "تفاع": 3408,
      "التق": 3409,
      "وريا": 3410,
      "العربي": 3411,
      "ورا": 3412,
      "مركز": 3413,
      "الاتحاد": 3414,
      "شمال": 3415,
      "إذ": 3416,
      "ودي": 3417,
      "الفترة": 3418,
      "الرياض": 3419,
      "ti": 3420,
      "ريف": 3421,
      "قات": 3422,
      "أسا": 3423,
      "مكن": 3424,
      "واحدة": 3425,
      "بالإضافة": 3426,
      "راك": 3427,
      "وذ": 3428,
      "ياه": 3429,
      "ومات": 3430,
      "بينما": 3431,
      "أمريكي": 3432,
      "بإ": 3433,
      "عملية": 3434,
      "بس": 3435,
      "وبعد": 3436,
      "ريد": 3437,
      "منه": 3438,
      "يول": 3439,
      "اط": 3440,
      "وغير": 3441,
      "يران": 3442,
      "جمع": 3443,
      "عضاء": 3444,
      "تشار": 3445,
      "شرق": 3446,
      "الهي": 3447,
      "مغ": 3448,
      "ونات": 3449,
      "لال": 3450,
      "11": 3451,
      "قتل": 3452,
      "الأوروب": 3453,
      "درا": 3454,
      "حرب": 3455,
      "واقع": 3456,
      "رت": 3457,
      "30": 3458,
      "ورد": 3459,
      "الألم": 3460,
      "ناصر": 3461,
      "سام": 3462,
      "روا": 3463,
      "ينات": 3464,
      "والن": 3465,
      "بالن": 3466,
      "طن": 3467,
      "باد": 3468,
      "المغ": 3469,
      "الخط": 3470,
      "أق": 3471,
      "دور": 3472,
      "ويس": 3473,
      "وء": 3474,
      "شهر": 3475,
      "جزء": 3476,
      "ركات": 3477,
      "فضل": 3478,
      "إسرائيل": 3479,
      "ستر": 3480,
      "أثناء": 3481,
      "داد": 3482,
      "القديمة": 3483,
      "أُ": 3484,
      "نى": 3485,
      "امل": 3486,
      "امج": 3487,
      "بغ": 3488,
      "قاب": 3489,
      "فلسط": 3490,
      "عليم": 3491,
      "ريقة": 3492,
      "ثلاث": 3493,
      "المناطق": 3494,
      "موس": 3495,
      "جار": 3496,
      "وفيات": 3497,
      "لاج": 3498,
      "عاد": 3499,
      "قيق": 3500,
      "جتمع": 3501,
      "فيما": 3502,
      "الشيخ": 3503,
      "تيجة": 3504,
      "ارت": 3505,
      "الأص": 3506,
      "خرج": 3507,
      "زيز": 3508,
      "الأمريكية": 3509,
      "الطا": 3510,
      "بلاد": 3511,
      "صة": 3512,
      "ائي": 3513,
      "22": 3514,
      "العد": 3515,
      "تخ": 3516,
      "حسب": 3517,
      "عدم": 3518,
      "افظة": 3519,
      "وظ": 3520,
      "أيضاً": 3521,
      "الحد": 3522,
      "ريب": 3523,
      "بش": 3524,
      "ساء": 3525,
      "الحكم": 3526,
      "يسة": 3527,
      "سكري": 3528,
      "السا": 3529,
      "ريقيا": 3530,
      "جائ": 3531,
      "الحم": 3532,
      "المعر": 3533,
      "المسلمين": 3534,
      "مين": 3535,
      "القط": 3536,
      "لأن": 3537,
      "نائ": 3538,
      "21": 3539,
      "تقد": 3540,
      "مبر": 3541,
      "تحد": 3542,
      "وعلى": 3543,
      "الناس": 3544,
      "الأسا": 3545,
      "is": 3546,
      "فية": 3547,
      "الاقتصاد": 3548,
      "جاه": 3549,
      "ّا": 3550,
      "مارس": 3551,
      "جوم": 3552,
      "الصح": 3553,
      "ائرة": 3554,
      "النظام": 3555,
      "وزراء": 3556,
      "الأر": 3557,
      "والإ": 3558,
      "الثق": 3559,
      "نش": 3560,
      "يوجد": 3561,
      "جما": 3562,
      "عين": 3563,
      "سمي": 3564,
      "الأش": 3565,
      "أل": 3566,
      "نفسه": 3567,
      "عُ": 3568,
      "الدا": 3569,
      "أكت": 3570,
      "ادر": 3571,
      "سنوات": 3572,
      "يؤ": 3573,
      "نوب": 3574,
      "الإسلامية": 3575,
      "بالق": 3576,
      "الجام": 3577,
      "انة": 3578,
      "مثلة": 3579,
      "لكتر": 3580,
      "طالب": 3581,
      "أمر": 3582,
      "دار": 3583,
      "نع": 3584,
      "العامة": 3585,
      "he": 3586,
      "بك": 3587,
      "24": 3588,
      "تمد": 3589,
      "نز": 3590,
      "جين": 3591,
      "صنا": 3592,
      "ليس": 3593,
      "البح": 3594,
      "الكيم": 3595,
      "ولوج": 3596,
      "الشمس": 3597,
      "َّا": 3598,
      "سكرية": 3599,
      "السنة": 3600,
      "50": 3601,
      "اكت": 3602,
      "جانب": 3603,
      "عني": 3604,
      "وفق": 3605,
      "تقع": 3606,
      "تغ": 3607,
      "أصبح": 3608,
      "يناير": 3609,
      "اهرة": 3610,
      "أكتوبر": 3611,
      "ريل": 3612,
      "الأمير": 3613,
      "حالة": 3614,
      "الفلسط": 3615,
      "وفة": 3616,
      "الحا": 3617,
      "هيم": 3618,
      "القوات": 3619,
      "أهل": 3620,
      "ثار": 3621,
      "التالي": 3622,
      "مز": 3623,
      "غيرة": 3624,
      "الغربية": 3625,
      "موا": 3626,
      "سمة": 3627,
      "الوطني": 3628,
      "موال": 3629,
      "راب": 3630,
      "والق": 3631,
      "جات": 3632,
      "ئا": 3633,
      "فار": 3634,
      "نهاية": 3635,
      "فرنسا": 3636,
      "خذ": 3637,
      "الحياة": 3638,
      "وبة": 3639,
      "مون": 3640,
      "نسبة": 3641,
      "أعل": 3642,
      "الخلي": 3643,
      "المث": 3644,
      "هود": 3645,
      "محا": 3646,
      "جمه": 3647,
      "الكثير": 3648,
      "كور": 3649,
      "الأمر": 3650,
      "الها": 3651,
      "جون": 3652,
      "جيش": 3653,
      "ذهب": 3654,
      "جائزة": 3655,
      "بحت": 3656,
      "23": 3657,
      "طلب": 3658,
      "إنتاج": 3659,
      "الشعب": 3660,
      "طات": 3661,
      "لز": 3662,
      "خم": 3663,
      "المملكة": 3664,
      "التا": 3665,
      "دخل": 3666,
      "السع": 3667,
      "وصف": 3668,
      "جري": 3669,
      "صح": 3670,
      "نوف": 3671,
      "التن": 3672,
      "صلاح": 3673,
      "ورج": 3674,
      "لهم": 3675,
      "حركة": 3676,
      "ألمانيا": 3677,
      "مواليد": 3678,
      "أة": 3679,
      "وكذلك": 3680,
      "فص": 3681,
      "بني": 3682,
      "جرة": 3683,
      "العصر": 3684,
      "ثلاثة": 3685,
      "حلة": 3686,
      "ثمانية": 3687,
      "مايو": 3688,
      "تمبر": 3689,
      "الصنا": 3690,
      "ومة": 3691,
      "ئيسي": 3692,
      "أصبحت": 3693,
      "العم": 3694,
      "سلي": 3695,
      "بريط": 3696,
      "الاحت": 3697,
      "ic": 3698,
      "منهم": 3699,
      "قول": 3700,
      "موقع": 3701,
      "بداية": 3702,
      "عرب": 3703,
      "معد": 3704,
      "مرت": 3705,
      "سون": 3706,
      "وقف": 3707,
      "تمام": 3708,
      "الاجتما": 3709,
      "إليه": 3710,
      "خارجية": 3711,
      "الوسط": 3712,
      "وحدة": 3713,
      "هند": 3714,
      "هدف": 3715,
      "القد": 3716,
      "للت": 3717,
      "شري": 3718,
      "امية": 3719,
      "يونيو": 3720,
      "رخ": 3721,
      "يك": 3722,
      "يوليو": 3723,
      "حات": 3724,
      "تون": 3725,
      "ربعة": 3726,
      "سبتمبر": 3727,
      "ضا": 3728,
      "سمبر": 3729,
      "الموا": 3730,
      "متر": 3731,
      "إحد": 3732,
      "قيقة": 3733,
      "الأرد": 3734,
      "وفر": 3735,
      "ديسمبر": 3736,
      "ثي": 3737,
      "نهر": 3738,
      "الإنسان": 3739,
      "أعضاء": 3740,
      "افية": 3741,
      "باط": 3742,
      "الخام": 3743,
      "سطس": 3744,
      "ُم": 3745,
      "وعات": 3746,
      "ئات": 3747,
      "أنواع": 3748,
      "كمة": 3749,
      "أخذ": 3750,
      "أقل": 3751,
      "ندي": 3752,
      "الساد": 3753,
      "أصل": 3754,
      "إنشاء": 3755,
      "كيم": 3756,
      "ياس": 3757,
      "جمهورية": 3758,
      "26": 3759,
      "أعمال": 3760,
      "صرية": 3761,
      "الخاصة": 3762,
      "تست": 3763,
      "أجل": 3764,
      "باني": 3765,
      "عتبر": 3766,
      "لاع": 3767,
      "ديم": 3768,
      "مكان": 3769,
      "ممثل": 3770,
      "27": 3771,
      "التص": 3772,
      "ميل": 3773,
      "هير": 3774,
      "شب": 3775,
      "الشع": 3776,
      "الجزيرة": 3777,
      "قسم": 3778,
      "نات": 3779,
      "الخلا": 3780,
      "مناطق": 3781,
      "مقرا": 3782,
      "فاق": 3783,
      "فتح": 3784,
      "ليون": 3785,
      "أغسطس": 3786,
      "اقت": 3787,
      "جاء": 3788,
      "ضي": 3789,
      "صي": 3790,
      "راع": 3791,
      "ليات": 3792,
      "فات": 3793,
      "الموج": 3794,
      "نوفمبر": 3795,
      "شك": 3796,
      "انا": 3797,
      "ياد": 3798,
      "براير": 3799,
      "الإسلامي": 3800,
      "لدي": 3801,
      "الآن": 3802,
      "ol": 3803,
      "زوج": 3804,
      "غا": 3805,
      "ريا": 3806,
      "البلد": 3807,
      "غط": 3808,
      "شق": 3809,
      "تهم": 3810,
      "آل": 3811,
      "ثق": 3812,
      "لاب": 3813,
      "الحديث": 3814,
      "وحد": 3815,
      "وتر": 3816,
      "28": 3817,
      "هام": 3818,
      "جهة": 3819,
      "لبن": 3820,
      "الطاقة": 3821,
      "ستخدام": 3822,
      "قرار": 3823,
      "المغرب": 3824,
      "الثلا": 3825,
      "أشهر": 3826,
      "هاب": 3827,
      "النبي": 3828,
      "تمر": 3829,
      "أبريل": 3830,
      "فبراير": 3831,
      "مك": 3832,
      "دع": 3833,
      "وهذا": 3834,
      "الحيو": 3835,
      "انتق": 3836,
      "الأف": 3837,
      "ارب": 3838,
      "بدأت": 3839,
      "واج": 3840,
      "سيم": 3841,
      "المسا": 3842,
      "معر": 3843,
      "اعر": 3844,
      "الأمريكي": 3845,
      "يرات": 3846,
      "المدن": 3847,
      "هاء": 3848,
      "ماد": 3849,
      "خفض": 3850,
      "اللي": 3851,
      "شاف": 3852,
      "السود": 3853,
      "29": 3854,
      "الإنجلي": 3855,
      "يكن": 3856,
      "الشمالية": 3857,
      "وحي": 3858,
      "طور": 3859,
      "الإد": 3860,
      "منت": 3861,
      "طلاق": 3862,
      "عيد": 3863,
      "زن": 3864,
      "الدم": 3865,
      "اذ": 3866,
      "الفن": 3867,
      "حيط": 3868,
      "فوق": 3869,
      "السي": 3870,
      "قدر": 3871,
      "صبح": 3872,
      "زياء": 3873,
      "سك": 3874,
      "ديثة": 3875,
      "شبه": 3876,
      "الكهرب": 3877,
      "يار": 3878,
      "مختلفة": 3879,
      "ريات": 3880,
      "للح": 3881,
      "انتخابات": 3882,
      "للك": 3883,
      "مراجع": 3884,
      "ابه": 3885,
      "فيا": 3886,
      "يائية": 3887,
      "ابت": 3888,
      "العزيز": 3889,
      "جديدة": 3890,
      "الوطنية": 3891,
      "كثير": 3892,
      "لما": 3893,
      "الفر": 3894,
      "رأس": 3895,
      "الطب": 3896,
      "همة": 3897,
      "وصول": 3898,
      "لو": 3899,
      "نظيم": 3900,
      "مض": 3901,
      "الإمبراطورية": 3902,
      "قى": 3903,
      "قلال": 3904,
      "الميلاد": 3905,
      "الفرنسي": 3906,
      "ليا": 3907,
      "المجم": 3908,
      "زو": 3909,
      "بأ": 3910,
      "الشمال": 3911,
      "قوات": 3912,
      "كذلك": 3913,
      "المقد": 3914,
      "إحدى": 3915,
      "الزرا": 3916,
      "شل": 3917,
      "at": 3918,
      "وقال": 3919,
      "الرس": 3920,
      "رش": 3921,
      "الخارج": 3922,
      "إيط": 3923,
      "فور": 3924,
      "آسيا": 3925,
      "190": 3926,
      "بص": 3927,
      "الأمم": 3928,
      "فلسطين": 3929,
      "بيت": 3930,
      "وتق": 3931,
      "ربة": 3932,
      "جديد": 3933,
      "انظر": 3934,
      "نص": 3935,
      "للإ": 3936,
      "جعل": 3937,
      "مم": 3938,
      "الكون": 3939,
      "لاقة": 3940,
      "افت": 3941,
      "دو": 3942,
      "مَ": 3943,
      "تتم": 3944,
      "جها": 3945,
      "برى": 3946,
      "el": 3947,
      "جزيرة": 3948,
      "شهد": 3949,
      "تنا": 3950,
      "اغ": 3951,
      "جيل": 3952,
      "غالب": 3953,
      "لاقات": 3954,
      "نظرية": 3955,
      "نس": 3956,
      "حلية": 3957,
      "الفرنسية": 3958,
      "توفي": 3959,
      "سلة": 3960,
      "إي": 3961,
      "وَ": 3962,
      "للأ": 3963,
      "الشرقية": 3964,
      "تب": 3965,
      "يته": 3966,
      "الماء": 3967,
      "وجين": 3968,
      "الدولي": 3969,
      "40": 3970,
      "عقد": 3971,
      "نسمة": 3972,
      "السلطان": 3973,
      "منظمة": 3974,
      "ائد": 3975,
      "اي": 3976,
      "اش": 3977,
      "وائل": 3978,
      "السوفي": 3979,
      "تاب": 3980,
      "لاس": 3981,
      "قاد": 3982,
      "أيام": 3983,
      "الباب": 3984,
      "معركة": 3985,
      "زمة": 3986,
      "سيد": 3987,
      "تأسيس": 3988,
      "كانوا": 3989,
      "خي": 3990,
      "ُر": 3991,
      "لكل": 3992,
      "والس": 3993,
      "برز": 3994,
      "رياض": 3995,
      "شاط": 3996,
      "تك": 3997,
      "مصري": 3998,
      "أدى": 3999,
      "براهيم": 4000,
      "سياسي": 4001,
      "توجد": 4002,
      "نتيجة": 4003,
      "لاست": 4004,
      "it": 4005,
      "ثمان": 4006,
      "ارتفاع": 4007,
      "جورج": 4008,
      "اك": 4009,
      "حن": 4010,
      "صالح": 4011,
      "فير": 4012,
      "وإن": 4013,
      "الأراضي": 4014,
      "سبيل": 4015,
      "شروع": 4016,
      "تعتبر": 4017,
      "ّل": 4018,
      "واف": 4019,
      "لمان": 4020,
      "مدن": 4021,
      "الآخر": 4022,
      "جراء": 4023,
      "بالنسبة": 4024,
      "المصري": 4025,
      "عنه": 4026,
      "وفاة": 4027,
      "حدود": 4028,
      "المجتمع": 4029,
      "المركز": 4030,
      "المز": 4031,
      "السلطة": 4032,
      "ونة": 4033,
      "أه": 4034,
      "راز": 4035,
      "جاز": 4036,
      "الوسطى": 4037,
      "وام": 4038,
      "باع": 4039,
      "وصلات": 4040,
      "بلد": 4041,
      "وست": 4042,
      "راج": 4043,
      "سلحة": 4044,
      "التاسع": 4045,
      "تحدث": 4046,
      "اللغ": 4047,
      "حصل": 4048,
      "يعتبر": 4049,
      "مالي": 4050,
      "لدى": 4051,
      "بـ": 4052,
      "المرك": 4053,
      "الجديدة": 4054,
      "تعد": 4055,
      "الحض": 4056,
      "امن": 4057,
      "فظ": 4058,
      "القانون": 4059,
      "نقل": 4060,
      "الأع": 4061,
      "الجنوبية": 4062,
      "غان": 4063,
      "اق": 4064,
      "أوا": 4065,
      "الغربي": 4066,
      "رؤ": 4067,
      "60": 4068,
      "ممثلة": 4069,
      "البشر": 4070,
      "وبين": 4071,
      "ميم": 4072,
      "هول": 4073,
      "السياسية": 4074,
      "الظ": 4075,
      "يحت": 4076,
      "والش": 4077,
      "الشخص": 4078,
      "أعلى": 4079,
      "ارك": 4080,
      "واسطة": 4081,
      "نين": 4082,
      "نشر": 4083,
      "مبا": 4084,
      "واض": 4085,
      "التعليم": 4086,
      "دل": 4087,
      "إف": 4088,
      "الكن": 4089,
      "مؤس": 4090,
      "لادي": 4091,
      "الدولية": 4092,
      "الكويت": 4093,
      "مط": 4094,
      "باست": 4095,
      "الثورة": 4096,
      "وادي": 4097,
      "أثر": 4098,
      "قض": 4099,
      "الدرا": 4100,
      "العاصمة": 4101,
      "العثمانية": 4102,
      "موج": 4103,
      "سطح": 4104,
      "النف": 4105,
      "فران": 4106,
      "ومي": 4107,
      "إليها": 4108,
      "العشرين": 4109,
      "والف": 4110,
      "جنة": 4111,
      "مستوى": 4112,
      "ليب": 4113,
      "ur": 4114,
      "حزب": 4115,
      "امات": 4116,
      "st": 4117,
      "لمون": 4118,
      "الترك": 4119,
      "وزير": 4120,
      "يزيد": 4121,
      "البريطاني": 4122,
      "ُلطان": 4123,
      "بواسطة": 4124,
      "لغة": 4125,
      "قامت": 4126,
      "le": 4127,
      "أفريقيا": 4128,
      "وله": 4129,
      "باح": 4130,
      "ذر": 4131,
      "لذلك": 4132,
      "الحرارة": 4133,
      "لأ": 4134,
      "صادي": 4135,
      "طوي": 4136,
      "محافظة": 4137,
      "تاح": 4138,
      "قُ": 4139,
      "واب": 4140,
      "علماء": 4141,
      "عائ": 4142,
      "قانون": 4143,
      "الأكثر": 4144,
      "وسية": 4145,
      "وتم": 4146,
      "رائي": 4147,
      "طاق": 4148,
      "حاليا": 4149,
      "ناة": 4150,
      "ورك": 4151,
      "الرح": 4152,
      "سلسلة": 4153,
      "نوبل": 4154,
      "روم": 4155,
      "خلا": 4156,
      "السياسي": 4157,
      "بكر": 4158,
      "والص": 4159,
      "وسيقى": 4160,
      "بو": 4161,
      "الحق": 4162,
      "السعودية": 4163,
      "وارد": 4164,
      "ذج": 4165,
      "العسكرية": 4166,
      "عز": 4167,
      "حاء": 4168,
      "قطاع": 4169,
      "اللا": 4170,
      "الرئيسية": 4171,
      "الحزب": 4172,
      "إدارة": 4173,
      "قطع": 4174,
      "عاصمة": 4175,
      "وتش": 4176,
      "ظهرت": 4177,
      "وحة": 4178,
      "لاحق": 4179,
      "مدر": 4180,
      "بحر": 4181,
      "الجمه": 4182,
      "بيد": 4183,
      "جو": 4184,
      "مرك": 4185,
      "الحديثة": 4186,
      "لَ": 4187,
      "لاحظ": 4188,
      "of": 4189,
      "دولار": 4190,
      "حب": 4191,
      "نج": 4192,
      "شعب": 4193,
      "الكتاب": 4194,
      "حيان": 4195,
      "يبلغ": 4196,
      "الحركة": 4197,
      "الكبير": 4198,
      "ويد": 4199,
      "العلماء": 4200,
      "المياه": 4201,
      "اهر": 4202,
      "الرئيسي": 4203,
      "الحديد": 4204,
      "اتها": 4205,
      "طفال": 4206,
      "أمام": 4207,
      "السادس": 4208,
      "2008": 4209,
      "سرعة": 4210,
      "إضافة": 4211,
      "كول": 4212,
      "يجب": 4213,
      "مساحة": 4214,
      "ساعد": 4215,
      "إسب": 4216,
      "زين": 4217,
      "غرا": 4218,
      "برن": 4219,
      "السلام": 4220,
      "سمح": 4221,
      "المعل": 4222,
      "الاسم": 4223,
      "وافق": 4224,
      "100": 4225,
      "التقلي": 4226,
      "كندر": 4227,
      "2006": 4228,
      "الرابع": 4229,
      "الجمع": 4230,
      "كال": 4231,
      "نيا": 4232,
      "فاض": 4233,
      "السابق": 4234,
      "يزن": 4235,
      "ch": 4236,
      "صحي": 4237,
      "ماً": 4238,
      "أرسل": 4239,
      "القرآن": 4240,
      "الإلكتر": 4241,
      "تأثير": 4242,
      "يَّة": 4243,
      "المخ": 4244,
      "إبراهيم": 4245,
      "المصرية": 4246,
      "جزاء": 4247,
      "عصر": 4248,
      "كين": 4249,
      "يقول": 4250,
      "راقي": 4251,
      "يقوم": 4252,
      "الداخل": 4253,
      "المش": 4254,
      "العثماني": 4255,
      "الجزائر": 4256,
      "علان": 4257,
      "2010": 4258,
      "أشخاص": 4259,
      "تحديد": 4260,
      "فصل": 4261,
      "يَ": 4262,
      "om": 4263,
      "ستور": 4264,
      "البروت": 4265,
      "ماع": 4266,
      "قه": 4267,
      "عود": 4268,
      "صناعة": 4269,
      "أسست": 4270,
      "وبي": 4271,
      "189": 4272,
      "اليابان": 4273,
      "منع": 4274,
      "ريس": 4275,
      "ابي": 4276,
      "الصين": 4277,
      "تستخدم": 4278,
      "منح": 4279,
      "فيد": 4280,
      "ناد": 4281,
      "عَ": 4282,
      "يعد": 4283,
      "فان": 4284,
      "أور": 4285,
      "فيذ": 4286,
      "الديمقرا": 4287,
      "الجديد": 4288,
      "الثامن": 4289,
      "أنحاء": 4290,
      "جبل": 4291,
      "يعرف": 4292,
      "دائ": 4293,
      "ليف": 4294,
      "80": 4295,
      "هاد": 4296,
      "ّر": 4297,
      "حاول": 4298,
      "وغيرها": 4299,
      "2005": 4300,
      "ظل": 4301,
      "كوك": 4302,
      "واة": 4303,
      "ويات": 4304,
      "الكبرى": 4305,
      "ائق": 4306,
      "ابل": 4307,
      "كامل": 4308,
      "ريك": 4309,
      "بيض": 4310,
      "َّى": 4311,
      "قائمة": 4312,
      "اقتصاد": 4313,
      "مجال": 4314,
      "ملا": 4315,
      "نب": 4316,
      "البريطانية": 4317,
      "حسن": 4318,
      "أمريكا": 4319,
      "الصلي": 4320,
      "مخ": 4321,
      "2009": 4322,
      "بغداد": 4323,
      "أنش": 4324,
      "يزة": 4325,
      "البعض": 4326,
      "2000": 4327,
      "بنى": 4328,
      "الرب": 4329,
      "ed": 4330,
      "عق": 4331,
      "المثال": 4332,
      "دمشق": 4333,
      "ريم": 4334,
      "تشر": 4335,
      "ترا": 4336,
      "نصف": 4337,
      "إعادة": 4338,
      "فهي": 4339,
      "ماية": 4340,
      "القدم": 4341,
      "والث": 4342,
      "باً": 4343,
      "الوحي": 4344,
      "نسب": 4345,
      "ندية": 4346,
      "التش": 4347,
      "إل": 4348,
      "القاهرة": 4349,
      "زيادة": 4350,
      "اليد": 4351,
      "أمير": 4352,
      "ئاسة": 4353,
      "يائي": 4354,
      "الاقت": 4355,
      "ابع": 4356,
      "باس": 4357,
      "مقد": 4358,
      "أنّ": 4359,
      "واص": 4360,
      "الخامس": 4361,
      "المواد": 4362,
      "العالمي": 4363,
      "كلمة": 4364,
      "العُ": 4365,
      "عامل": 4366,
      "حكومة": 4367,
      "عار": 4368,
      "الحص": 4369,
      "اما": 4370,
      "الحسن": 4371,
      "الجما": 4372,
      "الإمام": 4373,
      "حاب": 4374,
      "ربون": 4375,
      "باستخدام": 4376,
      "2007": 4377,
      "وهم": 4378,
      "قلة": 4379,
      "ويُ": 4380,
      "المتوسط": 4381,
      "الجزء": 4382,
      "and": 4383,
      "صدر": 4384,
      "البيزن": 4385,
      "دير": 4386,
      "بلا": 4387,
      "الإسب": 4388,
      "اشت": 4389,
      "حياته": 4390,
      "البل": 4391,
      "70": 4392,
      "الشام": 4393,
      "فهو": 4394,
      "بالأ": 4395,
      "تؤ": 4396,
      "tion": 4397,
      "فرد": 4398,
      "بَ": 4399,
      "للع": 4400,
      "35": 4401,
      "هان": 4402,
      "الأخيرة": 4403,
      "صغيرة": 4404,
      "قوة": 4405,
      "يستخدم": 4406,
      "كلية": 4407,
      "بذلك": 4408,
      "ينيات": 4409,
      "العلوم": 4410,
      "تشكل": 4411,
      "كوب": 4412,
      "يوس": 4413,
      "اجتما": 4414,
      "المسيحية": 4415,
      "المختلفة": 4416,
      "الدر": 4417,
      "الشرقي": 4418,
      "عى": 4419,
      "بأنه": 4420,
      "حض": 4421,
      "السُلطان": 4422,
      "أرض": 4423,
      "غو": 4424,
      "نظر": 4425,
      "الخارجية": 4426,
      "تطور": 4427,
      "دراسة": 4428,
      "سق": 4429,
      "الأوروبي": 4430,
      "طلح": 4431,
      "طاقة": 4432,
      "ريبة": 4433,
      "رائيلي": 4434,
      "كوين": 4435,
      "اتي": 4436,
      "أفضل": 4437,
      "الكنيسة": 4438,
      "القديم": 4439,
      "ؤول": 4440,
      "فقال": 4441,
      "بقيادة": 4442,
      "2011": 4443,
      "امت": 4444,
      "النها": 4445,
      "جب": 4446,
      "رفض": 4447,
      "وزارة": 4448,
      "زع": 4449,
      "وَّ": 4450,
      "الوزراء": 4451,
      "قليم": 4452,
      "et": 4453,
      "المه": 4454,
      "خلف": 4455,
      "تقل": 4456,
      "مالك": 4457,
      "وتن": 4458,
      "الاقتصادية": 4459,
      "الانت": 4460,
      "أواخر": 4461,
      "قيم": 4462,
      "يقع": 4463,
      "بريطانيا": 4464,
      "الحدود": 4465,
      "دد": 4466,
      "مرض": 4467,
      "قائد": 4468,
      "الأردن": 4469,
      "ولوجيا": 4470,
      "قاومة": 4471,
      "وانين": 4472,
      "أربعة": 4473,
      "الألمانية": 4474,
      "سوريا": 4475,
      "مير": 4476,
      "البار": 4477,
      "القب": 4478,
      "هيئة": 4479,
      "طاع": 4480,
      "المراجع": 4481,
      "الفلسطينية": 4482,
      "لندا": 4483,
      "يصل": 4484,
      "المل": 4485,
      "قاطعة": 4486,
      "نيف": 4487,
      "الأكبر": 4488,
      "والك": 4489,
      "لول": 4490,
      "المجلس": 4491,
      "خول": 4492,
      "يام": 4493,
      "َّد": 4494,
      "اليهود": 4495,
      "والده": 4496,
      "الأعمال": 4497,
      "وتح": 4498,
      "شيء": 4499,
      "بروت": 4500,
      "تقوم": 4501,
      "تحول": 4502,
      "نُ": 4503,
      "محم": 4504,
      "عبارة": 4505,
      "جاب": 4506,
      "الأمن": 4507,
      "تَ": 4508,
      "جلت": 4509,
      "فري": 4510,
      "مختلف": 4511,
      "كلا": 4512,
      "إنجلي": 4513,
      "تيم": 4514,
      "السري": 4515,
      "بب": 4516,
      "سير": 4517,
      "شارة": 4518,
      "يّ": 4519,
      "صادر": 4520,
      "هة": 4521,
      "وتو": 4522,
      "النو": 4523,
      "باشا": 4524,
      "الأسود": 4525,
      "اج": 4526,
      "مملكة": 4527,
      "بقى": 4528,
      "am": 4529,
      "يلي": 4530,
      "الأصل": 4531,
      "2004": 4532,
      "هرة": 4533,
      "اتحاد": 4534,
      "الإنجليزية": 4535,
      "بون": 4536,
      "نادي": 4537,
      "عامة": 4538,
      "نمو": 4539,
      "هاجر": 4540,
      "لمدة": 4541,
      "مكت": 4542,
      "ادية": 4543,
      "سيط": 4544,
      "طيع": 4545,
      "تسمى": 4546,
      "زال": 4547,
      "لسفة": 4548,
      "غيل": 4549,
      "تحقيق": 4550,
      "تان": 4551,
      "الجمهورية": 4552,
      "أسس": 4553,
      "جيم": 4554,
      "اللغات": 4555,
      "جهزة": 4556,
      "الخليفة": 4557,
      "بدو": 4558,
      "188": 4559,
      "العهد": 4560,
      "وبالتالي": 4561,
      "حرارة": 4562,
      "ويمكن": 4563,
      "الجسم": 4564,
      "مدرسة": 4565,
      "عنها": 4566,
      "عمليات": 4567,
      "أربع": 4568,
      "شة": 4569,
      "الإيط": 4570,
      "الرومانية": 4571,
      "الدينية": 4572,
      "لعاب": 4573,
      "النات": 4574,
      "فعل": 4575,
      "وهناك": 4576,
      "متح": 4577,
      "ملوك": 4578,
      "نه": 4579,
      "السنوات": 4580,
      "ورات": 4581,
      "حاصل": 4582,
      "as": 4583,
      "معا": 4584,
      "إمبراط": 4585,
      "سو": 4586,
      "بُ": 4587,
      "وسيا": 4588,
      "الأز": 4589,
      "re": 4590,
      "مرا": 4591,
      "التر": 4592,
      "عتقد": 4593,
      "المسيحي": 4594,
      "سُ": 4595,
      "سار": 4596,
      "حداث": 4597,
      "يخ": 4598,
      "قامة": 4599,
      "روسيا": 4600,
      "سد": 4601,
      "يتها": 4602,
      "كلي": 4603,
      "انو": 4604,
      "وفقًا": 4605,
      "يعود": 4606,
      "دينة": 4607,
      "الثقافة": 4608,
      "ومتر": 4609,
      "أحداث": 4610,
      "خمس": 4611,
      "المرا": 4612,
      "وته": 4613,
      "الأوروبية": 4614,
      "التد": 4615,
      "رَ": 4616,
      "ريقية": 4617,
      "جمالي": 4618,
      "فرنسي": 4619,
      "اضي": 4620,
      "صابة": 4621,
      "us": 4622,
      "فون": 4623,
      "اللات": 4624,
      "186": 4625,
      "المدر": 4626,
      "كاني": 4627,
      "زر": 4628,
      "فرض": 4629,
      "خصوص": 4630,
      "يض": 4631,
      "العسكري": 4632,
      "رنت": 4633,
      "تشمل": 4634,
      "ادات": 4635,
      "آثار": 4636,
      "تضم": 4637,
      "الأحمر": 4638,
      "خان": 4639,
      "المعلومات": 4640,
      "الهيدر": 4641,
      "الكاث": 4642,
      "وليس": 4643,
      "سيطر": 4644,
      "تقري": 4645,
      "187": 4646,
      "لام": 4647,
      "اليمن": 4648,
      "قار": 4649,
      "الملا": 4650,
      "ذاك": 4651,
      "إسلام": 4652,
      "فاعل": 4653,
      "الفلك": 4654,
      "سعيد": 4655,
      "جبال": 4656,
      "إيطاليا": 4657,
      "راث": 4658,
      "ومية": 4659,
      "التجارة": 4660,
      "نقطة": 4661,
      "التأ": 4662,
      "البط": 4663,
      "رقم": 4664,
      "جُ": 4665,
      "العصور": 4666,
      "الداخلية": 4667,
      "الرحمن": 4668,
      "ذب": 4669,
      "خطوط": 4670,
      "الطبيعية": 4671,
      "غيير": 4672,
      "خار": 4673,
      "الزمن": 4674,
      "حقوق": 4675,
      "الحكوم": 4676,
      "قصر": 4677,
      "كلم": 4678,
      "الكب": 4679,
      "تحتوي": 4680,
      "تكن": 4681,
      "يان": 4682,
      "الشكل": 4683,
      "المعا": 4684,
      "ؤلاء": 4685,
      "وها": 4686,
      "ديل": 4687,
      "عمار": 4688,
      "وعية": 4689,
      "سري": 4690,
      "صاح": 4691,
      "ent": 4692,
      "محد": 4693,
      "انيين": 4694,
      "مقر": 4695,
      "الراب": 4696,
      "أَ": 4697,
      "واصل": 4698,
      "ثورة": 4699,
      "عددة": 4700,
      "ro": 4701,
      "صورة": 4702,
      "اتهم": 4703,
      "الأبيض": 4704,
      "ولايات": 4705,
      "صدار": 4706,
      "المحيط": 4707,
      "جاج": 4708,
      "خة": 4709,
      "عان": 4710,
      "ac": 4711,
      "القدس": 4712,
      "حاكم": 4713,
      "ونيا": 4714,
      "الطرق": 4715,
      "سطن": 4716,
      "يعمل": 4717,
      "ظهور": 4718,
      "البحرية": 4719,
      "تطوير": 4720,
      "العليا": 4721,
      "ائع": 4722,
      "فسير": 4723,
      "هِ": 4724,
      "النص": 4725,
      "المض": 4726,
      "سباب": 4727,
      "بحث": 4728,
      "انه": 4729,
      "التع": 4730,
      "بحيث": 4731,
      "عشرة": 4732,
      "وتا": 4733,
      "وأك": 4734,
      "31": 4735,
      "العظ": 4736,
      "عليهم": 4737,
      "2003": 4738,
      "قرية": 4739,
      "بالك": 4740,
      "واسع": 4741,
      "جماعة": 4742,
      "وحيد": 4743,
      "رام": 4744,
      "معنى": 4745,
      "شيد": 4746,
      "لبنان": 4747,
      "انته": 4748,
      "رغم": 4749,
      "لته": 4750,
      "il": 4751,
      "وكل": 4752,
      "العناصر": 4753,
      "شن": 4754,
      "انيون": 4755,
      "الكاثولي": 4756,
      "الإسكندر": 4757,
      "المحلي": 4758,
      "الجامعة": 4759,
      "المؤرخ": 4760,
      "ترنت": 4761,
      "عالية": 4762,
      "ظاهر": 4763,
      "لاة": 4764,
      "كاتب": 4765,
      "تمي": 4766,
      "باك": 4767,
      "تصل": 4768,
      "طرق": 4769,
      "تمث": 4770,
      "الـ": 4771,
      "2012": 4772,
      "اعتبار": 4773,
      "الروا": 4774,
      "الاستقلال": 4775,
      "الأخير": 4776,
      "هات": 4777,
      "الاخت": 4778,
      "بعضها": 4779,
      "حياة": 4780,
      "الأند": 4781,
      "واجه": 4782,
      "مثال": 4783,
      "وعي": 4784,
      "قيام": 4785,
      "وزيع": 4786,
      "باء": 4787,
      "الخص": 4788,
      "الفلسطيني": 4789,
      "المسجد": 4790,
      "المجموعة": 4791,
      "ثناء": 4792,
      "سيمات": 4793,
      "رسم": 4794,
      "المرض": 4795,
      "خصص": 4796,
      "التجارية": 4797,
      "أج": 4798,
      "العص": 4799,
      "وسائل": 4800,
      "عسكري": 4801,
      "المعد": 4802,
      "يسمى": 4803,
      "لاط": 4804,
      "الجم": 4805,
      "لهذا": 4806,
      "ماعيل": 4807,
      "90": 4808,
      "ويم": 4809,
      "الكم": 4810,
      "اكتشاف": 4811,
      "ناب": 4812,
      "أعلن": 4813,
      "حُ": 4814,
      "واعد": 4815,
      "باريس": 4816,
      "السابع": 4817,
      "راكز": 4818,
      "المحلية": 4819,
      "الميلادي": 4820,
      "وبعض": 4821,
      "الاشت": 4822,
      "يوسف": 4823,
      "ائف": 4824,
      "العض": 4825,
      "un": 4826,
      "الفض": 4827,
      "طريقة": 4828,
      "الإسرائيلي": 4829,
      "قرب": 4830,
      "علق": 4831,
      "الولاية": 4832,
      "أساس": 4833,
      "المجا": 4834,
      "الضوء": 4835,
      "شم": 4836,
      "كنيسة": 4837,
      "لقب": 4838,
      "المط": 4839,
      "وسع": 4840,
      "التاريخية": 4841,
      "مليار": 4842,
      "لون": 4843,
      "الصف": 4844,
      "دن": 4845,
      "نفسها": 4846,
      "زيد": 4847,
      "عاية": 4848,
      "الثلاث": 4849,
      "والب": 4850,
      "ّي": 4851,
      "قطر": 4852,
      "الأساسية": 4853,
      "طويلة": 4854,
      "نطاق": 4855,
      "امر": 4856,
      "مباشرة": 4857,
      "لان": 4858,
      "لاك": 4859,
      "جال": 4860,
      "جمة": 4861,
      "ًّا": 4862,
      "العُثماني": 4863,
      "المصادر": 4864,
      "بالس": 4865,
      "ولات": 4866,
      "المعاد": 4867,
      "شاه": 4868,
      "خالد": 4869,
      "رجل": 4870,
      "سورة": 4871,
      "كير": 4872,
      "برت": 4873,
      "الموجودة": 4874,
      "أقدم": 4875,
      "بالف": 4876,
      "ؤون": 4877,
      "العب": 4878,
      "أبرز": 4879,
      "النهر": 4880,
      "أسماء": 4881,
      "نصر": 4882,
      "يدة": 4883,
      "وبد": 4884,
      "زمن": 4885,
      "النبات": 4886,
      "الطريق": 4887,
      "أسر": 4888,
      "برنامج": 4889,
      "ليست": 4890,
      "ساهم": 4891,
      "شعر": 4892,
      "للغ": 4893,
      "ثنا": 4894,
      "سلسل": 4895,
      "يؤدي": 4896,
      "خمسة": 4897,
      "الموقع": 4898,
      "ماك": 4899,
      "الاجتماعية": 4900,
      "العلاقات": 4901,
      "تمثل": 4902,
      "تعمل": 4903,
      "المؤس": 4904,
      "صال": 4905,
      "استمر": 4906,
      "الخلايا": 4907,
      "الكبيرة": 4908,
      "سوق": 4909,
      "غن": 4910,
      "تعال": 4911,
      "أمين": 4912,
      "أهمية": 4913,
      "33": 4914,
      "فاظ": 4915,
      "تقدم": 4916,
      "وُ": 4917,
      "والخ": 4918,
      "يرا": 4919,
      "ig": 4920,
      "قصى": 4921,
      "للا": 4922,
      "هؤلاء": 4923,
      "الإمبراطور": 4924,
      "ماس": 4925,
      "بنت": 4926,
      "جلترا": 4927,
      "حسين": 4928,
      "فاقية": 4929,
      "ماي": 4930,
      "كتابه": 4931,
      "أمريكية": 4932,
      "ing": 4933,
      "وحتى": 4934,
      "ّى": 4935,
      "الانتخابات": 4936,
      "القص": 4937,
      "تنظيم": 4938,
      "مشروع": 4939,
      "المجر": 4940,
      "المشت": 4941,
      "حاس": 4942,
      "تفع": 4943,
      "شد": 4944,
      "الشعبية": 4945,
      "دفع": 4946,
      "الملكية": 4947,
      "قيمة": 4948,
      "45": 4949,
      "ثاني": 4950,
      "فتر": 4951,
      "لند": 4952,
      "الواق": 4953,
      "فاء": 4954,
      "إسبانيا": 4955,
      "انس": 4956,
      "ائج": 4957,
      "حمد": 4958,
      "جاح": 4959,
      "تطبي": 4960,
      "منصب": 4961,
      "زاد": 4962,
      "id": 4963,
      "عديدة": 4964,
      "أوائل": 4965,
      "راح": 4966,
      "ذو": 4967,
      "قَ": 4968,
      "الدفاع": 4969,
      "ِن": 4970,
      "قدي": 4971,
      "والج": 4972,
      "الإخ": 4973,
      "الني": 4974,
      "شبكة": 4975,
      "48": 4976,
      "خير": 4977,
      "كاف": 4978,
      "معدل": 4979,
      "وتقع": 4980,
      "ماري": 4981,
      "المادة": 4982,
      "سنان": 4983,
      "انتشار": 4984,
      "النب": 4985,
      "الأما": 4986,
      "أطلق": 4987,
      "نور": 4988,
      "تبلغ": 4989,
      "النوع": 4990,
      "العملية": 4991,
      "واسعة": 4992,
      "ساوي": 4993,
      "فلا": 4994,
      "لغات": 4995,
      "لور": 4996,
      "2001": 4997,
      "صوت": 4998,
      "طائ": 4999,
      "بنية": 5000,
      "محمود": 5001,
      "الين": 5002,
      "وسا": 5003,
      "روي": 5004,
      "قيادة": 5005,
      "موسى": 5006,
      "الصليبي": 5007,
      "ّن": 5008,
      "يعتقد": 5009,
      "كتابة": 5010,
      "فو": 5011,
      "البا": 5012,
      "عضو": 5013,
      "36": 5014,
      "وليد": 5015,
      "ريش": 5016,
      "معه": 5017,
      "تمل": 5018,
      "اللبن": 5019,
      "مصادر": 5020,
      "خدمة": 5021,
      "عاون": 5022,
      "رأ": 5023,
      "زرا": 5024,
      "اليه": 5025,
      "إيران": 5026,
      "حجم": 5027,
      "طبق": 5028,
      "لقد": 5029,
      "الجان": 5030,
      "الشعر": 5031,
      "وكالة": 5032,
      "اعات": 5033,
      "المدارس": 5034,
      "النمو": 5035,
      "التالية": 5036,
      "لعام": 5037,
      "لأنه": 5038,
      "داية": 5039,
      "الاقتصادي": 5040,
      "لهذه": 5041,
      "ائص": 5042,
      "شير": 5043,
      "نان": 5044,
      "درجات": 5045,
      "بالقرب": 5046,
      "ثقافة": 5047,
      "فكان": 5048,
      "يث": 5049,
      "الأدب": 5050,
      "ستة": 5051,
      "تو": 5052,
      "كسي": 5053,
      "الرسمية": 5054,
      "تعرف": 5055,
      "مرات": 5056,
      "مجموع": 5057,
      "آلاف": 5058,
      "مكة": 5059,
      "مسجد": 5060,
      "تعرض": 5061,
      "غاز": 5062,
      "موت": 5063,
      "سابق": 5064,
      "النمسا": 5065,
      "رُ": 5066,
      "رجال": 5067,
      "الألماني": 5068,
      "حديث": 5069,
      "البحث": 5070,
      "السودان": 5071,
      "تميز": 5072,
      "وفاته": 5073,
      "تقديم": 5074,
      "الغاز": 5075,
      "أراضي": 5076,
      "الشركة": 5077,
      "إنجلترا": 5078,
      "شيخ": 5079,
      "انق": 5080,
      "قاعدة": 5081,
      "ابعة": 5082,
      "تشكيل": 5083,
      "شفى": 5084,
      "بأنها": 5085,
      "دعم": 5086,
      "دت": 5087,
      "):": 5088,
      "الرق": 5089,
      "عمرو": 5090,
      "الحيوانات": 5091,
      "لأول": 5092,
      "جير": 5093,
      "غار": 5094,
      "المذ": 5095,
      "قاليم": 5096,
      "فهم": 5097,
      "ابتد": 5098,
      "بهة": 5099,
      "هنري": 5100,
      "خري": 5101,
      "عون": 5102,
      "قناة": 5103,
      "هز": 5104,
      "راءة": 5105,
      "أجزاء": 5106,
      "ورو": 5107,
      "فأ": 5108,
      "أنهم": 5109,
      "البرتغ": 5110,
      "البرلمان": 5111,
      "الشمالي": 5112,
      "تمكن": 5113,
      "علام": 5114,
      "والر": 5115,
      "منتصف": 5116,
      "حساب": 5117,
      "وعندما": 5118,
      "ويورك": 5119,
      "يمان": 5120,
      "بانية": 5121,
      "فَ": 5122,
      "البن": 5123,
      "قيد": 5124,
      "إسماعيل": 5125,
      "باللغة": 5126,
      "النساء": 5127,
      "أماكن": 5128,
      "المعروف": 5129,
      "السابقة": 5130,
      "وهذه": 5131,
      "الثالثة": 5132,
      "الغذ": 5133,
      "جاوز": 5134,
      "سليم": 5135,
      "اليونانية": 5136,
      "رون": 5137,
      "أغلب": 5138,
      "ثابت": 5139,
      "الحالة": 5140,
      "the": 5141,
      "سلم": 5142,
      "مربع": 5143,
      "مقاطعة": 5144,
      "ويق": 5145,
      "سلطان": 5146,
      "ترب": 5147,
      "فيروس": 5148,
      "هري": 5149,
      "الأقل": 5150,
      "جهاز": 5151,
      "بيروت": 5152,
      "صرة": 5153,
      "وامل": 5154,
      "كثيرة": 5155,
      "الكيميائية": 5156,
      "سياسة": 5157,
      "بالع": 5158,
      "كذا": 5159,
      "نو": 5160,
      "2002": 5161,
      "معينة": 5162,
      "النيل": 5163,
      "واجد": 5164,
      "2014": 5165,
      "المعار": 5166,
      "انتخاب": 5167,
      "لندن": 5168,
      "النقل": 5169,
      "مواقع": 5170,
      "اهدة": 5171,
      "بيلة": 5172,
      "اعتق": 5173,
      "1991": 5174,
      "ينغ": 5175,
      "الروسية": 5176,
      "ظروف": 5177,
      "مرحلة": 5178,
      "شاعر": 5179,
      "متوسط": 5180,
      "تحمل": 5181,
      "تبط": 5182,
      "السياسة": 5183,
      "ra": 5184,
      "2013": 5185,
      "2015": 5186,
      "الفيزياء": 5187,
      "الفار": 5188,
      "عط": 5189,
      "مئ": 5190,
      "سعود": 5191,
      "بنسبة": 5192,
      "خطط": 5193,
      "النفط": 5194,
      "ارا": 5195,
      "يطرة": 5196,
      "عثمان": 5197,
      "البلدان": 5198,
      "الواقع": 5199,
      "الأوسط": 5200,
      "الصغيرة": 5201,
      "سفي": 5202,
      "مقتل": 5203,
      "لفاء": 5204,
      "الخلافة": 5205,
      "عص": 5206,
      "لاسي": 5207,
      "القا": 5208,
      "سلوب": 5209,
      "محاولة": 5210,
      "الأل": 5211,
      "معاهدة": 5212,
      "37": 5213,
      "سور": 5214,
      "ِي": 5215,
      "قافي": 5216,
      "1990": 5217,
      "المجال": 5218,
      "داب": 5219,
      "للن": 5220,
      "معل": 5221,
      "ائري": 5222,
      "اصط": 5223,
      "مشت": 5224,
      "الأق": 5225,
      "جزر": 5226,
      "أفراد": 5227,
      "القوة": 5228,
      "بهم": 5229,
      "العظم": 5230,
      "بيا": 5231,
      "عنوان": 5232,
      "سلمين": 5233,
      "يعني": 5234,
      "عبير": 5235,
      "الخليج": 5236,
      "أعم": 5237,
      "لكنه": 5238,
      "القل": 5239,
      "باعت": 5240,
      "التحرير": 5241,
      "ضرب": 5242,
      "تيب": 5243,
      "سواء": 5244,
      "الأغ": 5245,
      "بدء": 5246,
      "المناخ": 5247,
      "كيلومتر": 5248,
      "العمر": 5249,
      "العلمية": 5250,
      "القض": 5251,
      "سليمان": 5252,
      "فريد": 5253,
      "انع": 5254,
      "الأب": 5255,
      "إطلاق": 5256,
      "يغ": 5257,
      "القمر": 5258,
      "معاد": 5259,
      "مادة": 5260,
      "لويس": 5261,
      "الزراعة": 5262,
      "طرا": 5263,
      "um": 5264,
      "ابنه": 5265,
      "السوفيتي": 5266,
      "ّد": 5267,
      "وبية": 5268,
      "خدمات": 5269,
      "الحالي": 5270,
      "يحدث": 5271,
      "تونس": 5272,
      "ارع": 5273,
      "إخ": 5274,
      "فريق": 5275,
      "القت": 5276,
      "سبق": 5277,
      "1999": 5278,
      "الصحي": 5279,
      "البابا": 5280,
      "الخر": 5281,
      "هداف": 5282,
      "النس": 5283,
      "مجت": 5284,
      "شاكل": 5285,
      "الرومان": 5286,
      "الجزي": 5287,
      "رائيلية": 5288,
      "وبات": 5289,
      "وراء": 5290,
      "ناط": 5291,
      "185": 5292,
      "الإنترنت": 5293,
      "شاركة": 5294,
      "فكرة": 5295,
      "الرسمي": 5296,
      "تعود": 5297,
      "أصول": 5298,
      "زون": 5299,
      "زايد": 5300,
      "روما": 5301,
      "مكون": 5302,
      "سياسية": 5303,
      "بهذا": 5304,
      "جدا": 5305,
      "تجات": 5306,
      "مؤلف": 5307,
      "الإسرائيلية": 5308,
      "التقليدية": 5309,
      "الحصول": 5310,
      "المخت": 5311,
      "شعاع": 5312,
      "مهم": 5313,
      "زام": 5314,
      "ائلة": 5315,
      "الدكت": 5316,
      "الطبيعي": 5317,
      "للق": 5318,
      "الإنتاج": 5319,
      "...": 5320,
      "قابل": 5321,
      "تغير": 5322,
      "ففي": 5323,
      "عناصر": 5324,
      "افات": 5325,
      "ولكنه": 5326,
      "حدوث": 5327,
      "فإنه": 5328,
      "لج": 5329,
      "راوح": 5330,
      "الديمقراطية": 5331,
      "بدور": 5332,
      "فلام": 5333,
      "رسول": 5334,
      "البيزنطي": 5335,
      "هون": 5336,
      "المكت": 5337,
      "الآثار": 5338,
      "65": 5339,
      "وسيقي": 5340,
      "فهوم": 5341,
      "38": 5342,
      "الذهب": 5343,
      "ومنها": 5344,
      "طوير": 5345,
      "إجراء": 5346,
      "حال": 5347,
      "تشي": 5348,
      "فاف": 5349,
      "عمان": 5350,
      "لهة": 5351,
      "تمت": 5352,
      "متعددة": 5353,
      "المرحلة": 5354,
      "تزال": 5355,
      "إفريقيا": 5356,
      "الأي": 5357,
      "وطن": 5358,
      "الأعلى": 5359,
      "الشري": 5360,
      "اللاتينية": 5361,
      "ثين": 5362,
      "ريح": 5363,
      "القلب": 5364,
      "إير": 5365,
      "جح": 5366,
      "غزة": 5367,
      "السر": 5368,
      "السيطرة": 5369,
      "تية": 5370,
      "جوز": 5371,
      "الأطفال": 5372,
      "بدا": 5373,
      "الطريقة": 5374,
      "كبي": 5375,
      "لتح": 5376,
      "بعدها": 5377,
      "علن": 5378,
      "وقام": 5379,
      "الهواء": 5380,
      "مقابل": 5381,
      "لفزي": 5382,
      "سيطرة": 5383,
      "يتي": 5384,
      "تشير": 5385,
      "مخت": 5386,
      "كأس": 5387,
      "منة": 5388,
      "يزال": 5389,
      "الناتج": 5390,
      "نوعة": 5391,
      "وخاصة": 5392,
      "العدد": 5393,
      "نجد": 5394,
      "الأكس": 5395,
      "ديو": 5396,
      "ائدة": 5397,
      "صرف": 5398,
      "شارك": 5399,
      "صاحب": 5400,
      "75": 5401,
      "ويين": 5402,
      "المعروفة": 5403,
      "ضغط": 5404,
      "النق": 5405,
      "ضح": 5406,
      "كتلة": 5407,
      "أشكال": 5408,
      "ad": 5409,
      "علوم": 5410,
      "فرق": 5411,
      "بحلول": 5412,
      "زيم": 5413,
      "كش": 5414,
      "بلدية": 5415,
      "تبة": 5416,
      "الذه": 5417,
      "آنذاك": 5418,
      "الرياضيات": 5419,
      "الجنوبي": 5420,
      "لقى": 5421,
      "بدون": 5422,
      "الاشترا": 5423,
      "راسة": 5424,
      "البشرية": 5425,
      "لائ": 5426,
      "الإنس": 5427,
      "يحتوي": 5428,
      "بنفس": 5429,
      "رال": 5430,
      "المعم": 5431,
      "لكرة": 5432,
      "سلطة": 5433,
      "ثلث": 5434,
      "فيلم": 5435,
      "يمثل": 5436,
      "المدرسة": 5437,
      "جية": 5438,
      "حف": 5439,
      "دائرة": 5440,
      "زاب": 5441,
      "الكربون": 5442,
      "لوك": 5443,
      "مسي": 5444,
      "كد": 5445,
      "حمل": 5446,
      "كارل": 5447,
      "ذه": 5448,
      "يطلق": 5449,
      "فيز": 5450,
      "سكانها": 5451,
      "مدى": 5452,
      "مطار": 5453,
      "الته": 5454,
      "ادل": 5455,
      "وسوف": 5456,
      "نيات": 5457,
      "لاسفة": 5458,
      "العراقي": 5459,
      "الجها": 5460,
      "الصناعية": 5461,
      "جيمس": 5462,
      "39": 5463,
      "نبات": 5464,
      "ناف": 5465,
      "يوش": 5466,
      "الكيمياء": 5467,
      "op": 5468,
      "em": 5469,
      "فكر": 5470,
      "الشت": 5471,
      "يسية": 5472,
      "يعيش": 5473,
      "2017": 5474,
      "واكب": 5475,
      "ليين": 5476,
      "جزي": 5477,
      "النظر": 5478,
      "الشب": 5479,
      "الفضاء": 5480,
      "خفاض": 5481,
      "غز": 5482,
      "th": 5483,
      "الوق": 5484,
      "180": 5485,
      "سكي": 5486,
      "حلب": 5487,
      "1948": 5488,
      "الحاس": 5489,
      "صنع": 5490,
      "واط": 5491,
      "والاست": 5492,
      "الكر": 5493,
      "بحاث": 5494,
      "سوى": 5495,
      "ناطي": 5496,
      "حملة": 5497,
      "دى": 5498,
      "موض": 5499,
      "ولت": 5500,
      "يْ": 5501,
      "يجعل": 5502,
      "1967": 5503,
      "شركات": 5504,
      "قرر": 5505,
      "القبائل": 5506,
      "رين": 5507,
      "الجبل": 5508,
      "بينها": 5509,
      "تبع": 5510,
      "خور": 5511,
      "لط": 5512,
      "المب": 5513,
      "الجوية": 5514,
      "رسالة": 5515,
      "المسلمون": 5516,
      "34": 5517,
      "تظهر": 5518,
      "ريض": 5519,
      "تعني": 5520,
      "صن": 5521,
      "تتكون": 5522,
      "مقار": 5523,
      "ثانية": 5524,
      "فرع": 5525,
      "مهمة": 5526,
      "الور": 5527,
      "قصة": 5528,
      "تلر": 5529,
      "500": 5530,
      "سَ": 5531,
      "ريت": 5532,
      "ازد": 5533,
      "الواقعة": 5534,
      "خمة": 5535,
      "عظ": 5536,
      "الموسيقى": 5537,
      "شية": 5538,
      "برية": 5539,
      "الصوت": 5540,
      "تاين": 5541,
      "الضغط": 5542,
      "ولو": 5543,
      "إمكان": 5544,
      "الكتب": 5545,
      "سعد": 5546,
      "عامي": 5547,
      "1998": 5548,
      "عنصر": 5549,
      "بعاد": 5550,
      "طفى": 5551,
      "أصدر": 5552,
      "كالي": 5553,
      "وائية": 5554,
      "قته": 5555,
      "ذور": 5556,
      "العق": 5557,
      "32": 5558,
      "صالات": 5559,
      "الدوري": 5560,
      "كمية": 5561,
      "حرف": 5562,
      "وصلت": 5563,
      "اليهودية": 5564,
      "ترف": 5565,
      "زار": 5566,
      "علاقة": 5567,
      "ليم": 5568,
      "بيع": 5569,
      "اللون": 5570,
      "بقية": 5571,
      "مصطلح": 5572,
      "الحملة": 5573,
      "انوية": 5574,
      "جيب": 5575,
      "امتد": 5576,
      "الروماني": 5577,
      "الوحيد": 5578,
      "أط": 5579,
      "بعده": 5580,
      "الكهربائية": 5581,
      "1994": 5582,
      "مجموعات": 5583,
      "الجمعية": 5584,
      "الحال": 5585,
      "وجهة": 5586,
      "لعب": 5587,
      "الحقي": 5588,
      "القوى": 5589,
      "مصدر": 5590,
      "العملي": 5591,
      "فاوض": 5592,
      "شاهد": 5593,
      "هلية": 5594,
      "اتب": 5595,
      "الحل": 5596,
      "جمال": 5597,
      "ation": 5598,
      "دُ": 5599,
      "شام": 5600,
      "ضان": 5601,
      "مياه": 5602,
      "تعيين": 5603,
      "برمج": 5604,
      "الهيدروجين": 5605,
      "أذ": 5606,
      "راس": 5607,
      "الإغ": 5608,
      "خلق": 5609,
      "مارك": 5610,
      "ul": 5611,
      "إقليم": 5612,
      "سوا": 5613,
      "المق": 5614,
      "جلس": 5615,
      "ديان": 5616,
      "أبناء": 5617,
      "مائ": 5618,
      "يرية": 5619,
      "وأصبح": 5620,
      "ده": 5621,
      "اتجاه": 5622,
      "اعتماد": 5623,
      "عبة": 5624,
      "قق": 5625,
      "متحف": 5626,
      "كَ": 5627,
      "النسب": 5628,
      "فلم": 5629,
      "تقريب": 5630,
      "2016": 5631,
      "ناطيسي": 5632,
      "القائ": 5633,
      "أوب": 5634,
      "الهول": 5635,
      "أض": 5636,
      "أعداد": 5637,
      "البد": 5638,
      "َّام": 5639,
      "مسلم": 5640,
      "تض": 5641,
      "هرجان": 5642,
      "انتهاء": 5643,
      "بطولة": 5644,
      "The": 5645,
      "وسام": 5646,
      "العبا": 5647,
      "القاد": 5648,
      "شرف": 5649,
      "os": 5650,
      "خلص": 5651,
      "ويتي": 5652,
      "كتي": 5653,
      "التشري": 5654,
      "محطة": 5655,
      "عاش": 5656,
      "ساد": 5657,
      "سوف": 5658,
      "ميز": 5659,
      "ولين": 5660,
      "البيانات": 5661,
      "الأندلس": 5662,
      "واز": 5663,
      "كادي": 5664,
      "مؤتمر": 5665,
      "يظهر": 5666,
      "العا": 5667,
      "الكلاسي": 5668,
      "عامًا": 5669,
      "1992": 5670,
      "ثرية": 5671,
      "تعريف": 5672,
      "جسم": 5673,
      "راغ": 5674,
      "النار": 5675,
      "أتي": 5676,
      "بث": 5677,
      "عسكرية": 5678,
      "والز": 5679,
      "ظة": 5680,
      "السويس": 5681,
      "الجوي": 5682,
      "الشهر": 5683,
      "بارك": 5684,
      "فاد": 5685,
      "المرأة": 5686,
      "خليفة": 5687,
      "يور": 5688,
      "يشكل": 5689,
      "كُ": 5690,
      "ّه": 5691,
      "قلية": 5692,
      "ولية": 5693,
      "الباح": 5694,
      "الزيت": 5695,
      "المقدس": 5696,
      "الأحيان": 5697,
      "وزن": 5698,
      "باعتبار": 5699,
      "الانتق": 5700,
      "بلدان": 5701,
      "الجة": 5702,
      "المحي": 5703,
      "النجوم": 5704,
      "سقوط": 5705,
      "تمتلك": 5706,
      "الطبيعة": 5707,
      "واي": 5708,
      "أدت": 5709,
      "رى": 5710,
      "شح": 5711,
      "الجغرا": 5712,
      "النفس": 5713,
      "فيت": 5714,
      "المذهب": 5715,
      "الماضي": 5716,
      "ريقي": 5717,
      "الحسين": 5718,
      "المستوى": 5719,
      "شط": 5720,
      "عنى": 5721,
      "الدستور": 5722,
      "جرى": 5723,
      "1996": 5724,
      "فيزياء": 5725,
      "المحت": 5726,
      "للد": 5727,
      "برامج": 5728,
      "قلعة": 5729,
      "حالات": 5730,
      "نَ": 5731,
      "44": 5732,
      "وأم": 5733,
      "فاز": 5734,
      "قاء": 5735,
      "مدار": 5736,
      "بعيد": 5737,
      "الدراسات": 5738,
      "فال": 5739,
      "الحي": 5740,
      "هرم": 5741,
      "شهدت": 5742,
      "الأط": 5743,
      "يتكون": 5744,
      "عربية": 5745,
      "المالية": 5746,
      "ويتم": 5747,
      "النظرية": 5748,
      "الفق": 5749,
      "1980": 5750,
      "1945": 5751,
      "تقسيم": 5752,
      "بالغ": 5753,
      "البداية": 5754,
      "قرأ": 5755,
      "ماليك": 5756,
      "مرور": 5757,
      "سطنط": 5758,
      "رسمي": 5759,
      "ميت": 5760,
      "المسلحة": 5761,
      "تعا": 5762,
      "مصرية": 5763,
      "رغ": 5764,
      "ونه": 5765,
      "التابعة": 5766,
      "مارات": 5767,
      "حمَّد": 5768,
      "قبر": 5769,
      "ناس": 5770,
      "وقعت": 5771,
      "وحات": 5772,
      "خلاف": 5773,
      "ناحية": 5774,
      "باه": 5775,
      "جنب": 5776,
      "أعلنت": 5777,
      "الإسكندرية": 5778,
      "مجتمع": 5779,
      "99": 5780,
      "الْ": 5781,
      "تركيا": 5782,
      "ريخ": 5783,
      "الأنواع": 5784,
      "\".": 5785,
      "إست": 5786,
      "ّم": 5787,
      "اليم": 5788,
      "حقق": 5789,
      "مور": 5790,
      "الاحتلال": 5791,
      "ديقة": 5792,
      "الوصول": 5793,
      "ومؤ": 5794,
      "ائه": 5795,
      "خفضة": 5796,
      "بالح": 5797,
      "ثوذ": 5798,
      "حدد": 5799,
      "ميناء": 5800,
      "العلاج": 5801,
      "برج": 5802,
      "تيال": 5803,
      "الساحل": 5804,
      "1989": 5805,
      "ضعف": 5806,
      "رئيسي": 5807,
      "وبا": 5808,
      "باقي": 5809,
      "ia": 5810,
      "ميد": 5811,
      "الرياضية": 5812,
      "الثلاثة": 5813,
      "بالر": 5814,
      "ــ": 5815,
      "يفة": 5816,
      "حتَّى": 5817,
      "بسرعة": 5818,
      "الما": 5819,
      "خطر": 5820,
      "مول": 5821,
      "الصينية": 5822,
      "استطاع": 5823,
      "وتُ": 5824,
      "الفريق": 5825,
      "قادة": 5826,
      "بادئ": 5827,
      "بوا": 5828,
      "خرة": 5829,
      "شرح": 5830,
      "الأسرة": 5831,
      "ُمَّ": 5832,
      "والغ": 5833,
      "هنا": 5834,
      "اسمه": 5835,
      "الاجتماعي": 5836,
      "التف": 5837,
      "هتلر": 5838,
      "وابن": 5839,
      "ويلي": 5840,
      "ظمات": 5841,
      "التسمية": 5842,
      "بعث": 5843,
      "اختيار": 5844,
      "تعالى": 5845,
      "ثور": 5846,
      "طائرة": 5847,
      "الطائ": 5848,
      "1997": 5849,
      "de": 5850,
      "موز": 5851,
      "رسال": 5852,
      "بج": 5853,
      "مُحمَّد": 5854,
      "ويه": 5855,
      "الأساسي": 5856,
      "الصحراء": 5857,
      "قرا": 5858,
      "الست": 5859,
      "اريا": 5860,
      "لكي": 5861,
      "إعلان": 5862,
      "وند": 5863,
      "مائة": 5864,
      "وتت": 5865,
      "حجر": 5866,
      "المكان": 5867,
      "الصحية": 5868,
      "أمريكيون": 5869,
      "السياحة": 5870,
      "البناء": 5871,
      "حيوان": 5872,
      "درس": 5873,
      "الأو": 5874,
      "حاق": 5875,
      "ألة": 5876,
      "لـ": 5877,
      "الأه": 5878,
      "لندي": 5879,
      "دري": 5880,
      "شأ": 5881,
      "وافقة": 5882,
      "صاص": 5883,
      "جمات": 5884,
      "تخب": 5885,
      "برة": 5886,
      "صلة": 5887,
      "طنة": 5888,
      "عاص": 5889,
      "المحافظة": 5890,
      "الجهاز": 5891,
      "الأحداث": 5892,
      "ناه": 5893,
      "تابعة": 5894,
      "عدا": 5895,
      "سيطة": 5896,
      "النز": 5897,
      "بينهم": 5898,
      "وكب": 5899,
      "دمات": 5900,
      "كك": 5901,
      "يرى": 5902,
      "المؤتمر": 5903,
      "49": 5904,
      "سف": 5905,
      "شخصية": 5906,
      "نائس": 5907,
      "الكاثوليكية": 5908,
      "هيل": 5909,
      "تعتمد": 5910,
      "رواية": 5911,
      "بوب": 5912,
      "حام": 5913,
      "ذية": 5914,
      "لُ": 5915,
      "300": 5916,
      "1995": 5917,
      "الرسول": 5918,
      "المحا": 5919,
      "ربية": 5920,
      "حَ": 5921,
      "حكوم": 5922,
      "عدام": 5923,
      "حصول": 5924,
      "ألماني": 5925,
      "كهرب": 5926,
      "قلب": 5927,
      "عكس": 5928,
      "رئاسة": 5929,
      "تقلي": 5930,
      "اصيل": 5931,
      "عرفت": 5932,
      "تنفيذ": 5933,
      "ذرة": 5934,
      "فارس": 5935,
      "الموس": 5936,
      "أساسي": 5937,
      "باكستان": 5938,
      "إلكتر": 5939,
      "التنا": 5940,
      "لله": 5941,
      "وهكذا": 5942,
      "الملكي": 5943,
      "1960": 5944,
      "قيدة": 5945,
      "توق": 5946,
      "شارع": 5947,
      "جمعية": 5948,
      "الحاكم": 5949,
      "لديها": 5950,
      "مئوية": 5951,
      "وأس": 5952,
      "العلمي": 5953,
      "ائنات": 5954,
      "هودي": 5955,
      "لفية": 5956,
      "الحاسوب": 5957,
      "47": 5958,
      "الصيف": 5959,
      "تغيير": 5960,
      "أنظمة": 5961,
      "بلوما": 5962,
      "أستر": 5963,
      "بلغت": 5964,
      "قبائل": 5965,
      "ملايين": 5966,
      "ظام": 5967,
      "الأعداد": 5968,
      "الأسنان": 5969,
      "الخلية": 5970,
      "إنه": 5971,
      "خدم": 5972,
      "اربة": 5973,
      "السورية": 5974,
      "البول": 5975,
      "الأمراض": 5976,
      "طرف": 5977,
      "الوث": 5978,
      "خليج": 5979,
      "عائلة": 5980,
      "هضة": 5981,
      "ياز": 5982,
      "استخدم": 5983,
      "صبحت": 5984,
      "شتاين": 5985,
      "خلايا": 5986,
      "tr": 5987,
      "ومان": 5988,
      "قليل": 5989,
      "بشر": 5990,
      "وإلى": 5991,
      "يقة": 5992,
      "بورغ": 5993,
      "صغير": 5994,
      "البع": 5995,
      "السوري": 5996,
      "ers": 5997,
      "رسل": 5998,
      "الأجن": 5999,
      "الأهلية": 6000,
      "ليوم": 6001,
      "معرفة": 6002,
      "الحكومية": 6003,
      "العالي": 6004,
      "فرقة": 6005,
      "بحيرة": 6006,
      "دام": 6007,
      "الممكن": 6008,
      "طبقة": 6009,
      "قرة": 6010,
      "أصحاب": 6011,
      "ضايا": 6012,
      "ويا": 6013,
      "الحالية": 6014,
      "الفل": 6015,
      "الداخلي": 6016,
      "لجنة": 6017,
      "الجانب": 6018,
      "اتفاقية": 6019,
      "افع": 6020,
      "علقة": 6021,
      "واضح": 6022,
      "85": 6023,
      "97": 6024,
      "الدع": 6025,
      "مسر": 6026,
      "بض": 6027,
      "غال": 6028,
      "الكريم": 6029,
      "نيويورك": 6030,
      "ولكنها": 6031,
      "الزراعية": 6032,
      "وأصبحت": 6033,
      "العظمى": 6034,
      "صحيح": 6035,
      "النهاية": 6036,
      "الأكسجين": 6037,
      "شديد": 6038,
      "كاملة": 6039,
      "نائب": 6040,
      "المجاورة": 6041,
      "ديق": 6042,
      "السف": 6043,
      "يشير": 6044,
      "المعركة": 6045,
      "تأسست": 6046,
      "مذ": 6047,
      "السوق": 6048,
      "السفن": 6049,
      "زراعة": 6050,
      "الشخصية": 6051,
      "تقريبًا": 6052,
      "فيصل": 6053,
      "متها": 6054,
      "الهندسة": 6055,
      "تور": 6056,
      "إله": 6057,
      "الخار": 6058,
      "وريد": 6059,
      "المرتبة": 6060,
      "الفيروس": 6061,
      "بوش": 6062,
      "للص": 6063,
      "ليلة": 6064,
      "فلسطيني": 6065,
      "ّات": 6066,
      "ماغ": 6067,
      "أسرة": 6068,
      "رائب": 6069,
      "ag": 6070,
      "ونا": 6071,
      "برلين": 6072,
      "تشارد": 6073,
      "تشرين": 6074,
      "المماليك": 6075,
      "ويست": 6076,
      "للأم": 6077,
      "95": 6078,
      "تولى": 6079,
      "النووي": 6080,
      "المعت": 6081,
      "بدل": 6082,
      "الدور": 6083,
      "ونها": 6084,
      "الإير": 6085,
      "اعي": 6086,
      "إنجليزي": 6087,
      "سه": 6088,
      "وتع": 6089,
      "ومغ": 6090,
      "الفرد": 6091,
      "تصميم": 6092,
      "دان": 6093,
      "نوات": 6094,
      "الشركات": 6095,
      "خصائص": 6096,
      "أتباع": 6097,
      "مقارنة": 6098,
      "افي": 6099,
      "الألعاب": 6100,
      "الصحة": 6101,
      "الأنا": 6102,
      "القي": 6103,
      "ويض": 6104,
      "الإقلي": 6105,
      "150": 6106,
      "iv": 6107,
      "الكلمة": 6108,
      "غانستان": 6109,
      "َة": 6110,
      "ريغ": 6111,
      "تجمع": 6112,
      "معروف": 6113,
      "لوم": 6114,
      "امين": 6115,
      "الذكر": 6116,
      "تفسير": 6117,
      "لأنها": 6118,
      "القضاء": 6119,
      "اليابانية": 6120,
      "1973": 6121,
      "العلاقة": 6122,
      "الرجال": 6123,
      "ٍّ": 6124,
      "التطبي": 6125,
      "القارة": 6126,
      "الثقافية": 6127,
      "قوم": 6128,
      "آخرين": 6129,
      "الكتلة": 6130,
      "عباس": 6131,
      "الأسط": 6132,
      "السيارات": 6133,
      "معين": 6134,
      "تحويل": 6135,
      "الكتابة": 6136,
      "المركزية": 6137,
      "إمبراطورية": 6138,
      "وجب": 6139,
      "64": 6140,
      "جيد": 6141,
      "فيل": 6142,
      "قدرة": 6143,
      "2018": 6144,
      "أداء": 6145,
      "يدي": 6146,
      "المنظمة": 6147,
      "المعرفة": 6148,
      "رفع": 6149,
      "انضم": 6150,
      "تمال": 6151,
      "1982": 6152,
      "شرات": 6153,
      "ساعة": 6154,
      "اللجنة": 6155,
      "العمليات": 6156,
      "ec": 6157,
      "شبي": 6158,
      "ّب": 6159,
      "واحي": 6160,
      "السلطات": 6161,
      "قصيرة": 6162,
      "حصاء": 6163,
      "ريَّة": 6164,
      "معرض": 6165,
      "الخدمات": 6166,
      "إما": 6167,
      "ثُمَّ": 6168,
      "عراقي": 6169,
      "السط": 6170,
      "هندسة": 6171,
      "أست": 6172,
      "تعلي": 6173,
      "التهاب": 6174,
      "العرش": 6175,
      "الإصلاح": 6176,
      "قاطعات": 6177,
      "ولها": 6178,
      "البيت": 6179,
      "مجلة": 6180,
      "نظم": 6181,
      "1993": 6182,
      "الناصر": 6183,
      "لقاء": 6184,
      "ّت": 6185,
      "مصطفى": 6186,
      "يحمل": 6187,
      "طع": 6188,
      "الحجر": 6189,
      "السبع": 6190,
      "للس": 6191,
      "1975": 6192,
      "سته": 6193,
      "الأمطار": 6194,
      "فسهم": 6195,
      "مارسة": 6196,
      "العراقية": 6197,
      "الشمسية": 6198,
      "التأثير": 6199,
      "الفكر": 6200,
      "ميلاد": 6201,
      "1979": 6202,
      "بقي": 6203,
      "الوضع": 6204,
      "الأطل": 6205,
      "تحرك": 6206,
      "ساحل": 6207,
      "سيل": 6208,
      "رمز": 6209,
      "بادل": 6210,
      "وكي": 6211,
      "الزا": 6212,
      "فُ": 6213,
      "الأج": 6214,
      "القيمة": 6215,
      "سيما": 6216,
      "بدر": 6217,
      "الهجرة": 6218,
      "كوريا": 6219,
      "يسمح": 6220,
      "أين": 6221,
      "ساس": 6222,
      "ساً": 6223,
      "رؤساء": 6224,
      "الإيطالية": 6225,
      "وآ": 6226,
      "الوحدة": 6227,
      "للدولة": 6228,
      "مسؤول": 6229,
      "زيغ": 6230,
      "يًا": 6231,
      "الفيز": 6232,
      "تختلف": 6233,
      "وعدد": 6234,
      "كندا": 6235,
      "مثلا": 6236,
      "لفترة": 6237,
      "ولوجية": 6238,
      "فوز": 6239,
      "إمارة": 6240,
      "to": 6241,
      "تسمية": 6242,
      "خصصة": 6243,
      "كانون": 6244,
      "1981": 6245,
      "وبذلك": 6246,
      "محل": 6247,
      "تطبيق": 6248,
      "بمعنى": 6249,
      "الأعضاء": 6250,
      "بوت": 6251,
      "ويعتبر": 6252,
      "الشباب": 6253,
      "سبات": 6254,
      "جداً": 6255,
      "1988": 6256,
      "الإدارة": 6257,
      "سائر": 6258,
      "كيف": 6259,
      "55": 6260,
      "قيه": 6261,
      "رافية": 6262,
      "الحديدية": 6263,
      "ّف": 6264,
      "السبب": 6265,
      "لمي": 6266,
      "البرمج": 6267,
      "كولوم": 6268,
      "بالج": 6269,
      "شاب": 6270,
      "فيف": 6271,
      "هائ": 6272,
      "ريتشارد": 6273,
      "ائها": 6274,
      "زيارة": 6275,
      "بطريقة": 6276,
      "الحروب": 6277,
      "كلة": 6278,
      "شاريع": 6279,
      "انتهت": 6280,
      "سيدي": 6281,
      "يوخ": 6282,
      "كشف": 6283,
      "الإجمالي": 6284,
      "جامع": 6285,
      "القيا": 6286,
      "قيات": 6287,
      "طبيعة": 6288,
      "القاعدة": 6289,
      "بلي": 6290,
      "التفاعل": 6291,
      "بارات": 6292,
      "باي": 6293,
      "هرت": 6294,
      "حروب": 6295,
      "غض": 6296,
      "وقيل": 6297,
      "كلها": 6298,
      "اليونان": 6299,
      "شعبية": 6300,
      "سانت": 6301,
      "وتعتبر": 6302,
      "بصورة": 6303,
      "جارة": 6304,
      "قبيلة": 6305,
      "2019": 6306,
      "2020": 6307,
      "فقة": 6308,
      "الواحد": 6309,
      "الموت": 6310,
      "ريين": 6311,
      "القائد": 6312,
      "وجيه": 6313,
      "أصغر": 6314,
      "اهتمام": 6315,
      "الساعة": 6316,
      "مؤسسة": 6317,
      "ter": 6318,
      "أير": 6319,
      "اخ": 6320,
      "بالب": 6321,
      "مدة": 6322,
      "وقة": 6323,
      "أغل": 6324,
      "مناخ": 6325,
      "والط": 6326,
      "الإسبانية": 6327,
      "وأكثر": 6328,
      "67": 6329,
      "دخول": 6330,
      "ربما": 6331,
      "وحدات": 6332,
      "نموذج": 6333,
      "يراً": 6334,
      "الإله": 6335,
      "الضفة": 6336,
      "اختلاف": 6337,
      "سوري": 6338,
      "المال": 6339,
      "الغلاف": 6340,
      "1974": 6341,
      "الخل": 6342,
      "حرية": 6343,
      "كاب": 6344,
      "وقات": 6345,
      "بينهما": 6346,
      "لكنها": 6347,
      "للغاية": 6348,
      "جلة": 6349,
      "محت": 6350,
      "مطل": 6351,
      "وفقا": 6352,
      "تدخل": 6353,
      "مستقلة": 6354,
      "ماث": 6355,
      "يرجع": 6356,
      "عمله": 6357,
      "الصد": 6358,
      "تأسي": 6359,
      "ئمة": 6360,
      "يحي": 6361,
      "القسم": 6362,
      "الزع": 6363,
      "معلومات": 6364,
      "ناطيسية": 6365,
      "حقي": 6366,
      "ران": 6367,
      "كاة": 6368,
      "قياس": 6369,
      "الحالات": 6370,
      "98": 6371,
      "ينو": 6372,
      "الفلسفة": 6373,
      "استمرت": 6374,
      "حلول": 6375,
      "المحكمة": 6376,
      "للاست": 6377,
      "الحُ": 6378,
      "َّن": 6379,
      "أخيه": 6380,
      "هيار": 6381,
      "وسيقية": 6382,
      "الصراع": 6383,
      "كه": 6384,
      "العقل": 6385,
      "نيين": 6386,
      "القطاع": 6387,
      "روبر": 6388,
      "دَ": 6389,
      "التعاون": 6390,
      "المغول": 6391,
      "الأرثوذ": 6392,
      "حافظ": 6393,
      "خُ": 6394,
      "َّر": 6395,
      "افر": 6396,
      "يتر": 6397,
      "1984": 6398,
      "تقريبا": 6399,
      "In": 6400,
      "يبدو": 6401,
      "الشتاء": 6402,
      "قِ": 6403,
      "الصاد": 6404,
      "الحضارة": 6405,
      "التراث": 6406,
      "تتميز": 6407,
      "وتي": 6408,
      "الفت": 6409,
      "يذكر": 6410,
      "الأذ": 6411,
      "الأولية": 6412,
      "مستشفى": 6413,
      "أفغانستان": 6414,
      "اعتبر": 6415,
      "نشاط": 6416,
      "كمال": 6417,
      "نْ": 6418,
      "الطبقة": 6419,
      "زعيم": 6420,
      "تكوين": 6421,
      "شمس": 6422,
      "نيس": 6423,
      "قتال": 6424,
      "يستطيع": 6425,
      "أنَّهُ": 6426,
      "النووية": 6427,
      "الأسر": 6428,
      "تصنيف": 6429,
      "رحلة": 6430,
      "ائرية": 6431,
      "مرار": 6432,
      "يعتمد": 6433,
      "يقرب": 6434,
      "ri": 6435,
      "الجو": 6436,
      "42": 6437,
      "خيص": 6438,
      "كولا": 6439,
      "مف": 6440,
      "الديمقراطي": 6441,
      "الإيطالي": 6442,
      "إطار": 6443,
      "تحرير": 6444,
      "1970": 6445,
      "وعند": 6446,
      "الخمس": 6447,
      "أيدي": 6448,
      "العظيم": 6449,
      "te": 6450,
      "عش": 6451,
      "البالغ": 6452,
      "رمضان": 6453,
      "آر": 6454,
      "خال": 6455,
      "القصر": 6456,
      "والأد": 6457,
      "النادي": 6458,
      "إثر": 6459,
      "سيف": 6460,
      "الصوم": 6461,
      "الذات": 6462,
      "بحسب": 6463,
      "إدوارد": 6464,
      "ألب": 6465,
      "القتال": 6466,
      "ولذلك": 6467,
      "ستانت": 6468,
      "الأشخاص": 6469,
      "46": 6470,
      "دورة": 6471,
      "وخلال": 6472,
      "تجاه": 6473,
      "سبوع": 6474,
      "هيدر": 6475,
      "أعماله": 6476,
      "الرك": 6477,
      "ابر": 6478,
      "حصار": 6479,
      "انتقل": 6480,
      "قيا": 6481,
      "تحوي": 6482,
      "ذار": 6483,
      "لاحقة": 6484,
      "علاقات": 6485,
      "الكرة": 6486,
      "تدري": 6487,
      "تسم": 6488,
      "قليلة": 6489,
      "فنون": 6490,
      "موري": 6491,
      "منص": 6492,
      "َّل": 6493,
      "الغالب": 6494,
      "المجموعات": 6495,
      "ew": 6496,
      "آي": 6497,
      "زالت": 6498,
      "معهد": 6499,
      "الجبال": 6500,
      "أولى": 6501,
      "تأسيسات": 6502,
      "أجهزة": 6503,
      "الأور": 6504,
      "الأكادي": 6505,
      "بيان": 6506,
      "الموافق": 6507,
      "افتتاح": 6508,
      "جنا": 6509,
      "لبة": 6510,
      "الأربعة": 6511,
      "وجة": 6512,
      "الطبية": 6513,
      "أحيان": 6514,
      "تهي": 6515,
      "رسمية": 6516,
      "فجار": 6517,
      "مواد": 6518,
      "انوني": 6519,
      "ارض": 6520,
      "هيد": 6521,
      "نتائج": 6522,
      "أهولة": 6523,
      "نقص": 6524,
      "واجهة": 6525,
      "البراز": 6526,
      "ترض": 6527,
      "الشرطة": 6528,
      "النسبية": 6529,
      "الألب": 6530,
      "يتان": 6531,
      "يسى": 6532,
      "المكون": 6533,
      "هاجم": 6534,
      "اقتصادية": 6535,
      "ديب": 6536,
      "حمض": 6537,
      "المركزي": 6538,
      "ناث": 6539,
      "1986": 6540,
      "البيئة": 6541,
      "اكتشف": 6542,
      "أراد": 6543,
      "خين": 6544,
      "اعتراف": 6545,
      "رابطة": 6546,
      "خطيط": 6547,
      "الخد": 6548,
      "لفظ": 6549,
      "الشيعة": 6550,
      "الإخوان": 6551,
      "بهذه": 6552,
      "الموصل": 6553,
      "og": 6554,
      "الموض": 6555,
      "ندق": 6556,
      "الضر": 6557,
      "ليبيا": 6558,
      "إث": 6559,
      "حفظ": 6560,
      "كبار": 6561,
      "لذا": 6562,
      "وأنه": 6563,
      "ويش": 6564,
      "وفية": 6565,
      "وماس": 6566,
      "الإدارية": 6567,
      "الخارجي": 6568,
      "حضر": 6569,
      "سوم": 6570,
      "غور": 6571,
      "بكل": 6572,
      "طويل": 6573,
      "هادة": 6574,
      "وبيا": 6575,
      "بايزيد": 6576,
      "الأطلسي": 6577,
      "حتها": 6578,
      "88": 6579,
      "ؤه": 6580,
      "فلاسفة": 6581,
      "ملاحظ": 6582,
      "الأربع": 6583,
      "البيضاء": 6584,
      "حكام": 6585,
      "روز": 6586,
      "المبا": 6587,
      "ولقد": 6588,
      "رياضيات": 6589,
      "الرابطة": 6590,
      "400": 6591,
      "إصدار": 6592,
      "علا": 6593,
      "الإعلام": 6594,
      "توس": 6595,
      "لصالح": 6596,
      "ِل": 6597,
      "ab": 6598,
      "بولي": 6599,
      "دعا": 6600,
      "الوظ": 6601,
      "ئين": 6602,
      "وأو": 6603,
      "المقاومة": 6604,
      "ستخدمة": 6605,
      "دوز": 6606,
      "الأثرية": 6607,
      "الصيد": 6608,
      "التس": 6609,
      "السيد": 6610,
      "اسمها": 6611,
      "دعى": 6612,
      "||": 6613,
      "ألك": 6614,
      "إض": 6615,
      "انخفاض": 6616,
      "العمال": 6617,
      "موجودة": 6618,
      "بوس": 6619,
      "حز": 6620,
      "طى": 6621,
      "الأمة": 6622,
      "لمات": 6623,
      "الكهر": 6624,
      "الصباح": 6625,
      "الناحية": 6626,
      "أز": 6627,
      "وّ": 6628,
      "ينيا": 6629,
      "التطور": 6630,
      "القول": 6631,
      "الإصابة": 6632,
      "كروسوف": 6633,
      "تقرير": 6634,
      "وَّل": 6635,
      "فاست": 6636,
      "قواعد": 6637,
      "نجاح": 6638,
      "الكث": 6639,
      "وقوع": 6640,
      "وفا": 6641,
      "أكسيد": 6642,
      "حلات": 6643,
      "1961": 6644,
      "بريت": 6645,
      "ثنائي": 6646,
      "صاب": 6647,
      "ولف": 6648,
      "وأما": 6649,
      "مجرد": 6650,
      "يصبح": 6651,
      "الرابعة": 6652,
      "43": 6653,
      "بز": 6654,
      "ديات": 6655,
      "ائن": 6656,
      "كنولوجيا": 6657,
      "جعفر": 6658,
      "البرازيل": 6659,
      "خض": 6660,
      "المطل": 6661,
      "العرض": 6662,
      "ربيع": 6663,
      "مساعدة": 6664,
      "كروسوفت": 6665,
      "ثالث": 6666,
      "شه": 6667,
      "ياباني": 6668,
      "طلقت": 6669,
      "قوي": 6670,
      "الحادي": 6671,
      "البنية": 6672,
      "النهضة": 6673,
      "استق": 6674,
      "الفرق": 6675,
      "وسيلة": 6676,
      "صحيفة": 6677,
      "سمع": 6678,
      "والذ": 6679,
      "الحرة": 6680,
      "المسيحيين": 6681,
      "41": 6682,
      "صُ": 6683,
      "ستالين": 6684,
      "ثمار": 6685,
      "رقام": 6686,
      "القديس": 6687,
      "الأصلية": 6688,
      "كانيكا": 6689,
      "التعلي": 6690,
      "وترك": 6691,
      "النصف": 6692,
      "النشاط": 6693,
      "ساحة": 6694,
      "الحيوية": 6695,
      "الشبكة": 6696,
      "دقيقة": 6697,
      "قوية": 6698,
      "كثافة": 6699,
      "قابلة": 6700,
      "اقتصادي": 6701,
      "حماية": 6702,
      "هَ": 6703,
      "السما": 6704,
      "وحا": 6705,
      "بْ": 6706,
      "المستخدم": 6707,
      "ارد": 6708,
      "التون": 6709,
      "الرجل": 6710,
      "1965": 6711,
      "المنت": 6712,
      "التركية": 6713,
      "ويوجد": 6714,
      "انتشر": 6715,
      "1971": 6716,
      "\"،": 6717,
      "إيج": 6718,
      "دوري": 6719,
      "كسية": 6720,
      "القوانين": 6721,
      "1987": 6722,
      "الانق": 6723,
      "1956": 6724,
      "روابط": 6725,
      "الشعبي": 6726,
      "أبا": 6727,
      "جبر": 6728,
      "مراكز": 6729,
      "اعية": 6730,
      "1985": 6731,
      "والعشرين": 6732,
      "1962": 6733,
      "تزوج": 6734,
      "الهو": 6735,
      "بدلاً": 6736,
      "إنسان": 6737,
      "ess": 6738,
      "ديمقرا": 6739,
      "ويع": 6740,
      "طير": 6741,
      "96": 6742,
      "هجوم": 6743,
      "وعن": 6744,
      "ولادة": 6745,
      "العين": 6746,
      "لسوف": 6747,
      "طنين": 6748,
      "أسباب": 6749,
      "السين": 6750,
      "سابقة": 6751,
      "علاج": 6752,
      "مكتب": 6753,
      "جموعة": 6754,
      "ويب": 6755,
      "الصيني": 6756,
      "جدًا": 6757,
      "1983": 6758,
      "1978": 6759,
      "1964": 6760,
      "الممت": 6761,
      "BC": 6762,
      "تسبب": 6763,
      "الفعل": 6764,
      "لهُ": 6765,
      "كيمياء": 6766,
      "الدراسة": 6767,
      "مكتبة": 6768,
      "الصليبيين": 6769,
      "سما": 6770,
      "ضوء": 6771,
      "راي": 6772,
      "الجبهة": 6773,
      "النجم": 6774,
      "تمتد": 6775,
      "َّت": 6776,
      "الخم": 6777,
      "الطيور": 6778,
      "مته": 6779,
      "اريات": 6780,
      "لتها": 6781,
      "راقبة": 6782,
      "المستقبل": 6783,
      "مؤسس": 6784,
      "المحيطة": 6785,
      "طاب": 6786,
      "البرية": 6787,
      "نائية": 6788,
      "ربط": 6789,
      "يتعلق": 6790,
      "إح": 6791,
      "مفهوم": 6792,
      "هنة": 6793,
      "ليكون": 6794,
      "تحكم": 6795,
      "والمن": 6796,
      "1976": 6797,
      "البحرين": 6798,
      "المساحة": 6799,
      "كوكب": 6800,
      "=\"": 6801,
      "فذ": 6802,
      "الزواج": 6803,
      "1977": 6804,
      "قيل": 6805,
      "النحاس": 6806,
      "سبعة": 6807,
      "الهجوم": 6808,
      "الأولم": 6809,
      "غالبًا": 6810,
      "اجتماعية": 6811,
      "أقصى": 6812,
      "رها": 6813,
      "يلاء": 6814,
      "الجُ": 6815,
      "تتبع": 6816,
      "سكن": 6817,
      "كافة": 6818,
      "العاص": 6819,
      "عاماً": 6820,
      "مجمع": 6821,
      "الهندية": 6822,
      "الكلية": 6823,
      "الشاف": 6824,
      "هران": 6825,
      "الهندي": 6826,
      "ir": 6827,
      "يبقى": 6828,
      "المشروع": 6829,
      "الحمل": 6830,
      "مستعم": 6831,
      "الصناعة": 6832,
      "زاوية": 6833,
      "الكلاسيكية": 6834,
      "شفي": 6835,
      "وذكر": 6836,
      "الكبد": 6837,
      "الجامعات": 6838,
      "الجمهو": 6839,
      "im": 6840,
      "إجمالي": 6841,
      "الجنود": 6842,
      "غول": 6843,
      "الصلاة": 6844,
      "استقلال": 6845,
      "طبخ": 6846,
      "النباتات": 6847,
      "oc": 6848,
      "تقي": 6849,
      "المستخدمة": 6850,
      "ينتج": 6851,
      "خرية": 6852,
      "ارتباط": 6853,
      "المركبات": 6854,
      "باستثناء": 6855,
      "زلة": 6856,
      "طُ": 6857,
      "الحجم": 6858,
      "الصالح": 6859,
      "الاتجاه": 6860,
      "تشارلز": 6861,
      "الوحيدة": 6862,
      "77": 6863,
      "ممت": 6864,
      "1972": 6865,
      "تفاعل": 6866,
      "دليل": 6867,
      "مْ": 6868,
      "منش": 6869,
      "واحت": 6870,
      "عتها": 6871,
      "بكثير": 6872,
      "المقدسة": 6873,
      "فشل": 6874,
      "حيل": 6875,
      "الاض": 6876,
      "المسؤول": 6877,
      "الملكة": 6878,
      "الديني": 6879,
      "جرت": 6880,
      "روبرت": 6881,
      "اتفاق": 6882,
      "1963": 6883,
      "تعداد": 6884,
      "نجم": 6885,
      "تأثر": 6886,
      "58": 6887,
      "66": 6888,
      "مًا": 6889,
      "يري": 6890,
      "1958": 6891,
      "رأي": 6892,
      "العقد": 6893,
      "وعبد": 6894,
      "جهود": 6895,
      "أبيه": 6896,
      "زالة": 6897,
      "سقط": 6898,
      "قوانين": 6899,
      "البشري": 6900,
      "أنفسهم": 6901,
      "المؤسسات": 6902,
      "الكواكب": 6903,
      "تشغيل": 6904,
      "1969": 6905,
      "حالياً": 6906,
      "أمراض": 6907,
      "الاتصال": 6908,
      "راتيج": 6909,
      "دخلت": 6910,
      "يرو": 6911,
      "النقد": 6912,
      "النواة": 6913,
      "تفعة": 6914,
      "شؤون": 6915,
      "لبعض": 6916,
      "ماج": 6917,
      "وجدت": 6918,
      "وائف": 6919,
      "داء": 6920,
      "سود": 6921,
      "الفرس": 6922,
      "طباء": 6923,
      "أعلام": 6924,
      "رئي": 6925,
      "بيانات": 6926,
      "كميات": 6927,
      "هاجرين": 6928,
      "ذك": 6929,
      "نيع": 6930,
      "العنصر": 6931,
      "البخ": 6932,
      "ومنا": 6933,
      "تجارة": 6934,
      "وفقاً": 6935,
      "فمن": 6936,
      "ومت": 6937,
      "الثقافي": 6938,
      "لِل": 6939,
      "المُوافقة": 6940,
      "الخدمة": 6941,
      "حديد": 6942,
      "الخض": 6943,
      "التجاري": 6944,
      "العضوية": 6945,
      "طرابات": 6946,
      "ht": 6947,
      "الفاط": 6948,
      "يمر": 6949,
      "شيوع": 6950,
      "درب": 6951,
      "الصناعات": 6952,
      "الغذائية": 6953,
      "الأمور": 6954,
      "سعودي": 6955,
      "انها": 6956,
      "الكي": 6957,
      "عادةً": 6958,
      "يسيا": 6959,
      "خلالها": 6960,
      "الكهرباء": 6961,
      "خطة": 6962,
      "لمن": 6963,
      "ياب": 6964,
      "الياباني": 6965,
      "الخطاب": 6966,
      "القدرة": 6967,
      "تقريباً": 6968,
      "زيت": 6969,
      "ضول": 6970,
      "طوال": 6971,
      "عه": 6972,
      "البوس": 6973,
      "سيين": 6974,
      "وتحت": 6975,
      "الجسيمات": 6976,
      "ائعة": 6977,
      "1918": 6978,
      "1947": 6979,
      "الدرجة": 6980,
      "المكسي": 6981,
      "اره": 6982,
      "عمره": 6983,
      "البيزنطية": 6984,
      "ظاهرة": 6985,
      "عقب": 6986,
      "مأهولة": 6987,
      "يبدأ": 6988,
      "لفات": 6989,
      "الجنسية": 6990,
      "1949": 6991,
      "معروفة": 6992,
      "الفنون": 6993,
      "اغتيال": 6994,
      "الدكتور": 6995,
      "بوجود": 6996,
      "ثان": 6997,
      "يضم": 6998,
      "المفا": 6999,
      "الأوَّل": 7000,
      "نشأ": 7001,
      "ويليام": 7002,
      "رو": 7003,
      "ابد": 7004,
      "الجلي": 7005,
      "تمثيل": 7006,
      "IS": 7007,
      "شطة": 7008,
      "معها": 7009,
      "الذاتي": 7010,
      "تصبح": 7011,
      "عربي": 7012,
      "بطة": 7013,
      "مقت": 7014,
      "عدل": 7015,
      "َّات": 7016,
      "اعتقاد": 7017,
      "وإذا": 7018,
      "وغيرهم": 7019,
      "ديز": 7020,
      "أفكار": 7021,
      "ويندوز": 7022,
      "مقاومة": 7023,
      "تحالف": 7024,
      "عمة": 7025,
      "بلدة": 7026,
      "كريست": 7027,
      "سويس": 7028,
      "فكانت": 7029,
      "السام": 7030,
      "سميت": 7031,
      "المعارضة": 7032,
      "فى": 7033,
      "راط": 7034,
      "سيب": 7035,
      "نظمة": 7036,
      "الجماعة": 7037,
      "توزيع": 7038,
      "الكهربائي": 7039,
      "سجل": 7040,
      "فهر": 7041,
      "وأول": 7042,
      "المُسلمين": 7043,
      "كبيرًا": 7044,
      "للمدينة": 7045,
      "الكيميائي": 7046,
      "يحيى": 7047,
      "أخر": 7048,
      "دستور": 7049,
      "نيت": 7050,
      "اتخذ": 7051,
      "العالية": 7052,
      "السوي": 7053,
      "ربيج": 7054,
      "وجنوب": 7055,
      "غربي": 7056,
      "od": 7057,
      "طوم": 7058,
      "ويبلغ": 7059,
      "الجلد": 7060,
      "الإمارات": 7061,
      "الصور": 7062,
      "تتراوح": 7063,
      "شخصيات": 7064,
      "أستراليا": 7065,
      "ثبت": 7066,
      "ضمت": 7067,
      "عيسى": 7068,
      "الإف": 7069,
      "أكد": 7070,
      "مسافة": 7071,
      "قطعة": 7072,
      "فتاء": 7073,
      "وارع": 7074,
      "التحالف": 7075,
      "الخطوط": 7076,
      "وسل": 7077,
      "تمرد": 7078,
      "الحمراء": 7079,
      "إقامة": 7080,
      "شو": 7081,
      "والمنا": 7082,
      "رئيسية": 7083,
      "ترجمة": 7084,
      "بشأن": 7085,
      "جَ": 7086,
      "كُل": 7087,
      "الام": 7088,
      "لاه": 7089,
      "هزيمة": 7090,
      "الشاعر": 7091,
      "وجعل": 7092,
      "َّم": 7093,
      "ce": 7094,
      "حالي": 7095,
      "قمة": 7096,
      "موق": 7097,
      "الأسد": 7098,
      "شعراء": 7099,
      "زوجته": 7100,
      "الذهبي": 7101,
      "لِسنة": 7102,
      "تبدأ": 7103,
      "صيد": 7104,
      "الحاد": 7105,
      "الفنية": 7106,
      "بغي": 7107,
      "وعد": 7108,
      "ودا": 7109,
      "وأخذ": 7110,
      "92": 7111,
      "بنا": 7112,
      "صباح": 7113,
      "1968": 7114,
      "1939": 7115,
      "--": 7116,
      "الأسلحة": 7117,
      "الطعام": 7118,
      "مستويات": 7119,
      "الاستخد": 7120,
      "الجزر": 7121,
      "المؤمن": 7122,
      "68": 7123,
      "هولة": 7124,
      "واخت": 7125,
      "قايا": 7126,
      "الأردنية": 7127,
      "ثات": 7128,
      "شُ": 7129,
      "يلة": 7130,
      "السويد": 7131,
      "لديه": 7132,
      "الإنسانية": 7133,
      "انغ": 7134,
      "العرق": 7135,
      "القيادة": 7136,
      "تتضمن": 7137,
      "توماس": 7138,
      "المواقع": 7139,
      "ويكون": 7140,
      "معبد": 7141,
      "الصهي": 7142,
      "إمام": 7143,
      "رؤية": 7144,
      "قديمة": 7145,
      "أطول": 7146,
      "المهمة": 7147,
      "كتيريا": 7148,
      "إغ": 7149,
      "ذة": 7150,
      "فإذا": 7151,
      "وثلا": 7152,
      "لتش": 7153,
      "تنتج": 7154,
      "دولية": 7155,
      "الأرضية": 7156,
      "ومست": 7157,
      "اعتمد": 7158,
      "مايكروسوفت": 7159,
      "فاوضات": 7160,
      ".»": 7161,
      "يقت": 7162,
      "يتحدث": 7163,
      "أنا": 7164,
      "البصرة": 7165,
      "الفتح": 7166,
      "رأى": 7167,
      "يختلف": 7168,
      "ِهِ": 7169,
      "القومي": 7170,
      "التيار": 7171,
      "توفر": 7172,
      "ذاته": 7173,
      "سس": 7174,
      "غزو": 7175,
      "قف": 7176,
      "استعمال": 7177,
      "1950": 7178,
      "الحقوق": 7179,
      "لاحقًا": 7180,
      "وكول": 7181,
      "وعم": 7182,
      "الطائرة": 7183,
      "المدنية": 7184,
      "ومنذ": 7185,
      "المسرح": 7186,
      "تاريخية": 7187,
      "تؤدي": 7188,
      "ئت": 7189,
      "الشريف": 7190,
      "كلفة": 7191,
      "رنسا": 7192,
      "أولاد": 7193,
      "نفوذ": 7194,
      "نابليون": 7195,
      "بالرغم": 7196,
      "ناق": 7197,
      "للبلاد": 7198,
      "قين": 7199,
      "1920": 7200,
      "الرأي": 7201,
      "اليب": 7202,
      "وعلم": 7203,
      "هج": 7204,
      "املة": 7205,
      "ديين": 7206,
      "النروي": 7207,
      "الفقه": 7208,
      "المنورة": 7209,
      "انتصار": 7210,
      "وائر": 7211,
      "مغني": 7212,
      "بمث": 7213,
      "قس": 7214,
      "قاعد": 7215,
      "بعضهم": 7216,
      "قوله": 7217,
      "نك": 7218,
      "العن": 7219,
      "بعدما": 7220,
      "الرياح": 7221,
      "الصحابة": 7222,
      "سيوم": 7223,
      "أكيد": 7224,
      "اللبنانية": 7225,
      "جول": 7226,
      "المملوك": 7227,
      "المسيح": 7228,
      "إسلامية": 7229,
      "نغ": 7230,
      "وعدم": 7231,
      "السُ": 7232,
      "الشاه": 7233,
      "وفرة": 7234,
      "وزع": 7235,
      "الزبير": 7236,
      "1946": 7237,
      "نتج": 7238,
      "الحجاز": 7239,
      "حيات": 7240,
      "بحرية": 7241,
      "بتاريخ": 7242,
      "ميش": 7243,
      "ماط": 7244,
      "الإعلان": 7245,
      "الكائنات": 7246,
      "بعنوان": 7247,
      "التم": 7248,
      "بيب": 7249,
      "1953": 7250,
      "لغاء": 7251,
      "تيمور": 7252,
      "الشافعي": 7253,
      "يناء": 7254,
      "سيارات": 7255,
      "يومًا": 7256,
      "وتشمل": 7257,
      "عارض": 7258,
      "واهر": 7259,
      "وبلغ": 7260,
      "بحوالي": 7261,
      "تعلم": 7262,
      "موسم": 7263,
      "انتقال": 7264,
      "سفينة": 7265,
      "57": 7266,
      "خبر": 7267,
      "فورد": 7268,
      "انين": 7269,
      "السب": 7270,
      "ادت": 7271,
      "النواب": 7272,
      "ئاسية": 7273,
      "فورنيا": 7274,
      "la": 7275,
      "مفا": 7276,
      "مبنى": 7277,
      "ابنة": 7278,
      "الغابات": 7279,
      "ماني": 7280,
      "ومُ": 7281,
      "الحقيقة": 7282,
      "الدن": 7283,
      "كونها": 7284,
      "جدية": 7285,
      "معاوية": 7286,
      "للأمم": 7287,
      "بهدف": 7288,
      "الروح": 7289,
      "يتبع": 7290,
      "النصوص": 7291,
      "خاذ": 7292,
      "موجود": 7293,
      "الحساب": 7294,
      "وتعد": 7295,
      "اصرة": 7296,
      "الدعوة": 7297,
      "رع": 7298,
      "عهده": 7299,
      "المغناطيسي": 7300,
      "التعبير": 7301,
      "ورئيس": 7302,
      "الصغير": 7303,
      "قاق": 7304,
      "صفات": 7305,
      "ut": 7306,
      "أمن": 7307,
      "عظم": 7308,
      "ياط": 7309,
      "الشريعة": 7310,
      "مناف": 7311,
      "الفا": 7312,
      "للمرة": 7313,
      "الشعوب": 7314,
      "الإنجليزي": 7315,
      "لفزيون": 7316,
      "المثلث": 7317,
      "ستون": 7318,
      "الخلاف": 7319,
      "خروج": 7320,
      "أنشأ": 7321,
      "نظرًا": 7322,
      "ولما": 7323,
      "راعات": 7324,
      "والآ": 7325,
      "الدماغ": 7326,
      "اليين": 7327,
      "ساي": 7328,
      "الجزائري": 7329,
      "الإسباني": 7330,
      "طائرات": 7331,
      "خام": 7332,
      "زيا": 7333,
      "الثانوية": 7334,
      "الرياضة": 7335,
      "أقرب": 7336,
      "الخامسة": 7337,
      "امرأة": 7338,
      "ئذ": 7339,
      "بمدينة": 7340,
      "لأي": 7341,
      "مب": 7342,
      "وكا": 7343,
      "الريح": 7344,
      "التحكم": 7345,
      "محددة": 7346,
      "St": 7347,
      "تري": 7348,
      "ماذج": 7349,
      "ستيف": 7350,
      "الروسي": 7351,
      "التركي": 7352,
      "واريخ": 7353,
      "السكر": 7354,
      "مثيل": 7355,
      "غيرات": 7356,
      "1952": 7357,
      "فاعلات": 7358,
      "طبيعية": 7359,
      "تسع": 7360,
      "حفل": 7361,
      "الحج": 7362,
      "الطول": 7363,
      "وكس": 7364,
      "خطاب": 7365,
      "آخرون": 7366,
      "تركي": 7367,
      "جوزيف": 7368,
      "جذ": 7369,
      "روح": 7370,
      "مِن": 7371,
      "القيام": 7372,
      "رنامج": 7373,
      "ترتيب": 7374,
      "حدثت": 7375,
      "الأناضول": 7376,
      "فيكت": 7377,
      "يرون": 7378,
      "ويون": 7379,
      "الإشارة": 7380,
      "تقنية": 7381,
      "جنود": 7382,
      "الأصلي": 7383,
      "التشغيل": 7384,
      "حنة": 7385,
      "خا": 7386,
      "دالة": 7387,
      "المشر": 7388,
      "اتف": 7389,
      "وائي": 7390,
      "تجارية": 7391,
      "هولندا": 7392,
      "1000": 7393,
      "ضى": 7394,
      "يأتي": 7395,
      "الآخرين": 7396,
      "حيوانات": 7397,
      "وميد": 7398,
      "القُ": 7399,
      "يتين": 7400,
      "رئيسًا": 7401,
      "شعار": 7402,
      "واستمر": 7403,
      "مغنية": 7404,
      "للي": 7405,
      "هتمام": 7406,
      "َل": 7407,
      "البلا": 7408,
      "َّهُ": 7409,
      "أيرلندا": 7410,
      "الأولمبية": 7411,
      "صيف": 7412,
      "نائي": 7413,
      "طلحات": 7414,
      "بطال": 7415,
      "السوداء": 7416,
      "ph": 7417,
      "العائلة": 7418,
      "الشه": 7419,
      "الخوار": 7420,
      "استقل": 7421,
      "الغزو": 7422,
      "فاضة": 7423,
      "فتوحة": 7424,
      "140": 7425,
      "خز": 7426,
      "زد": 7427,
      "وازن": 7428,
      "برغ": 7429,
      "الذرة": 7430,
      "أهمها": 7431,
      "التنفيذ": 7432,
      "قوب": 7433,
      "ودور": 7434,
      "البرامج": 7435,
      "احتلال": 7436,
      "لاجقة": 7437,
      "العمارة": 7438,
      "بمثابة": 7439,
      "النسبة": 7440,
      "الدار": 7441,
      "يدخل": 7442,
      "محافظ": 7443,
      "أسط": 7444,
      "الحلفاء": 7445,
      "حينها": 7446,
      "إمكانية": 7447,
      "راه": 7448,
      "ليت": 7449,
      "متنوعة": 7450,
      "مجالات": 7451,
      "المتعلقة": 7452,
      "فعال": 7453,
      "نسخة": 7454,
      "شراف": 7455,
      "موسيقي": 7456,
      "نار": 7457,
      "الهدف": 7458,
      "تقويم": 7459,
      "ضاع": 7460,
      "اثنين": 7461,
      "دراسات": 7462,
      "الألمان": 7463,
      "الأساس": 7464,
      "ومح": 7465,
      "الدورة": 7466,
      "كتشاف": 7467,
      "الطر": 7468,
      "كمل": 7469,
      "1966": 7470,
      "حوض": 7471,
      "لاند": 7472,
      "امه": 7473,
      "حته": 7474,
      "عرفة": 7475,
      "رائية": 7476,
      "كاليفورنيا": 7477,
      "راحة": 7478,
      "سبع": 7479,
      "وأرسل": 7480,
      "والمؤ": 7481,
      "إصلاح": 7482,
      "تراك": 7483,
      "فئة": 7484,
      "مبدأ": 7485,
      "وهما": 7486,
      "الضرائب": 7487,
      "الاشتراكية": 7488,
      "for": 7489,
      "شين": 7490,
      "طبة": 7491,
      "ويقول": 7492,
      "النت": 7493,
      "صلات": 7494,
      "فروع": 7495,
      "جرام": 7496,
      "يهود": 7497,
      "الأحياء": 7498,
      "التقويم": 7499,
      "المعادن": 7500,
      "قتها": 7501,
      "المصدر": 7502,
      "1940": 7503,
      "المائية": 7504,
      "التحت": 7505,
      "جندي": 7506,
      "1957": 7507,
      "قضية": 7508,
      "ّع": 7509,
      "أنط": 7510,
      "ائة": 7511,
      "قرون": 7512,
      "الآية": 7513,
      "صفحة": 7514,
      "فرنسية": 7515,
      "العُثمانيَّة": 7516,
      "القائمة": 7517,
      "رِ": 7518,
      "غرق": 7519,
      "ارته": 7520,
      "أمل": 7521,
      "أشعة": 7522,
      "السعودي": 7523,
      "الميت": 7524,
      "الأقصى": 7525,
      "يمز": 7526,
      "تحليل": 7527,
      "وانئ": 7528,
      "1955": 7529,
      "أبد": 7530,
      "خراج": 7531,
      "ممن": 7532,
      "البُ": 7533,
      "برون": 7534,
      "وجل": 7535,
      "وقي": 7536,
      "تقول": 7537,
      "تايل": 7538,
      "الشيوعي": 7539,
      "%.": 7540,
      "Al": 7541,
      "شديدة": 7542,
      "الحفاظ": 7543,
      "القرار": 7544,
      "بالكامل": 7545,
      "الأماكن": 7546,
      "تول": 7547,
      "دينية": 7548,
      "الجاذ": 7549,
      "مرد": 7550,
      "المنش": 7551,
      "الجنرال": 7552,
      "جسر": 7553,
      "غام": 7554,
      "الرأس": 7555,
      "فلما": 7556,
      "مها": 7557,
      "العثور": 7558,
      "وتمت": 7559,
      "وتكون": 7560,
      "نشأت": 7561,
      "ثون": 7562,
      "روب": 7563,
      "زوي": 7564,
      "ضية": 7565,
      "كلين": 7566,
      "الأحزاب": 7567,
      "جاءت": 7568,
      "الإداري": 7569,
      "حك": 7570,
      "حوا": 7571,
      "موضع": 7572,
      "ريون": 7573,
      "شرون": 7574,
      "درالية": 7575,
      "رسوم": 7576,
      "الأخضر": 7577,
      "بولندا": 7578,
      "وإنما": 7579,
      "الربيع": 7580,
      "الأكاديمية": 7581,
      "أعد": 7582,
      "حلف": 7583,
      "ضبة": 7584,
      "الكامل": 7585,
      "الدعم": 7586,
      "ساعدة": 7587,
      "وضعت": 7588,
      "خيل": 7589,
      "ضخم": 7590,
      "الجدول": 7591,
      "قرى": 7592,
      "1959": 7593,
      "الأرجن": 7594,
      "العاشر": 7595,
      "ريغوري": 7596,
      "الإيمان": 7597,
      "الوطن": 7598,
      "آت": 7599,
      "ّبات": 7600,
      "السماء": 7601,
      "مسرح": 7602,
      "الاستعمار": 7603,
      "مهرجان": 7604,
      "يّة": 7605,
      "الهرم": 7606,
      "سيج": 7607,
      "النصر": 7608,
      "1941": 7609,
      "زوجة": 7610,
      "موضوع": 7611,
      "يُعرف": 7612,
      "1936": 7613,
      "الكونغو": 7614,
      "المزيد": 7615,
      "أسلوب": 7616,
      "موقف": 7617,
      "واله": 7618,
      "معالم": 7619,
      "تحقق": 7620,
      "2022": 7621,
      "حايا": 7622,
      "القرون": 7623,
      "الأرمن": 7624,
      "الاجتماع": 7625,
      "عو": 7626,
      "الرائ": 7627,
      "منتج": 7628,
      "أعظم": 7629,
      "مشكلة": 7630,
      "وذية": 7631,
      "الحقيقي": 7632,
      "الطائرات": 7633,
      "ثرة": 7634,
      "دوق": 7635,
      "شارات": 7636,
      "الإل": 7637,
      "وجي": 7638,
      "وديوم": 7639,
      "المبكرة": 7640,
      "أوس": 7641,
      "وْ": 7642,
      "الحرية": 7643,
      "أوكر": 7644,
      "قاسم": 7645,
      "تناول": 7646,
      "وبدأ": 7647,
      "انقلاب": 7648,
      "خرا": 7649,
      "البور": 7650,
      "ناع": 7651,
      "المؤرخين": 7652,
      "حني": 7653,
      "زف": 7654,
      "وأبو": 7655,
      "تدفق": 7656,
      "الأشعة": 7657,
      "بالله": 7658,
      "فول": 7659,
      "فلسفة": 7660,
      "للحصول": 7661,
      "مسلمون": 7662,
      "78": 7663,
      "حار": 7664,
      "شغل": 7665,
      "ديه": 7666,
      "للط": 7667,
      "وأقاليم": 7668,
      "غيرها": 7669,
      "المسر": 7670,
      "BBC": 7671,
      "Ch": 7672,
      "اريس": 7673,
      "وتس": 7674,
      "الصدر": 7675,
      "المحافظ": 7676,
      "ُّون": 7677,
      "الزيتون": 7678,
      "جابة": 7679,
      "المباني": 7680,
      "وتون": 7681,
      "يتنا": 7682,
      "الزي": 7683,
      "كاث": 7684,
      "إيطالي": 7685,
      "ضو": 7686,
      "بيئة": 7687,
      "تحسين": 7688,
      "مدريد": 7689,
      "الخي": 7690,
      "محكمة": 7691,
      "الأسماء": 7692,
      "1954": 7693,
      "امتداد": 7694,
      "التحتية": 7695,
      "حماس": 7696,
      "ورس": 7697,
      "حيانا": 7698,
      "باتجاه": 7699,
      "القلعة": 7700,
      "الأهلي": 7701,
      "تهر": 7702,
      "الظروف": 7703,
      "الموجود": 7704,
      "الأُ": 7705,
      "قدمة": 7706,
      "سلالة": 7707,
      "مسألة": 7708,
      "وسيع": 7709,
      "إليهم": 7710,
      "ity": 7711,
      "الصليبية": 7712,
      "إع": 7713,
      "لر": 7714,
      "منهما": 7715,
      "ورن": 7716,
      "القرية": 7717,
      "الطرف": 7718,
      "قرطا": 7719,
      "فضاء": 7720,
      "tic": 7721,
      "لبناني": 7722,
      "الأعظم": 7723,
      "صفر": 7724,
      "وكر": 7725,
      "الهد": 7726,
      "الوليد": 7727,
      "1944": 7728,
      "بريد": 7729,
      "94": 7730,
      "فز": 7731,
      "وياً": 7732,
      "فيفة": 7733,
      "مثلاً": 7734,
      "2021": 7735,
      "بموجب": 7736,
      "طبعة": 7737,
      "الهيئة": 7738,
      "بريطاني": 7739,
      "القناة": 7740,
      "بيه": 7741,
      "الرؤ": 7742,
      "إسحاق": 7743,
      "سيناء": 7744,
      "البحري": 7745,
      "سطنبول": 7746,
      "ديس": 7747,
      "الصناعي": 7748,
      "ابية": 7749,
      "باراة": 7750,
      "مُن": 7751,
      "الشمسي": 7752,
      "الاصط": 7753,
      "الكنائس": 7754,
      "عملي": 7755,
      "الصي": 7756,
      "الغز": 7757,
      "تنقسم": 7758,
      "مراحل": 7759,
      "عطاء": 7760,
      "الزاوية": 7761,
      "ووضع": 7762,
      "يقدر": 7763,
      "القاسم": 7764,
      "ربي": 7765,
      "ائب": 7766,
      "1917": 7767,
      "طبيب": 7768,
      "ap": 7769,
      "حظ": 7770,
      "ضريبة": 7771,
      "ونظ": 7772,
      "القومية": 7773,
      "بيري": 7774,
      "ودخل": 7775,
      "ign": 7776,
      "أقام": 7777,
      "حقيقة": 7778,
      "انح": 7779,
      "انهيار": 7780,
      "واشن": 7781,
      "ابيع": 7782,
      "الدست": 7783,
      "وأد": 7784,
      "المستعم": 7785,
      "الحرارية": 7786,
      "بشدة": 7787,
      "لديهم": 7788,
      "آلة": 7789,
      "تبقى": 7790,
      "شهادة": 7791,
      "الابتد": 7792,
      "الطلاب": 7793,
      "نيوتن": 7794,
      "أكادي": 7795,
      "المصاب": 7796,
      "120": 7797,
      "عاما": 7798,
      "ندوق": 7799,
      "راتيجية": 7800,
      "ot": 7801,
      "ألي": 7802,
      "كوري": 7803,
      "مبارك": 7804,
      "نون": 7805,
      "وشي": 7806,
      "فيليب": 7807,
      "السير": 7808,
      "السلة": 7809,
      "وضة": 7810,
      "وقتل": 7811,
      "الإلكترونات": 7812,
      "ذرات": 7813,
      "عْ": 7814,
      "قوى": 7815,
      "التنظيم": 7816,
      "ub": 7817,
      "أهداف": 7818,
      "جغرا": 7819,
      "رر": 7820,
      "إنجاز": 7821,
      "طبيعي": 7822,
      "الأشجار": 7823,
      "تشرشل": 7824,
      "53": 7825,
      "ay": 7826,
      "لإنتاج": 7827,
      "يدعى": 7828,
      "ملحو": 7829,
      "تأليف": 7830,
      "يحصل": 7831,
      "الجغرافيا": 7832,
      "أغلبية": 7833,
      "ماض": 7834,
      "وأي": 7835,
      "بقوة": 7836,
      "مقياس": 7837,
      "تاريخها": 7838,
      "واضحة": 7839,
      "الإلكترونية": 7840,
      "سطنطينية": 7841,
      "اعد": 7842,
      "سفر": 7843,
      "كويتي": 7844,
      "موسيقى": 7845,
      "لمس": 7846,
      "ترجم": 7847,
      "مناسبة": 7848,
      "العدو": 7849,
      "الجاذبية": 7850,
      "uc": 7851,
      "حديقة": 7852,
      "ذُ": 7853,
      "زابي": 7854,
      "الحين": 7855,
      "قدمت": 7856,
      "جماع": 7857,
      "طبقات": 7858,
      "مبي": 7859,
      "وفد": 7860,
      "لتكون": 7861,
      "لاطين": 7862,
      "Pr": 7863,
      "توحيد": 7864,
      "العودة": 7865,
      "وطنية": 7866,
      "الاتصالات": 7867,
      "عضوا": 7868,
      "المُوافق": 7869,
      "المشتركة": 7870,
      "di": 7871,
      "فيس": 7872,
      "فقه": 7873,
      "حصلت": 7874,
      "النموذج": 7875,
      "),": 7876,
      "أفلام": 7877,
      "يساوي": 7878,
      "فيين": 7879,
      "المهاجرين": 7880,
      "ديفيد": 7881,
      "الإست": 7882,
      "درج": 7883,
      "كثرة": 7884,
      "أقسام": 7885,
      "مذهب": 7886,
      "هدة": 7887,
      "سيق": 7888,
      "الثمان": 7889,
      "وزيل": 7890,
      "قائق": 7891,
      "وظائف": 7892,
      "نادق": 7893,
      "الأزهر": 7894,
      "600": 7895,
      "رود": 7896,
      "ائح": 7897,
      "يتو": 7898,
      "اضطر": 7899,
      "أشار": 7900,
      "فإنها": 7901,
      "السياحية": 7902,
      "البخاري": 7903,
      "تسمح": 7904,
      "دف": 7905,
      "يقل": 7906,
      "حادي": 7907,
      "زيج": 7908,
      "المساجد": 7909,
      "اجتماع": 7910,
      "البرتغال": 7911,
      "بود": 7912,
      "الوجود": 7913,
      "الوجه": 7914,
      "سيت": 7915,
      "بطرس": 7916,
      "التل": 7917,
      "التسع": 7918,
      "يرًا": 7919,
      "معهم": 7920,
      "وأهم": 7921,
      "سنوي": 7922,
      "178": 7923,
      "أخبار": 7924,
      "الإلكترون": 7925,
      "العثمانيين": 7926,
      "الفاطمي": 7927,
      "بوم": 7928,
      "سلا": 7929,
      "سحب": 7930,
      "شهرة": 7931,
      "فج": 7932,
      "الأنظمة": 7933,
      "الكوكب": 7934,
      "سلط": 7935,
      "التحليل": 7936,
      "طالبان": 7937,
      "واشنطن": 7938,
      "صول": 7939,
      "نيل": 7940,
      "فينة": 7941,
      "الجهة": 7942,
      "الكبريت": 7943,
      "يدل": 7944,
      "كونه": 7945,
      "الديانة": 7946,
      "وظيفة": 7947,
      "ist": 7948,
      "جوان": 7949,
      "روسي": 7950,
      "منز": 7951,
      "السيوم": 7952,
      "سيارة": 7953,
      "حيثُ": 7954,
      "بقاء": 7955,
      "ine": 7956,
      "اقترح": 7957,
      "رشيد": 7958,
      "تضمن": 7959,
      "اليات": 7960,
      "شروط": 7961,
      "السوفيتية": 7962,
      "فترات": 7963,
      "الوقود": 7964,
      "صع": 7965,
      "طرد": 7966,
      "الأث": 7967,
      "والبر": 7968,
      "لمانية": 7969,
      "بيته": 7970,
      "الشَّام": 7971,
      "وعين": 7972,
      "تعيش": 7973,
      "المتحف": 7974,
      "1938": 7975,
      "وراة": 7976,
      "التقليدي": 7977,
      "الاختلاف": 7978,
      "ظلت": 7979,
      "غذ": 7980,
      "الجر": 7981,
      "برس": 7982,
      "ركية": 7983,
      "وصفه": 7984,
      "حاليًا": 7985,
      "زابيث": 7986,
      "تسب": 7987,
      "راوي": 7988,
      "كنت": 7989,
      "أخذت": 7990,
      "li": 7991,
      "هلاك": 7992,
      "ورغ": 7993,
      "البرنامج": 7994,
      "الرئ": 7995,
      "ساعات": 7996,
      "جريت": 7997,
      "الشهيرة": 7998,
      "إِ": 7999,
      "توض": 8000,
      "سوي": 8001,
      "غرافية": 8002,
      "مريم": 8003,
      "المهند": 8004,
      "السكك": 8005,
      "لكية": 8006,
      "ائيل": 8007,
      "عموم": 8008,
      "َّه": 8009,
      "تاز": 8010,
      "كاثر": 8011,
      "الضو": 8012,
      "160": 8013,
      "خريجو": 8014,
      "الباحثين": 8015,
      "أينشتاين": 8016,
      "ربيجان": 8017,
      "خليل": 8018,
      "بنو": 8019,
      "ترتبط": 8020,
      "بتون": 8021,
      "الأدوية": 8022,
      "فرانسيس": 8023,
      "مسيحي": 8024,
      "أرد": 8025,
      "ؤها": 8026,
      "المريخ": 8027,
      "الحصار": 8028,
      "بلس": 8029,
      "يقارب": 8030,
      "لاحقا": 8031,
      "الفيلم": 8032,
      "جزيئات": 8033,
      "ov": 8034,
      "رْ": 8035,
      "عوامل": 8036,
      "الحاض": 8037,
      "الاح": 8038,
      "المنتجات": 8039,
      "كاس": 8040,
      "يفية": 8041,
      "فصلة": 8042,
      "منصبه": 8043,
      "800": 8044,
      "91": 8045,
      "حائ": 8046,
      "ذكور": 8047,
      "شرطة": 8048,
      "خلفه": 8049,
      "المنطق": 8050,
      "تنوع": 8051,
      "جلات": 8052,
      "غالبية": 8053,
      "مباشر": 8054,
      "لاحقاً": 8055,
      "الاشتراكي": 8056,
      "السينما": 8057,
      "BN": 8058,
      "جدة": 8059,
      "مِ": 8060,
      "الفات": 8061,
      "شكلت": 8062,
      "مؤقت": 8063,
      "الرواية": 8064,
      "76": 8065,
      "ضخمة": 8066,
      "قوس": 8067,
      "مشاكل": 8068,
      "مدارس": 8069,
      "وحنا": 8070,
      "الجزائرية": 8071,
      "93": 8072,
      "ber": 8073,
      "لنا": 8074,
      "لجميع": 8075,
      "فيون": 8076,
      "1919": 8077,
      "عالمية": 8078,
      "الأرثوذكسية": 8079,
      "نيسان": 8080,
      "ضمان": 8081,
      "مسار": 8082,
      "المصطلح": 8083,
      "كيلو": 8084,
      "قريش": 8085,
      "منزل": 8086,
      "ديون": 8087,
      "وجاء": 8088,
      "وعلي": 8089,
      "الأصوات": 8090,
      "ثقافية": 8091,
      "رومان": 8092,
      "بالمدينة": 8093,
      "فيض": 8094,
      "ليبي": 8095,
      "الحب": 8096,
      "اليوناني": 8097,
      "الحاجة": 8098,
      "البروتستانت": 8099,
      "الأجنبية": 8100,
      "أرب": 8101,
      "إشارة": 8102,
      "بدي": 8103,
      "فلت": 8104,
      "الموارد": 8105,
      "العر": 8106,
      "الإشعاع": 8107,
      "ائم": 8108,
      "وسطة": 8109,
      "نيه": 8110,
      "دونيسيا": 8111,
      "تركيب": 8112,
      "وصفها": 8113,
      "بالفعل": 8114,
      "الإقليمية": 8115,
      "56": 8116,
      "بته": 8117,
      "صحة": 8118,
      "طراب": 8119,
      "مقام": 8120,
      "ابلة": 8121,
      "ويعد": 8122,
      "سلوك": 8123,
      "تنص": 8124,
      "والتن": 8125,
      "أدوات": 8126,
      "غيره": 8127,
      "وانته": 8128,
      "المسافة": 8129,
      "شدة": 8130,
      "عودة": 8131,
      "لابن": 8132,
      "الحار": 8133,
      "فاس": 8134,
      "افتراض": 8135,
      "مركبات": 8136,
      "إيز": 8137,
      "توجه": 8138,
      "شات": 8139,
      "وكتب": 8140,
      "التُ": 8141,
      "عمق": 8142,
      "القرنين": 8143,
      "الآسي": 8144,
      "المعالم": 8145,
      "جزءًا": 8146,
      "كيميائية": 8147,
      "ابهة": 8148,
      "دورا": 8149,
      "وتها": 8150,
      "للسلام": 8151,
      "الصورة": 8152,
      "الصخور": 8153,
      "وفرنسا": 8154,
      "1933": 8155,
      "يقدم": 8156,
      "العوامل": 8157,
      "سيون": 8158,
      "ثنائية": 8159,
      "المقام": 8160,
      "البسيطة": 8161,
      "برين": 8162,
      "مقات": 8163,
      "أسم": 8164,
      "لوحة": 8165,
      "الأجهزة": 8166,
      "وتوفي": 8167,
      "الكلمات": 8168,
      "استخدمت": 8169,
      "الرياضي": 8170,
      "الأجسام": 8171,
      "ايا": 8172,
      "سورية": 8173,
      "القادة": 8174,
      "استقر": 8175,
      "يتا": 8176,
      "وأمر": 8177,
      "الأموال": 8178,
      "مسعود": 8179,
      "مساعد": 8180,
      "والولايات": 8181,
      "تيان": 8182,
      "170": 8183,
      "1930": 8184,
      "وراه": 8185,
      ")؛": 8186,
      "تولي": 8187,
      "صري": 8188,
      "الأيام": 8189,
      "وزي": 8190,
      "حاديث": 8191,
      "إدريس": 8192,
      "كثيرًا": 8193,
      "إمبراطور": 8194,
      "التعريف": 8195,
      "und": 8196,
      "إرسال": 8197,
      "ضاف": 8198,
      "ومصر": 8199,
      "وسر": 8200,
      "قصير": 8201,
      "القرى": 8202,
      "1937": 8203,
      "المواطنين": 8204,
      "ضاب": 8205,
      "لشركة": 8206,
      "الالت": 8207,
      "ونغ": 8208,
      "القسطنطينية": 8209,
      "سيكون": 8210,
      "الرعاية": 8211,
      "استبد": 8212,
      "وائد": 8213,
      "إلَّا": 8214,
      "الخرطوم": 8215,
      "قرابة": 8216,
      "أجن": 8217,
      "بخ": 8218,
      "حرة": 8219,
      "ّان": 8220,
      "القانوني": 8221,
      "الوحد": 8222,
      "ألمان": 8223,
      "تتمتع": 8224,
      "المعدنية": 8225,
      "آب": 8226,
      "أيل": 8227,
      "ورغم": 8228,
      "تدل": 8229,
      "تدمير": 8230,
      "صفوف": 8231,
      "ge": 8232,
      "أسيس": 8233,
      "سهل": 8234,
      "فش": 8235,
      "مسب": 8236,
      "وايا": 8237,
      "لسفية": 8238,
      "شيئ": 8239,
      "فلون": 8240,
      "قاطع": 8241,
      "المجتمعات": 8242,
      "النهائي": 8243,
      "سارة": 8244,
      "ّاً": 8245,
      "العذ": 8246,
      "الفصل": 8247,
      "وأيض": 8248,
      "الطيران": 8249,
      "شاة": 8250,
      "صيغة": 8251,
      "الجزيئات": 8252,
      "رسميًا": 8253,
      "Re": 8254,
      "طه": 8255,
      "الترا": 8256,
      "الجهاد": 8257,
      "جيشه": 8258,
      "الحقبة": 8259,
      "أزمة": 8260,
      "وقبل": 8261,
      "لهما": 8262,
      "الفارسية": 8263,
      "كولومبيا": 8264,
      "ISBN": 8265,
      "صلاة": 8266,
      "بنحو": 8267,
      "اليهودي": 8268,
      "تنتشر": 8269,
      "غرى": 8270,
      "نباتات": 8271,
      "النتائج": 8272,
      "الموسيقية": 8273,
      "ارف": 8274,
      "العش": 8275,
      "يمتد": 8276,
      "أوغ": 8277,
      "يده": 8278,
      "تصدر": 8279,
      "وائز": 8280,
      "ظاهرات": 8281,
      "آذار": 8282,
      "صفة": 8283,
      "ضيف": 8284,
      "لندية": 8285,
      "نِ": 8286,
      "لمح": 8287,
      "درات": 8288,
      "والمست": 8289,
      "البروتينات": 8290,
      "تصف": 8291,
      "منظ": 8292,
      "الدقيقة": 8293,
      "وأُ": 8294,
      "1932": 8295,
      "الساحلية": 8296,
      "القطع": 8297,
      "الأفراد": 8298,
      "سريع": 8299,
      "السطح": 8300,
      "الاستخدام": 8301,
      "وطة": 8302,
      "وعمل": 8303,
      "والهند": 8304,
      "1921": 8305,
      "الدائرة": 8306,
      "أمور": 8307,
      "العاملة": 8308,
      "الحضرية": 8309,
      "حضارة": 8310,
      "54": 8311,
      "تِ": 8312,
      "فيهم": 8313,
      "ويعتقد": 8314,
      "وكاتب": 8315,
      "داة": 8316,
      "يطان": 8317,
      "صدير": 8318,
      "مرتبطة": 8319,
      "المؤمنين": 8320,
      "51": 8321,
      "ion": 8322,
      "مئات": 8323,
      "نام": 8324,
      "المدني": 8325,
      "أعقاب": 8326,
      "التقسيم": 8327,
      "CH": 8328,
      "منخفضة": 8329,
      "النطاق": 8330,
      "بلجي": 8331,
      "الطبق": 8332,
      "أحدث": 8333,
      "الأشياء": 8334,
      "بؤ": 8335,
      "ضيع": 8336,
      "يرغ": 8337,
      "النحو": 8338,
      "باق": 8339,
      "ترات": 8340,
      "الاستعم": 8341,
      "رائم": 8342,
      "اليومية": 8343,
      "الفلسطينيين": 8344,
      "تعليم": 8345,
      "خب": 8346,
      "خاض": 8347,
      "طراز": 8348,
      "مدين": 8349,
      "الذكور": 8350,
      "عبادة": 8351,
      "رسام": 8352,
      "تركيز": 8353,
      "قبرص": 8354,
      "بلوماسية": 8355,
      "إسطنبول": 8356,
      "توي": 8357,
      "خوان": 8358,
      "دمج": 8359,
      "ضعي": 8360,
      "يربط": 8361,
      "ِّي": 8362,
      "الشيوعية": 8363,
      "كبيرا": 8364,
      "بنفسه": 8365,
      "فك": 8366,
      "قن": 8367,
      "مناص": 8368,
      "التعامل": 8369,
      "ناية": 8370,
      "باعة": 8371,
      "أوراق": 8372,
      "يعقوب": 8373,
      "ومنهم": 8374,
      "غالبا": 8375,
      "المصريين": 8376,
      "وبدأت": 8377,
      "الأمازيغ": 8378,
      "ديمقراطية": 8379,
      "ألعاب": 8380,
      "صقلية": 8381,
      "كله": 8382,
      "مروان": 8383,
      "محلية": 8384,
      "الآلهة": 8385,
      "المهدي": 8386,
      "لمدينة": 8387,
      "وتشي": 8388,
      "قدة": 8389,
      "كسون": 8390,
      "البرون": 8391,
      "الأسواق": 8392,
      "الحرف": 8393,
      "%،": 8394,
      "نجيب": 8395,
      "الإطلاق": 8396,
      "قطار": 8397,
      "التنمية": 8398,
      "توقيع": 8399,
      "تصر": 8400,
      "وربما": 8401,
      "الرئاسة": 8402,
      "ترع": 8403,
      "أشجار": 8404,
      "إليزابيث": 8405,
      "Un": 8406,
      "صلى": 8407,
      "والعديد": 8408,
      "ارير": 8409,
      "نيجي": 8410,
      "نهايت": 8411,
      "قارنة": 8412,
      "ريبية": 8413,
      "ناً": 8414,
      "الشهير": 8415,
      "الدنيا": 8416,
      "الرشيد": 8417,
      "السكانية": 8418,
      "المعادلة": 8419,
      "أولي": 8420,
      "غادر": 8421,
      "واني": 8422,
      "ليان": 8423,
      "جاجات": 8424,
      "احتمال": 8425,
      "إدخال": 8426,
      "السريع": 8427,
      "ويقع": 8428,
      "An": 8429,
      "يوحنا": 8430,
      "العنف": 8431,
      "السائل": 8432,
      "سند": 8433,
      "أكس": 8434,
      "تشا": 8435,
      "قاذ": 8436,
      "الاستقرار": 8437,
      "شاطئ": 8438,
      "مقدار": 8439,
      "رز": 8440,
      "الموسيقي": 8441,
      "الحية": 8442,
      "البيض": 8443,
      "أهلها": 8444,
      "التشريعية": 8445,
      "المكسيك": 8446,
      "ببناء": 8447,
      "بقايا": 8448,
      "الحجاج": 8449,
      "معالجة": 8450,
      "الإصدار": 8451,
      "الشيوخ": 8452,
      "شرقي": 8453,
      "فنزوي": 8454,
      "عادت": 8455,
      "الأفكار": 8456,
      "ئك": 8457,
      "المالي": 8458,
      "عامر": 8459,
      "استن": 8460,
      "محطات": 8461,
      "جيدة": 8462,
      "غييرات": 8463,
      "كيميائي": 8464,
      "العصبي": 8465,
      "تار": 8466,
      "تذكر": 8467,
      "شجرة": 8468,
      "التقد": 8469,
      "السوفيات": 8470,
      "يسوع": 8471,
      "جنرال": 8472,
      "الاتفاق": 8473,
      "تدعى": 8474,
      "وشاعر": 8475,
      "الجامع": 8476,
      "الدموية": 8477,
      "تابع": 8478,
      "جابر": 8479,
      "باعتبارها": 8480,
      "إقلي": 8481,
      "سلاح": 8482,
      "عبيد": 8483,
      "لوي": 8484,
      "الليل": 8485,
      "المحر": 8486,
      "ولهذا": 8487,
      "ونو": 8488,
      "التغ": 8489,
      "ديلا": 8490,
      "البند": 8491,
      "للعمل": 8492,
      "الكلام": 8493,
      "تأتي": 8494,
      "والعلوم": 8495,
      "72": 8496,
      "ئيل": 8497,
      "قرن": 8498,
      "هلك": 8499,
      "يخت": 8500,
      "المئة": 8501,
      "أنس": 8502,
      "السفينة": 8503,
      "وتضم": 8504,
      "الاهتمام": 8505,
      "طرح": 8506,
      "غربية": 8507,
      "يتميز": 8508,
      "معدلات": 8509,
      "اللازمة": 8510,
      "الملوك": 8511,
      "طري": 8512,
      "عثر": 8513,
      "ومركز": 8514,
      "الإقليم": 8515,
      "كتبه": 8516,
      "أمّا": 8517,
      "تنام": 8518,
      "فإنّ": 8519,
      "الطوائف": 8520,
      "دران": 8521,
      "لتصبح": 8522,
      "تردد": 8523,
      "عضوية": 8524,
      "جعله": 8525,
      "الحروف": 8526,
      "شعوب": 8527,
      "الأصليين": 8528,
      "كلمات": 8529,
      "qu": 8530,
      "خسر": 8531,
      "عكا": 8532,
      "وسة": 8533,
      "وجام": 8534,
      "اعتد": 8535,
      "وأخ": 8536,
      "كرر": 8537,
      "اسكت": 8538,
      "المطاف": 8539,
      "63": 8540,
      "عاب": 8541,
      "فهد": 8542,
      "لحم": 8543,
      "واقت": 8544,
      "القادر": 8545,
      "الكوفة": 8546,
      "1914": 8547,
      "الذرات": 8548,
      "يوما": 8549,
      "أحياء": 8550,
      "أقيم": 8551,
      "الشخصيات": 8552,
      "NA": 8553,
      "آدم": 8554,
      "ألا": 8555,
      "رهاب": 8556,
      "سبي": 8557,
      "البري": 8558,
      "وبناء": 8559,
      "باخت": 8560,
      "فاط": 8561,
      "ذاهب": 8562,
      "130": 8563,
      "رموز": 8564,
      "الهاد": 8565,
      "التصوير": 8566,
      "كبيراً": 8567,
      "كارلوس": 8568,
      "كاثولي": 8569,
      "إق": 8570,
      "صيا": 8571,
      "قديم": 8572,
      "ممارسة": 8573,
      "يراد": 8574,
      "المراكز": 8575,
      "الصوديوم": 8576,
      "ذاعة": 8577,
      "أقوى": 8578,
      "الأصول": 8579,
      "الأفريقي": 8580,
      "توفير": 8581,
      "إنجليز": 8582,
      "New": 8583,
      "يجد": 8584,
      "التوالي": 8585,
      "ستير": 8586,
      "ودين": 8587,
      "خلية": 8588,
      "خلدون": 8589,
      "لسان": 8590,
      "يشمل": 8591,
      "نظرا": 8592,
      "تايمز": 8593,
      "الأسماك": 8594,
      "align": 8595,
      "ثلاثين": 8596,
      "جريدة": 8597,
      "كوبا": 8598,
      "البوسنة": 8599,
      "61": 8600,
      "صنف": 8601,
      "للعلوم": 8602,
      "الذرية": 8603,
      "سندر": 8604,
      "كونغ": 8605,
      "الغريغوري": 8606,
      "الهجري": 8607,
      "ميلادية": 8608,
      "خوف": 8609,
      "طم": 8610,
      "فأرسل": 8611,
      "كوف": 8612,
      "وجات": 8613,
      "مدير": 8614,
      "ترى": 8615,
      "كثيراً": 8616,
      "حكمه": 8617,
      "تمامًا": 8618,
      "تربط": 8619,
      "وتار": 8620,
      "الجل": 8621,
      "درسة": 8622,
      "كيفية": 8623,
      "نظريات": 8624,
      "حلقة": 8625,
      "جامعات": 8626,
      "ولوجي": 8627,
      "تمييز": 8628,
      "السرعة": 8629,
      "74": 8630,
      "زات": 8631,
      "فما": 8632,
      "ديوان": 8633,
      "الاث": 8634,
      "مؤرخ": 8635,
      "العلوي": 8636,
      "رياضية": 8637,
      "الذاتية": 8638,
      "ow": 8639,
      "العقيدة": 8640,
      "ليصبح": 8641,
      "ويؤ": 8642,
      "1943": 8643,
      "التاريخي": 8644,
      "موسكو": 8645,
      "الأصغر": 8646,
      "شكلة": 8647,
      "الحقيقية": 8648,
      "وبان": 8649,
      "وحصل": 8650,
      "الجنسي": 8651,
      "ُرُ": 8652,
      "52": 8653,
      "هورة": 8654,
      "البكتيريا": 8655,
      "يعطي": 8656,
      "علامة": 8657,
      "أصوات": 8658,
      "غازي": 8659,
      "الصهيونية": 8660,
      "أيلول": 8661,
      "عف": 8662,
      "يساعد": 8663,
      "المفر": 8664,
      "بنك": 8665,
      "شرع": 8666,
      "وكو": 8667,
      "وكانوا": 8668,
      "أثار": 8669,
      "ثابتة": 8670,
      "يعيشون": 8671,
      "62": 8672,
      "داني": 8673,
      "منظمات": 8674,
      "الفلز": 8675,
      "الصفر": 8676,
      "الاس": 8677,
      "غالباً": 8678,
      "موجة": 8679,
      "الجبلية": 8680,
      "com": 8681,
      "ونشر": 8682,
      "أمثال": 8683,
      "تكري": 8684,
      "اتصالات": 8685,
      "ليو": 8686,
      "معسكر": 8687,
      "عرش": 8688,
      "يقال": 8689,
      "الأنهار": 8690,
      "التقنية": 8691,
      "انتهى": 8692,
      "أثير": 8693,
      "تْ": 8694,
      "نواة": 8695,
      "يجي": 8696,
      "التشي": 8697,
      "ستين": 8698,
      "1922": 8699,
      "المنظمات": 8700,
      "تفعات": 8701,
      "مساحتها": 8702,
      "اختراع": 8703,
      "ثلة": 8704,
      "عالمي": 8705,
      "فندق": 8706,
      "الأتراك": 8707,
      "والجنوب": 8708,
      "تملك": 8709,
      "تصنيع": 8710,
      "الأنباء": 8711,
      "الوهاب": 8712,
      "مصريون": 8713,
      "المرابط": 8714,
      "طائفة": 8715,
      "الكثافة": 8716,
      "شفيات": 8717,
      "ّق": 8718,
      "المقابل": 8719,
      "الحس": 8720,
      "وتسمى": 8721,
      "الدالة": 8722,
      "يملك": 8723,
      "وثيقة": 8724,
      "تصوير": 8725,
      "تسجيل": 8726,
      "أساسية": 8727,
      "تستطيع": 8728,
      "سياسيون": 8729,
      "تطورت": 8730,
      "فهرنهايت": 8731,
      "فلونزا": 8732,
      "73": 8733,
      "ie": 8734,
      "بذ": 8735,
      "شغ": 8736,
      "اتصال": 8737,
      "ناها": 8738,
      "القضايا": 8739,
      "سيَّة": 8740,
      "اءً": 8741,
      "بدلا": 8742,
      "قيب": 8743,
      "مستقل": 8744,
      "مهند": 8745,
      "all": 8746,
      "اندلاع": 8747,
      "تيمية": 8748,
      "العُثمانيين": 8749,
      "فاءة": 8750,
      "خن": 8751,
      "صلا": 8752,
      "لعدة": 8753,
      "مام": 8754,
      "المشاركة": 8755,
      "الكويتي": 8756,
      "تموز": 8757,
      "المنخفضة": 8758,
      "جدل": 8759,
      "الأدنى": 8760,
      "الصحافة": 8761,
      "النمط": 8762,
      "وسلم": 8763,
      "الصلب": 8764,
      "ومنيوم": 8765,
      "أغراض": 8766,
      "1951": 8767,
      "التصميم": 8768,
      "عائشة": 8769,
      "الخصائص": 8770,
      "الأرجنتين": 8771,
      "طيق": 8772,
      "ونتيجة": 8773,
      "عمه": 8774,
      "تقليل": 8775,
      "درو": 8776,
      "المنصب": 8777,
      "فتها": 8778,
      "مقبرة": 8779,
      "موظ": 8780,
      "الأفريقية": 8781,
      "الانتداب": 8782,
      "المعاصر": 8783,
      "حنيفة": 8784,
      "حركات": 8785,
      "خواص": 8786,
      "سكو": 8787,
      "مسلسل": 8788,
      "وفى": 8789,
      "لتين": 8790,
      "ميلة": 8791,
      "الأخلاق": 8792,
      "جورجيا": 8793,
      "اختلف": 8794,
      "خات": 8795,
      "طيل": 8796,
      "يرت": 8797,
      "السكري": 8798,
      "هوية": 8799,
      "الثدي": 8800,
      "خلافة": 8801,
      "الباردة": 8802,
      "Ar": 8803,
      "مراد": 8804,
      "نمط": 8805,
      "ارضة": 8806,
      "معارك": 8807,
      "الإذاعة": 8808,
      "وقيع": 8809,
      "أعاد": 8810,
      "المجالات": 8811,
      "1934": 8812,
      "بسهولة": 8813,
      "ثيوبيا": 8814,
      "الأمريكيين": 8815,
      "الجمهوري": 8816,
      "العرقية": 8817,
      "توم": 8818,
      "قريب": 8819,
      "قادر": 8820,
      "اللاحقة": 8821,
      "وبسبب": 8822,
      "تحتل": 8823,
      "البعث": 8824,
      "دفاع": 8825,
      "ذوي": 8826,
      "شور": 8827,
      "نبي": 8828,
      "الفم": 8829,
      "الأمين": 8830,
      "وريين": 8831,
      "1935": 8832,
      "كثيرا": 8833,
      "روايات": 8834,
      "الرقم": 8835,
      "إيف": 8836,
      "حسان": 8837,
      "قبة": 8838,
      "ويبدو": 8839,
      "وقاز": 8840,
      "وفيها": 8841,
      "قليات": 8842,
      "علمية": 8843,
      "تزيد": 8844,
      "اندل": 8845,
      "والذين": 8846,
      "انتشرت": 8847,
      "الوحدات": 8848,
      "فنزويلا": 8849,
      "تام": 8850,
      "مييز": 8851,
      "المستقلة": 8852,
      "يجري": 8853,
      "والعراق": 8854,
      "العدل": 8855,
      "القانونية": 8856,
      "الفضل": 8857,
      "بفضل": 8858,
      "جبهة": 8859,
      "حديثة": 8860,
      "زيمة": 8861,
      "طرة": 8862,
      "فوظ": 8863,
      "كف": 8864,
      "المشاكل": 8865,
      "الأهم": 8866,
      "وتوجد": 8867,
      "1929": 8868,
      "لتا": 8869,
      "تشرة": 8870,
      "أسود": 8871,
      "كسر": 8872,
      "يستعمل": 8873,
      "زيمات": 8874,
      "الإيرانية": 8875,
      "أية": 8876,
      "فيينا": 8877,
      "الألف": 8878,
      "ادرة": 8879,
      "برئاسة": 8880,
      "الفائ": 8881,
      "الحاج": 8882,
      "العبَّا": 8883,
      "الطبقات": 8884,
      "خِ": 8885,
      "وأمة": 8886,
      "أمه": 8887,
      "الآلاف": 8888,
      "المستوط": 8889,
      "250": 8890,
      "غلبية": 8891,
      "سوني": 8892,
      "نقاط": 8893,
      "الأُم": 8894,
      "ستن": 8895,
      "لسلة": 8896,
      "فاقيات": 8897,
      "السنين": 8898,
      "لاجئين": 8899,
      "تث": 8900,
      "سجن": 8901,
      "غالي": 8902,
      "قري": 8903,
      "نفي": 8904,
      "ماة": 8905,
      "كيون": 8906,
      "الإمبراطوري": 8907,
      "الحدث": 8908,
      "تغطي": 8909,
      "الزراعي": 8910,
      "فيروز": 8911,
      "امتياز": 8912,
      "النقطة": 8913,
      "الهولندية": 8914,
      "الأوراق": 8915,
      "دولي": 8916,
      "زان": 8917,
      "مائية": 8918,
      "القراءة": 8919,
      "ويحت": 8920,
      "استغل": 8921,
      "فقام": 8922,
      "قاموا": 8923,
      "وشمال": 8924,
      "المرتب": 8925,
      "بناءً": 8926,
      "دورًا": 8927,
      "جهاد": 8928,
      "خلاص": 8929,
      "عظيم": 8930,
      "sp": 8931,
      "أون": 8932,
      "دود": 8933,
      "سجد": 8934,
      "سفن": 8935,
      "الَ": 8936,
      "واعت": 8937,
      "الحجري": 8938,
      "الفاتي": 8939,
      "الرسم": 8940,
      "الرئاسية": 8941,
      "والمُ": 8942,
      "الآش": 8943,
      "فنلندا": 8944,
      "المجمع": 8945,
      "تماما": 8946,
      "مركب": 8947,
      "خصوصا": 8948,
      "الخروج": 8949,
      "التربة": 8950,
      "أسفل": 8951,
      "ary": 8952,
      "وأكبر": 8953,
      "طرابلس": 8954,
      "الفلبين": 8955,
      "جناح": 8956,
      "سويسرا": 8957,
      "av": 8958,
      "درائية": 8959,
      "سبت": 8960,
      "باغ": 8961,
      "الثابت": 8962,
      "نظير": 8963,
      "داول": 8964,
      "أنهار": 8965,
      "عددًا": 8966,
      "بابل": 8967,
      "تحدد": 8968,
      "للحكومة": 8969,
      "أوكرانيا": 8970,
      "طاء": 8971,
      "قم": 8972,
      "قضاء": 8973,
      "انخفض": 8974,
      "الأفلام": 8975,
      "انيَّة": 8976,
      "يتهم": 8977,
      "اريو": 8978,
      "وضوح": 8979,
      "ألبرت": 8980,
      "نصوص": 8981,
      "ell": 8982,
      "الفيزيائية": 8983,
      "ran": 8984,
      "إزالة": 8985,
      "بالد": 8986,
      "زياد": 8987,
      "يكتب": 8988,
      "فيلي": 8989,
      "المحد": 8990,
      "القيم": 8991,
      "بيتر": 8992,
      "تجربة": 8993,
      "الحربية": 8994,
      "ببعض": 8995,
      "بإنشاء": 8996,
      "كبرى": 8997,
      "مدي": 8998,
      "البرا": 8999,
      "بتد": 9000,
      "الإمارة": 9001,
      "واصم": 9002,
      "ضائع": 9003,
      "اردو": 9004,
      "ابرات": 9005,
      "القاضي": 9006,
      "للقوات": 9007,
      "إنها": 9008,
      "أعياد": 9009,
      "الحميد": 9010,
      "مينيا": 9011,
      "إسباني": 9012,
      "مقدمة": 9013,
      "بولاية": 9014,
      "روة": 9015,
      "هامة": 9016,
      "التابع": 9017,
      "َّف": 9018,
      "استط": 9019,
      "محرك": 9020,
      "يشبه": 9021,
      "تعديل": 9022,
      "الجنس": 9023,
      "وثيق": 9024,
      "اختبار": 9025,
      "قادرة": 9026,
      "II": 9027,
      "زت": 9028,
      "كانية": 9029,
      "للش": 9030,
      "مُراد": 9031,
      "عشرين": 9032,
      "بصفة": 9033,
      "خصوصاً": 9034,
      "جوب": 9035,
      "رفي": 9036,
      "الوص": 9037,
      "الاعتراف": 9038,
      "الأشع": 9039,
      "الأمثلة": 9040,
      "ياسين": 9041,
      "أنت": 9042,
      "ومحمد": 9043,
      "البها": 9044,
      "عمارة": 9045,
      "مرتين": 9046,
      "ملحن": 9047,
      "والتق": 9048,
      "النازية": 9049,
      "الانس": 9050,
      "استخدامها": 9051,
      "الفرنسيين": 9052,
      "ئر": 9053,
      "ينبغي": 9054,
      "والل": 9055,
      "وعاد": 9056,
      "وعرض": 9057,
      "يعلن": 9058,
      "حينما": 9059,
      "القطبية": 9060,
      "مكانة": 9061,
      "الفرع": 9062,
      "حاصلون": 9063,
      "تطبيقات": 9064,
      "التطبيقات": 9065,
      "بالط": 9066,
      "جور": 9067,
      "سْ": 9068,
      "شقيق": 9069,
      "البث": 9070,
      "كرم": 9071,
      "المعارك": 9072,
      "واقف": 9073,
      "يحكم": 9074,
      "البلدية": 9075,
      "البلطيق": 9076,
      "الكهرومغ": 9077,
      "كوس": 9078,
      "الارتفاع": 9079,
      "الأسباب": 9080,
      "ادم": 9081,
      "1923": 9082,
      "والمعر": 9083,
      "بطول": 9084,
      "وليام": 9085,
      "المعمارية": 9086,
      "المرتبطة": 9087,
      "إيه": 9088,
      "تلق": 9089,
      "ذن": 9090,
      "قوق": 9091,
      "كجزء": 9092,
      "يأخذ": 9093,
      "رافق": 9094,
      "والثقافة": 9095,
      "الحركات": 9096,
      "برات": 9097,
      "تحار": 9098,
      "وكيو": 9099,
      "شاركت": 9100,
      "الظاهر": 9101,
      "النبوي": 9102,
      "الغازات": 9103,
      "ملحوظ": 9104,
      "Cl": 9105,
      "كرب": 9106,
      "نود": 9107,
      "الحشرات": 9108,
      "كانا": 9109,
      "اده": 9110,
      "1925": 9111,
      "الفكرة": 9112,
      "الذا": 9113,
      "لتلك": 9114,
      "ملكية": 9115,
      "أثبت": 9116,
      "فريدريك": 9117,
      "برمجيات": 9118,
      "الإغريق": 9119,
      "تجاوز": 9120,
      "ثا": 9121,
      "زلي": 9122,
      "سالم": 9123,
      "الأبحاث": 9124,
      "القواعد": 9125,
      "وجز": 9126,
      "الصلبة": 9127,
      "جمل": 9128,
      "إنس": 9129,
      "كيين": 9130,
      "1942": 9131,
      "مكاف": 9132,
      "اشتهر": 9133,
      "التفاعلات": 9134,
      "عملت": 9135,
      "أسد": 9136,
      "وريون": 9137,
      "فسر": 9138,
      "الاستيلاء": 9139,
      "مواجهة": 9140,
      "بسيطة": 9141,
      "حقل": 9142,
      "واشت": 9143,
      "السفر": 9144,
      "القريبة": 9145,
      "فرت": 9146,
      "زيلي": 9147,
      "ومعظم": 9148,
      "روائي": 9149,
      "نائه": 9150,
      "تقدر": 9151,
      "صناعات": 9152,
      "الجمهور": 9153,
      "69": 9154,
      "|-": 9155,
      "أظهرت": 9156,
      "تلقى": 9157,
      "قالت": 9158,
      "يسبب": 9159,
      "أنصار": 9160,
      "البوذية": 9161,
      "المنصور": 9162,
      "رقاء": 9163,
      "حاجة": 9164,
      "َّةٍ": 9165,
      "المتعددة": 9166,
      "خطأ": 9167,
      "مستقبل": 9168,
      "طيلة": 9169,
      "ذكرت": 9170,
      "الأدبية": 9171,
      "أحيانًا": 9172,
      "جوا": 9173,
      "المتع": 9174,
      "الأزمة": 9175,
      "يرتبط": 9176,
      "السجن": 9177,
      "الجيوش": 9178,
      "وعادة": 9179,
      "قاعة": 9180,
      "حروف": 9181,
      "سرطان": 9182,
      "أرمينيا": 9183,
      "فصال": 9184,
      "زوجها": 9185,
      "المؤرخون": 9186,
      "إلغاء": 9187,
      "يصف": 9188,
      "بيزن": 9189,
      "1924": 9190,
      "بينه": 9191,
      "كروات": 9192,
      "تشبه": 9193,
      "للملك": 9194,
      "السلطنة": 9195,
      "أدب": 9196,
      "الأحمد": 9197,
      "داخلية": 9198,
      "رتبة": 9199,
      "الإلكتروني": 9200,
      "الروايات": 9201,
      "تعرضت": 9202,
      "واطئ": 9203,
      "الطرفين": 9204,
      "أقر": 9205,
      "بالش": 9206,
      "بجانب": 9207,
      "دًا": 9208,
      "الدنا": 9209,
      "يمتلك": 9210,
      "إنهاء": 9211,
      "تشتهر": 9212,
      "رسائل": 9213,
      "وادث": 9214,
      "الرسالة": 9215,
      "تعدّ": 9216,
      "العصبية": 9217,
      "بالإنجليزية": 9218,
      "توقف": 9219,
      "منتجات": 9220,
      "ودر": 9221,
      "كلما": 9222,
      "تيار": 9223,
      "تنتمي": 9224,
      "يُعد": 9225,
      "معظمها": 9226,
      "محاولات": 9227,
      "الجماعات": 9228,
      "مشتركة": 9229,
      "59": 9230,
      "كواد": 9231,
      "لأكثر": 9232,
      "ورز": 9233,
      "الإث": 9234,
      "جمهو": 9235,
      "جنس": 9236,
      "خصة": 9237,
      "مقالات": 9238,
      "المعهد": 9239,
      "طوله": 9240,
      "الذاكرة": 9241,
      "بتر": 9242,
      "تساعد": 9243,
      "ديني": 9244,
      "الوج": 9245,
      "لتع": 9246,
      "المتوقع": 9247,
      "ميث": 9248,
      "السلوك": 9249,
      "ذاتها": 9250,
      "1931": 9251,
      "الفلكية": 9252,
      "إضافية": 9253,
      "التُرك": 9254,
      "غوط": 9255,
      "فعلى": 9256,
      "الوزن": 9257,
      "وسلا": 9258,
      "بقيت": 9259,
      "ولمَّا": 9260,
      "الكونغ": 9261,
      "المؤسسة": 9262,
      "القضية": 9263,
      "أذربيجان": 9264,
      "بادة": 9265,
      "جيوش": 9266,
      "صراع": 9267,
      "ميزة": 9268,
      "الحماية": 9269,
      "ابا": 9270,
      "وتست": 9271,
      "الفراغ": 9272,
      "وأغ": 9273,
      "إنّ": 9274,
      "يؤمن": 9275,
      "ak": 9276,
      "بياء": 9277,
      "ُد": 9278,
      "السلاجقة": 9279,
      "الجيول": 9280,
      "الكاتب": 9281,
      "حدر": 9282,
      "متعدد": 9283,
      "المدى": 9284,
      "تُعرف": 9285,
      "سابقا": 9286,
      "المباشر": 9287,
      "700": 9288,
      "الهر": 9289,
      "السم": 9290,
      "ويلة": 9291,
      "الجسر": 9292,
      "الشديد": 9293,
      "مرتفعة": 9294,
      "وأعلن": 9295,
      "قتين": 9296,
      "براج": 9297,
      "عرفات": 9298,
      "ألفا": 9299,
      "الاتحادية": 9300,
      "الموجة": 9301,
      "الجمعة": 9302,
      "الجغرافي": 9303,
      "روى": 9304,
      "التخ": 9305,
      "راص": 9306,
      "هيكل": 9307,
      "وأف": 9308,
      "والدته": 9309,
      "ard": 9310,
      "انضمام": 9311,
      "الفيزيائي": 9312,
      "نيجيريا": 9313,
      "سح": 9314,
      "الأجانب": 9315,
      "القياس": 9316,
      "وبشكل": 9317,
      "بنيت": 9318,
      "سلطنة": 9319,
      "جميل": 9320,
      "سنغ": 9321,
      "ميكانيكا": 9322,
      "عاة": 9323,
      "اختصار": 9324,
      "زلزال": 9325,
      "ؤاد": 9326,
      "رصد": 9327,
      "كاست": 9328,
      "التقدم": 9329,
      "وقا": 9330,
      "َّع": 9331,
      "تتألف": 9332,
      "سرعان": 9333,
      "غرفة": 9334,
      "لعبة": 9335,
      "الذهبية": 9336,
      "أري": 9337,
      "كفر": 9338,
      "المقاطعات": 9339,
      "واه": 9340,
      "وتعني": 9341,
      "وقود": 9342,
      "جراءات": 9343,
      "اطر": 9344,
      "تأسس": 9345,
      "ثية": 9346,
      "ضباط": 9347,
      "كّل": 9348,
      "هاي": 9349,
      "مادي": 9350,
      "السلاح": 9351,
      "صرح": 9352,
      "كرمة": 9353,
      "وظل": 9354,
      "الريحاني": 9355,
      "الميد": 9356,
      "المائة": 9357,
      "الأديان": 9358,
      "وبرا": 9359,
      "الجنا": 9360,
      "الإعل": 9361,
      "الثل": 9362,
      "مماثلة": 9363,
      "الأشكال": 9364,
      "hem": 9365,
      "الليبر": 9366,
      "الألوان": 9367,
      "اليمين": 9368,
      "مطلع": 9369,
      "تيني": 9370,
      "غون": 9371,
      "المعنى": 9372,
      "ونصف": 9373,
      "الزعيم": 9374,
      "دفن": 9375,
      "فجر": 9376,
      "الأجزاء": 9377,
      "القطب": 9378,
      "اليس": 9379,
      "يقود": 9380,
      "تتنا": 9381,
      "الحيوان": 9382,
      "انتقلت": 9383,
      "الصيغة": 9384,
      "أطفال": 9385,
      "أسبوع": 9386,
      "إحصاء": 9387,
      "حظر": 9388,
      "مذكر": 9389,
      "ممكن": 9390,
      "العادية": 9391,
      "الفحم": 9392,
      "استولى": 9393,
      "سلح": 9394,
      "جاك": 9395,
      "السريانية": 9396,
      "المعماري": 9397,
      "79": 9398,
      "جيع": 9399,
      "زيل": 9400,
      "زواج": 9401,
      "صَ": 9402,
      "مخرج": 9403,
      "يهودي": 9404,
      "ائيات": 9405,
      "الأمراء": 9406,
      "تعزيز": 9407,
      "أدرك": 9408,
      "النظريات": 9409,
      "ضرورة": 9410,
      "بريل": 9411,
      "جماعات": 9412,
      "الترتيب": 9413,
      "الكاثوليك": 9414,
      "الحاضر": 9415,
      "كورة": 9416,
      "ملة": 9417,
      "المقت": 9418,
      "الملح": 9419,
      "منط": 9420,
      "1926": 9421,
      "عموما": 9422,
      "فرنسيون": 9423,
      "المعبد": 9424,
      "منصور": 9425,
      "الأسب": 9426,
      "التوراة": 9427,
      "الحلق": 9428,
      "النور": 9429,
      "عيان": 9430,
      "عددهم": 9431,
      "تنق": 9432,
      "خطي": 9433,
      "دمير": 9434,
      "أطراف": 9435,
      "وأيضا": 9436,
      "our": 9437,
      "ts": 9438,
      "أحيانا": 9439,
      "اتخاذ": 9440,
      "أعراض": 9441,
      "تعاون": 9442,
      "جسد": 9443,
      "ذف": 9444,
      "ضال": 9445,
      "مشاريع": 9446,
      "ريال": 9447,
      "سترا": 9448,
      "أنتج": 9449,
      "وأحد": 9450,
      "بعل": 9451,
      "أمَّا": 9452,
      "الهامة": 9453,
      "رضا": 9454,
      "مصنع": 9455,
      "قبول": 9456,
      "أعيد": 9457,
      "جوهر": 9458,
      "الفيروسات": 9459,
      "وزيلندا": 9460,
      "اقرأ": 9461,
      "جرا": 9462,
      "ذان": 9463,
      "يسر": 9464,
      "بعدم": 9465,
      "محور": 9466,
      "أسعار": 9467,
      "ملعب": 9468,
      "كاي": 9469,
      "جهات": 9470,
      "قصص": 9471,
      "وإد": 9472,
      "صدام": 9473,
      "الأنس": 9474,
      "ضرار": 9475,
      "التقى": 9476,
      "شلونة": 9477,
      "السوفييتي": 9478,
      "اجتماعي": 9479,
      "الناتجة": 9480,
      "بدايات": 9481,
      "أستاذ": 9482,
      "البرمجيات": 9483,
      "أمثلة": 9484,
      "الألي": 9485,
      "العز": 9486,
      "البة": 9487,
      "باين": 9488,
      "الزمان": 9489,
      "ردد": 9490,
      "أحكام": 9491,
      "ich": 9492,
      "معادلة": 9493,
      "العباسية": 9494,
      "أكل": 9495,
      "طبع": 9496,
      "طيف": 9497,
      "قوط": 9498,
      "كشاف": 9499,
      "مطالب": 9500,
      "الإضافة": 9501,
      "ائط": 9502,
      "بيسة": 9503,
      "يعي": 9504,
      "يوهان": 9505,
      "لكنَّ": 9506,
      "جزءاً": 9507,
      "الصحف": 9508,
      "المختار": 9509,
      "الخمسة": 9510,
      "سقطت": 9511,
      "تال": 9512,
      "صميم": 9513,
      "نقد": 9514,
      "ماكس": 9515,
      "وتبلغ": 9516,
      "عنهم": 9517,
      "الكالسيوم": 9518,
      "افلات": 9519,
      "هدد": 9520,
      "فتوح": 9521,
      "السيادة": 9522,
      "ازداد": 9523,
      "الحضارات": 9524,
      "الأعراض": 9525,
      "أسرع": 9526,
      "حزيران": 9527,
      "ؤولة": 9528,
      "كثر": 9529,
      "لسنة": 9530,
      "لواء": 9531,
      "المان": 9532,
      "التمثيل": 9533,
      "ستاذ": 9534,
      "كنة": 9535,
      "الخطي": 9536,
      "يتراوح": 9537,
      "بطا": 9538,
      "المرج": 9539,
      "التجارب": 9540,
      "نسخ": 9541,
      "استمرار": 9542,
      "استقلالها": 9543,
      "ok": 9544,
      "شَ": 9545,
      "لعدد": 9546,
      "المف": 9547,
      "الساح": 9548,
      "البير": 9549,
      "بيوتر": 9550,
      "الفُ": 9551,
      "استقرار": 9552,
      "الطوار": 9553,
      "ئبق": 9554,
      "شراء": 9555,
      "عاء": 9556,
      "موطن": 9557,
      "فيذي": 9558,
      "الممثل": 9559,
      "الأولي": 9560,
      "الكاملة": 9561,
      "الشرا": 9562,
      "الدخل": 9563,
      "فرس": 9564,
      "والتر": 9565,
      "فضلاً": 9566,
      "بيرو": 9567,
      "أبيض": 9568,
      "الشرعية": 9569,
      "مزد": 9570,
      "العملة": 9571,
      "السادسة": 9572,
      "المذكور": 9573,
      "الغذاء": 9574,
      "بدورها": 9575,
      "النرويج": 9576,
      "cent": 9577,
      "تراجع": 9578,
      "تساوي": 9579,
      "ضير": 9580,
      "فائ": 9581,
      "ونَ": 9582,
      "وفن": 9583,
      "والتعليم": 9584,
      "ولدت": 9585,
      "صدرت": 9586,
      "الدروز": 9587,
      "السريعة": 9588,
      "اللبناني": 9589,
      "بضعة": 9590,
      "71": 9591,
      "بوضع": 9592,
      "سعة": 9593,
      "هجر": 9594,
      "الموحد": 9595,
      "وبحلول": 9596,
      "بيًا": 9597,
      "تقنيات": 9598,
      "مارسات": 9599,
      "تجاري": 9600,
      "تسعة": 9601,
      "الجامعي": 9602,
      "إنجليزية": 9603,
      "محدودة": 9604,
      "إلكترون": 9605,
      "86": 9606,
      "أمت": 9607,
      "ؤل": 9608,
      "يريد": 9609,
      "البتر": 9610,
      "عدات": 9611,
      "للولايات": 9612,
      "النتيجة": 9613,
      "بيين": 9614,
      "شاطات": 9615,
      "جيري": 9616,
      "صفحات": 9617,
      "كتابات": 9618,
      "ذكرى": 9619,
      "الأدلة": 9620,
      "مسيحية": 9621,
      "ديزني": 9622,
      "84": 9623,
      "واسم": 9624,
      "ويج": 9625,
      "الشؤون": 9626,
      "وقامت": 9627,
      "تحف": 9628,
      "فاوت": 9629,
      "ماريا": 9630,
      "قُتل": 9631,
      "أنّه": 9632,
      "رفة": 9633,
      "كافية": 9634,
      "لتحديد": 9635,
      "الميناء": 9636,
      "ينتمي": 9637,
      "التحق": 9638,
      "صلحة": 9639,
      "والأخ": 9640,
      "لقاب": 9641,
      "وإعادة": 9642,
      "ماثيل": 9643,
      "ou": 9644,
      "أبر": 9645,
      "ثى": 9646,
      "سيرة": 9647,
      "طهاد": 9648,
      "الشحنة": 9649,
      "محلي": 9650,
      "وطلب": 9651,
      "تجار": 9652,
      "الفيني": 9653,
      "دينار": 9654,
      "دعوة": 9655,
      "الخضراء": 9656,
      "%)": 9657,
      "ff": 9658,
      "ian": 9659,
      "إكس": 9660,
      "بأمر": 9661,
      "حمص": 9662,
      "عالي": 9663,
      "فولت": 9664,
      "نست": 9665,
      "يير": 9666,
      "مناز": 9667,
      "يابانية": 9668,
      "قدار": 9669,
      "كلف": 9670,
      "مصطلحات": 9671,
      "تجري": 9672,
      "جلال": 9673,
      "تفاعلات": 9674,
      "أُخرى": 9675,
      "التصويت": 9676,
      "مكعب": 9677,
      "القائم": 9678,
      "الهولندي": 9679,
      "الأسطول": 9680,
      "دست": 9681,
      "المَ": 9682,
      "الألفية": 9683,
      "التحول": 9684,
      "ستاني": 9685,
      "وفيتش": 9686,
      "وزا": 9687,
      "مهما": 9688,
      "السابعة": 9689,
      "بابا": 9690,
      "نجح": 9691,
      "شاهدة": 9692,
      "أديب": 9693,
      "توص": 9694,
      "فد": 9695,
      "كاء": 9696,
      "هزم": 9697,
      "يمنع": 9698,
      "العبيد": 9699,
      "بعثة": 9700,
      "لتن": 9701,
      "جلد": 9702,
      "حصن": 9703,
      "العدوى": 9704,
      "زاده": 9705,
      "سسات": 9706,
      "شان": 9707,
      "مبادئ": 9708,
      "مائي": 9709,
      "الرحلة": 9710,
      "سنت": 9711,
      "المنزل": 9712,
      "حرار": 9713,
      "قصد": 9714,
      "تاريخه": 9715,
      "هنالك": 9716,
      "الهيكل": 9717,
      "تستعمل": 9718,
      "سفيان": 9719,
      "فيكتوريا": 9720,
      "تواجد": 9721,
      "فالات": 9722,
      "لتحقيق": 9723,
      "المبنى": 9724,
      "البوا": 9725,
      "يلين": 9726,
      "انيت": 9727,
      "قيلة": 9728,
      "يوغ": 9729,
      "قطب": 9730,
      "المسائل": 9731,
      "فقات": 9732,
      "إدارية": 9733,
      "الأحكام": 9734,
      "صناعية": 9735,
      "مشترك": 9736,
      "»)": 9737,
      "ئلة": 9738,
      "تلت": 9739,
      "جذور": 9740,
      "غوب": 9741,
      "القوقاز": 9742,
      "علامات": 9743,
      "نيو": 9744,
      "النمساوية": 9745,
      "بدوره": 9746,
      "بوز": 9747,
      "ثيوم": 9748,
      "لدرجة": 9749,
      "المظ": 9750,
      "السور": 9751,
      "الباك": 9752,
      "ناز": 9753,
      "ويكب": 9754,
      "قدام": 9755,
      "تعطي": 9756,
      "شخصًا": 9757,
      "بريطانية": 9758,
      "القدماء": 9759,
      "الأردني": 9760,
      "السادات": 9761,
      "موجات": 9762,
      "للعديد": 9763,
      "الأطراف": 9764,
      "جبار": 9765,
      "جسيمات": 9766,
      "خَ": 9767,
      "مخل": 9768,
      "الأقاليم": 9769,
      "السورة": 9770,
      "حيفا": 9771,
      "سلطات": 9772,
      "شيط": 9773,
      "ماركي": 9774,
      "اضية": 9775,
      "والأح": 9776,
      "الحمض": 9777,
      "صحراء": 9778,
      "المغربية": 9779,
      "محدد": 9780,
      "حُكم": 9781,
      "العباسي": 9782,
      "الفاتيكان": 9783,
      "قريبة": 9784,
      "قراءة": 9785,
      "نزل": 9786,
      "يحد": 9787,
      "المقا": 9788,
      "المثل": 9789,
      "البلق": 9790,
      "تحتاج": 9791,
      "إندونيسيا": 9792,
      "رنة": 9793,
      "أموال": 9794,
      "أدنى": 9795,
      "المعاصرة": 9796,
      "والعمل": 9797,
      "تقدير": 9798,
      "يعدّ": 9799,
      "القبض": 9800,
      "مايكل": 9801,
      "En": 9802,
      "بمساعدة": 9803,
      "شفت": 9804,
      "فقيه": 9805,
      "الهم": 9806,
      "منفصلة": 9807,
      "العادي": 9808,
      "والجماعة": 9809,
      "السكن": 9810,
      "برشلونة": 9811,
      "1916": 9812,
      "وجم": 9813,
      "الزكاة": 9814,
      "الشيء": 9815,
      "مونستر": 9816,
      "بأي": 9817,
      "ّح": 9818,
      "كرار": 9819,
      "بحكم": 9820,
      "ond": 9821,
      "بالتالي": 9822,
      "انسحاب": 9823,
      "التنفيذية": 9824,
      "أبحاث": 9825,
      "اجت": 9826,
      "تلا": 9827,
      "تباع": 9828,
      "دنا": 9829,
      "سراح": 9830,
      "ملت": 9831,
      "هشام": 9832,
      "التوزيع": 9833,
      "ستا": 9834,
      "وبها": 9835,
      "الكبيسة": 9836,
      "يمين": 9837,
      "الخلفاء": 9838,
      "يدو": 9839,
      "ساحلية": 9840,
      "يشار": 9841,
      "أولئك": 9842,
      "النازي": 9843,
      "يتمتع": 9844,
      "المؤلف": 9845,
      "رأسه": 9846,
      "رومانية": 9847,
      "بالذكر": 9848,
      "جهد": 9849,
      "شى": 9850,
      "فادة": 9851,
      "لبي": 9852,
      "الوزير": 9853,
      "انفجار": 9854,
      "الأبعاد": 9855,
      "الأطباء": 9856,
      "يتولى": 9857,
      "وهات": 9858,
      "أعوام": 9859,
      "الشعراء": 9860,
      "مكونة": 9861,
      "per": 9862,
      "أبطال": 9863,
      "لولاية": 9864,
      "الأرقام": 9865,
      "ورث": 9866,
      "للطاقة": 9867,
      "الكا": 9868,
      "بنان": 9869,
      "اللح": 9870,
      "جزائري": 9871,
      "احتيا": 9872,
      "جزءا": 9873,
      "عادل": 9874,
      "الفرقة": 9875,
      "فرانك": 9876,
      "أظهر": 9877,
      "بمن": 9878,
      "الولادة": 9879,
      "راوية": 9880,
      "الفة": 9881,
      "الإنجليز": 9882,
      "للحزب": 9883,
      "فاطمة": 9884,
      "الهادئ": 9885,
      "جذب": 9886,
      "درة": 9887,
      "الوا": 9888,
      "وبِ": 9889,
      "اللقب": 9890,
      "اللعبة": 9891,
      "نظراً": 9892,
      "يتمكن": 9893,
      "رجمة": 9894,
      "أوروبية": 9895,
      "استخدامه": 9896,
      "قضى": 9897,
      "وتحديد": 9898,
      "القادمة": 9899,
      "82": 9900,
      "»:": 9901,
      "المكتب": 9902,
      "مني": 9903,
      "ومر": 9904,
      "سيلي": 9905,
      "الجري": 9906,
      "للجيش": 9907,
      "يعادل": 9908,
      "سطو": 9909,
      "لبناء": 9910,
      "وغالب": 9911,
      "البيئية": 9912,
      "أعطى": 9913,
      "التقاليد": 9914,
      "مضيق": 9915,
      "المزد": 9916,
      "النهائية": 9917,
      "الدستورية": 9918,
      "أكاديمية": 9919,
      "ev": 9920,
      "أطلقت": 9921,
      "تبعد": 9922,
      "جند": 9923,
      "مزيج": 9924,
      "والاجتماعية": 9925,
      "الفقر": 9926,
      "ساطة": 9927,
      "كتبها": 9928,
      "َّةً": 9929,
      "بطي": 9930,
      "ذكره": 9931,
      "إذاعة": 9932,
      "الأحوال": 9933,
      "بورصة": 9934,
      "وحده": 9935,
      "هولندي": 9936,
      "87": 9937,
      "برب": 9938,
      "رفت": 9939,
      "عدّة": 9940,
      "ويسمى": 9941,
      "وبول": 9942,
      "للتقويم": 9943,
      "الروس": 9944,
      "الطفل": 9945,
      "وريس": 9946,
      "تدور": 9947,
      "التجمع": 9948,
      "التحديد": 9949,
      "ألوان": 9950,
      "نشرت": 9951,
      "الإسبان": 9952,
      "النزاع": 9953,
      "CO": 9954,
      "تطل": 9955,
      "متم": 9956,
      "التها": 9957,
      "ويّة": 9958,
      "للاتحاد": 9959,
      "عمدة": 9960,
      "خصيص": 9961,
      "المُؤ": 9962,
      "تصاص": 9963,
      "الأخبار": 9964,
      "بأكم": 9965,
      "اشية": 9966,
      "خصوصًا": 9967,
      "بالص": 9968,
      "تلاف": 9969,
      "فِي": 9970,
      "محيط": 9971,
      "نوا": 9972,
      "المالك": 9973,
      "المريض": 9974,
      "ياهو": 9975,
      "1928": 9976,
      "وعشرين": 9977,
      "إنما": 9978,
      "الطويل": 9979,
      "صلب": 9980,
      "ومنطقة": 9981,
      "مقعد": 9982,
      "المناعة": 9983,
      "السيارة": 9984,
      "الانتقال": 9985,
      "آلهة": 9986,
      "دوا": 9987,
      "رعاية": 9988,
      "قلا": 9989,
      "كسب": 9990,
      "مالية": 9991,
      "المادية": 9992,
      "ورت": 9993,
      "الحمد": 9994,
      "السلسلة": 9995,
      "النفا": 9996,
      "وسوريا": 9997,
      "الفرات": 9998,
      "َّب": 9999,
      "الطلب": 10000,
      "لتر": 10001,
      "فرج": 10002,
      "تشري": 10003,
      "نهائي": 10004,
      "الخصوص": 10005,
      "ثبات": 10006,
      "مند": 10007,
      "يتضمن": 10008,
      "وفيه": 10009,
      "نيكولا": 10010,
      "سعى": 10011,
      "مؤسسات": 10012,
      "وسياسي": 10013,
      "بطل": 10014,
      "سج": 10015,
      "طَ": 10016,
      "هجمات": 10017,
      "الوادي": 10018,
      "الانتخاب": 10019,
      "انطلاق": 10020,
      "ورق": 10021,
      "وتد": 10022,
      "كتبت": 10023,
      "وكات": 10024,
      "يوان": 10025,
      "والأس": 10026,
      "الميث": 10027,
      "ويرجع": 10028,
      "والثاني": 10029,
      "المشترك": 10030,
      "الدنمارك": 10031,
      "أداة": 10032,
      "ذَ": 10033,
      "الأغلبية": 10034,
      "ماثل": 10035,
      "الحدا": 10036,
      "1927": 10037,
      "انيوم": 10038,
      "يتجاوز": 10039,
      "لحماية": 10040,
      "طارد": 10041,
      "طارق": 10042,
      "الموجات": 10043,
      "رسمياً": 10044,
      "ملاحظة": 10045,
      "انوس": 10046,
      "الأوس": 10047,
      "العبرية": 10048,
      "وافل": 10049,
      "الكشف": 10050,
      "1900": 10051,
      "الفلاح": 10052,
      "تدريب": 10053,
      "وقتها": 10054,
      "كوّن": 10055,
      "شارل": 10056,
      "مناق": 10057,
      "الأدوات": 10058,
      "دلالة": 10059,
      "المخابرات": 10060,
      "الحكومات": 10061,
      "النسخة": 10062,
      "ألكسندر": 10063,
      "تانيا": 10064,
      "تهدف": 10065,
      "صوص": 10066,
      "نواب": 10067,
      "ولل": 10068,
      "ولان": 10069,
      "رافي": 10070,
      "ناطة": 10071,
      "قيصر": 10072,
      "جاذ": 10073,
      "يُعتبر": 10074,
      "يُعتقد": 10075,
      "رائد": 10076,
      "حوله": 10077,
      "وائم": 10078,
      "عُرف": 10079,
      "الورق": 10080,
      "إثيوبيا": 10081,
      "صرب": 10082,
      "المة": 10083,
      "المسب": 10084,
      "ينص": 10085,
      "رابع": 10086,
      "وازي": 10087,
      "الرصاص": 10088,
      "فرصة": 10089,
      "الضخمة": 10090,
      "طاعم": 10091,
      "نفسي": 10092,
      "المعاهدة": 10093,
      "سابقًا": 10094,
      "تسا": 10095,
      "توأمة": 10096,
      "شئ": 10097,
      "عدي": 10098,
      "مهد": 10099,
      "فيلسوف": 10100,
      "المقر": 10101,
      "ياكل": 10102,
      "البت": 10103,
      "الفني": 10104,
      "تمرات": 10105,
      "يدين": 10106,
      "جزئي": 10107,
      "ويلز": 10108,
      "ork": 10109,
      "السنوي": 10110,
      "الموافقة": 10111,
      "رياضة": 10112,
      "التعليمية": 10113,
      "حائزون": 10114,
      "83": 10115,
      "إعداد": 10116,
      "حه": 10117,
      "فؤاد": 10118,
      "كتشف": 10119,
      "كوني": 10120,
      "والمع": 10121,
      "ماركس": 10122,
      "حولها": 10123,
      "التركيز": 10124,
      "الثامنة": 10125,
      "تؤثر": 10126,
      "الأزرق": 10127,
      "ميدان": 10128,
      "فِ": 10129,
      "فوري": 10130,
      "قوت": 10131,
      "ماه": 10132,
      "ديدي": 10133,
      "الحقل": 10134,
      "البلدي": 10135,
      "ادا": 10136,
      "المنتج": 10137,
      "يشا": 10138,
      "مارتن": 10139,
      "مستوط": 10140,
      "تجعل": 10141,
      "ردام": 10142,
      "لدراسة": 10143,
      "واستمرت": 10144,
      "البحار": 10145,
      "الحاكمة": 10146,
      "تقليد": 10147,
      "ci": 10148,
      "أجريت": 10149,
      "عوا": 10150,
      "ملم": 10151,
      "القليل": 10152,
      "يلعب": 10153,
      "جملة": 10154,
      "السلع": 10155,
      "وبعدها": 10156,
      "بروتوكول": 10157,
      "تعم": 10158,
      "دس": 10159,
      "مجا": 10160,
      "يخرج": 10161,
      "الاعتقاد": 10162,
      "التفاض": 10163,
      "ليش": 10164,
      "ليمان": 10165,
      "سبانيا": 10166,
      "بعين": 10167,
      "بطية": 10168,
      "الإنكلي": 10169,
      "ذيب": 10170,
      "الأنشطة": 10171,
      "لنقل": 10172,
      "المرضى": 10173,
      "موتورز": 10174,
      "مسرحي": 10175,
      "pp": 10176,
      "اجتمع": 10177,
      "بمع": 10178,
      "قها": 10179,
      "ولعل": 10180,
      "التكوين": 10181,
      "التمييز": 10182,
      "الكورية": 10183,
      "بلديات": 10184,
      "متنا": 10185,
      "طاط": 10186,
      "راقية": 10187,
      "أغنية": 10188,
      "الحراري": 10189,
      "تلعب": 10190,
      "نفط": 10191,
      "لإعادة": 10192,
      "شبكات": 10193,
      "والثانية": 10194,
      "كانيكية": 10195,
      "شملت": 10196,
      "إثبات": 10197,
      "رئيسا": 10198,
      "فرا": 10199,
      "ينظر": 10200,
      "ارقة": 10201,
      "بروسيا": 10202,
      "الدخول": 10203,
      "الخِ": 10204,
      "يتألف": 10205,
      "يتطلب": 10206,
      "تنمية": 10207,
      "جلب": 10208,
      "أدخل": 10209,
      "بلاده": 10210,
      "تاحف": 10211,
      "لوح": 10212,
      "وأطلق": 10213,
      "أبواب": 10214,
      "تتعلق": 10215,
      "قصيدة": 10216,
      "جميعها": 10217,
      "نفذ": 10218,
      "العثمانيون": 10219,
      "دائما": 10220,
      "المعارض": 10221,
      "ازدهار": 10222,
      "Com": 10223,
      "بفعل": 10224,
      "توجيه": 10225,
      "سوء": 10226,
      "نجا": 10227,
      "والض": 10228,
      "ومه": 10229,
      "الكلي": 10230,
      "متسا": 10231,
      "جدول": 10232,
      "اعتقد": 10233,
      "التجربة": 10234,
      "شعبي": 10235,
      "اطئ": 10236,
      "صحفي": 10237,
      "ومناسبات": 10238,
      "الابتدائية": 10239,
      "جأ": 10240,
[...]
